<unk>	0
<s>	0
</s>	0
▁protein	-2.42851
-	-2.44202
▁family	-3.05228
containing	-3.43528
▁domain	-3.45731
▁DUF	-3.89857
▁	-3.9314
/	-4.08872
▁subunit	-4.52051
1	-4.88026
▁kinase	-5.00177
binding	-5.16007
▁transporter	-5.21188
2	-5.21935
al	-5.23621
3	-5.33027
▁factor	-5.44189
transferase	-5.48907
▁synthase	-5.51442
A	-5.54811
protein	-5.5702
S	-5.60943
like	-5.62159
▁transcription	-5.66784
D	-5.7136
dependent	-5.75418
▁C	-5.77483
▁type	-5.78107
▁1	-5.78475
4	-5.82062
▁DNA	-5.82753
▁dehydrogenase	-5.83091
B	-5.83296
e	-5.83685
C	-5.87706
f	-5.92824
▁and	-5.95074
▁ribosomal	-5.95078
▁regulator	-5.97146
▁S	-6.00818
▁N	-6.01939
▁serine	-6.04044
▁RNA	-6.04732
▁reductase	-6.05169
▁ABC	-6.05537
▁bi	-6.05983
▁system	-6.11112
unction	-6.16038
▁L	-6.17858
H	-6.20031
threonine	-6.21909
▁2	-6.22111
▁II	-6.22341
5	-6.22634
▁A	-6.23422
P	-6.23624
▁ligase	-6.23818
associated	-6.23831
F	-6.24714
phosphate	-6.26222
▁I	-6.27696
)	-6.2813
ing	-6.29361
6	-6.29786
(	-6.31723
▁receptor	-6.31972
▁ATP	-6.32565
▁alpha	-6.32825
type	-6.33585
▁complex	-6.3473
ion	-6.35966
N	-6.37018
▁E	-6.37873
▁polymerase	-6.38474
r	-6.38921
▁finger	-6.39075
E	-6.39346
▁M	-6.40285
▁D	-6.40728
▁hydrolase	-6.41045
▁B	-6.42998
yltransferase	-6.44427
R	-6.47527
▁beta	-6.47614
7	-6.4879
L	-6.4943
in	-6.50152
▁repeat	-6.51694
G	-6.5694
▁oxidoreductase	-6.57118
ed	-6.586
▁acid	-6.587
▁zinc	-6.64205
▁permease	-6.64326
▁F	-6.64602
y	-6.66626
CoA	-6.66712
▁membrane	-6.71651
▁III	-6.72216
ate	-6.73291
▁P	-6.73582
▁(	-6.75801
methyl	-6.76422
▁secretion	-6.76628
9	-6.80302
▁ubiquitin	-6.80898
c	-6.81639
8	-6.82183
▁phosphatase	-6.82502
ic	-6.83283
▁biosynthesis	-6.84387
▁cytochrome	-6.84574
di	-6.8562
▁3	-6.87169
M	-6.87213
I	-6.88078
▁class	-6.90467
▁G	-6.91477
T	-6.9179
l	-6.95156
▁BTB	-6.97808
a	-6.97997
terminal	-6.9825
)-	-6.98743
s	-6.98768
▁c	-6.99338
▁oxidase	-6.99904
▁peptidase	-7.01268
▁tRNA	-7.01401
▁4	-7.02862
▁substrate	-7.03111
▁assembly	-7.06524
▁3-	-7.09237
related	-7.09767
▁small	-7.09794
ation	-7.10407
K	-7.14774
10	-7.14784
▁U	-7.17473
0	-7.18071
▁toxin	-7.18257
▁PH	-7.18292
▁H	-7.19292
yl	-7.21181
specific	-7.2131
▁NAD	-7.22052
▁isomerase	-7.22336
ase	-7.22432
O	-7.23397
,	-7.25686
40	-7.25704
beta	-7.26669
▁initiat	-7.27364
▁methyl	-7.2741
▁V	-7.27487
20	-7.2755
▁5	-7.27951
▁ATPase	-7.2799
acetyl	-7.28904
▁poly	-7.28907
▁2-	-7.29051
ative	-7.29194
▁p	-7.29382
tRNA	-7.29608
18	-7.3123
19	-7.31422
16	-7.32506
▁R	-7.32573
12	-7.33797
14	-7.33823
▁O	-7.34003
▁flagella	-7.35
Q	-7.35633
phage	-7.36555
30	-7.37852
▁tyrosine	-7.38035
of	-7.3837
▁endonuclease	-7.39182
X	-7.39252
▁IV	-7.39491
11	-7.40565
rich	-7.40676
▁put	-7.40749
▁re	-7.40751
▁decarboxylase	-7.40815
▁chaperone	-7.4103
metallopeptidase	-7.41247
▁b	-7.42338
▁transfer	-7.42435
1/	-7.42623
or	-7.43262
p	-7.43337
▁enzyme	-7.43911
▁response	-7.44054
48	-7.44714
activat	-7.45054
▁SAM	-7.45543
Y	-7.45618
▁synthetase	-7.45655
▁protease	-7.45727
▁NADH	-7.45854
▁gamma	-7.46002
▁transferase	-7.46306
▁cell	-7.46357
▁homolog	-7.47253
on	-7.47794
ted	-7.48099
J	-7.48234
▁phosphate	-7.49098
-3-	-7.49099
tic	-7.4941
ity	-7.49536
▁amino	-7.5058
▁channel	-7.506
quinone	-7.50605
ar	-7.50763
▁sigma	-7.50929
▁regulatory	-7.51194
t	-7.52041
15	-7.52335
▁PTS	-7.52369
▁helicase	-7.52503
▁lipoprotein	-7.5259
▁dehydratase	-7.52691
▁iron	-7.52713
▁T	-7.53144
▁translation	-7.54141
17	-7.54482
GR	-7.54623
kinase	-7.5523
24	-7.56573
50	-7.56821
er	-7.57584
▁TI	-7.57654
▁50	-7.58
▁lyase	-7.58907
m	-7.59066
te	-7.59401
▁ribonuclease	-7.60072
27	-7.60615
▁phospho	-7.61093
▁inhibitor	-7.6166
39	-7.6201
saccharide	-7.6206
hydroxy	-7.62308
29	-7.62419
▁6	-7.6324
g	-7.63388
▁histidine	-7.63829
▁7	-7.63868
▁4-	-7.64123
n	-7.64324
AT	-7.6448
28	-7.65199
glycoside	-7.6534
22	-7.6543
interacting	-7.65623
42	-7.65967
▁component	-7.66774
37	-7.66857
▁large	-7.67622
▁carrier	-7.68226
▁cysteine	-7.68641
▁MFS	-7.69449
▁rRNA	-7.69965
amino	-7.70127
▁UDP	-7.70128
rec	-7.70368
13	-7.70541
23	-7.70632
tional	-7.71113
se	-7.71291
46	-7.717
box	-7.71765
▁member	-7.71833
▁biogenesis	-7.71857
45	-7.72098
47	-7.72702
21	-7.72995
phospho	-7.73548
▁sugar	-7.74274
phosphatase	-7.74794
d	-7.74926
▁chain	-7.75211
▁5-	-7.7566
25	-7.75829
▁deacetylase	-7.76368
U	-7.76511
Z	-7.76731
53	-7.76921
26	-7.78258
▁acetyl	-7.78321
▁replication	-7.78503
▁cyclin	-7.78564
POZ	-7.7884
▁m	-7.78927
▁acyl	-7.79225
▁glycosyl	-7.79856
deoxy	-7.8043
▁histone	-7.80873
▁pre	-7.80931
antitoxin	-7.81128
▁di	-7.81349
▁sensor	-7.81388
▁conjuga	-7.82485
-6-	-7.82841
35	-7.83003
pair	-7.83141
▁sporulation	-7.83208
ator	-7.83209
▁repressor	-7.83357
▁RING	-7.83396
38	-7.8343
membrane	-7.83528
▁PHD	-7.83995
▁phosphoribosyl	-7.84029
-2	-7.8454
70	-7.8459
43	-7.85075
49	-7.85818
▁cyclase	-7.85957
32	-7.86138
▁s	-7.86267
31	-7.87832
▁sub	-7.88159
▁GTPase	-7.88227
cal	-7.8839
▁trans	-7.88465
36	-7.88752
ethyltransferase	-7.90603
▁antiporter	-7.90713
▁ferredoxin	-7.91144
▁a	-7.91641
b	-7.9208
▁o	-7.93245
▁resistance	-7.9356
ck	-7.93727
alpha	-7.93916
ated	-7.9406
-1-	-7.94126
▁peptide	-7.94194
▁nucleotide	-7.94619
-4-	-7.95054
tage	-7.95145
34	-7.95747
-2-	-7.95896
▁transport	-7.96216
▁potassium	-7.96268
▁metallo	-7.96399
ein	-7.96853
PF	-7.97407
o	-7.98591
family	-8.00175
x	-8.01482
ary	-8.02055
sulfur	-8.02165
ine	-8.02268
▁f	-8.02477
▁Y	-8.02677
aldehyde	-8.02695
41	-8.03097
glutamate	-8.04049
▁kelch	-8.04673
▁30	-8.04783
▁exonuclease	-8.04865
▁cation	-8.05186
helix	-8.05559
W	-8.05567
▁photo	-8.05867
▁1-	-8.07031
▁elongat	-8.07092
k	-8.07472
▁signal	-8.07654
▁mitochondri	-8.07706
▁aldolase	-8.07709
▁eff	-8.08074
carboxypeptidase	-8.08111
▁tri	-8.08198
▁co	-8.08442
oxide	-8.09153
▁nuclea	-8.09865
ble	-8.10656
▁ribosome	-8.10798
▁tail	-8.10911
▁non	-8.10916
▁box	-8.10962
▁metal	-8.10982
▁FAD	-8.11168
▁nucleoside	-8.11377
44	-8.12174
▁catal	-8.12491
-1	-8.13155
fun	-8.13819
▁CRISPR	-8.14005
▁motif	-8.14063
i	-8.14308
sulfide	-8.14317
ACP	-8.14559
▁VI	-8.14806
▁hydrogenase	-8.14819
acetylglucosamin	-8.14909
alanine	-8.15209
▁60	-8.15466
lyase	-8.15567
97	-8.15586
▁specific	-8.15882
▁helix	-8.16285
th	-8.16396
▁translocase	-8.17342
▁hydratase	-8.17366
▁transposase	-8.17394
tive	-8.17438
▁solute	-8.17471
▁calcium	-8.17536
▁activator	-8.17726
▁carboxylase	-8.17734
▁GTP	-8.17798
cetyltransferase	-8.1857
▁sulfur	-8.19018
V	-8.19625
▁K	-8.20322
hydrolase	-8.20392
54	-8.20722
▁mitogen	-8.20784
▁radi	-8.20899
le	-8.21279
▁monooxygenase	-8.21368
two	-8.21488
class	-8.22242
component	-8.22243
system	-8.22866
diphosphate	-8.22998
▁glutamate	-8.23099
▁8	-8.24331
▁pseudouridine	-8.24494
▁9	-8.25529
▁40	-8.25673
33	-8.25787
56	-8.26397
carboxylate	-8.26838
▁Sec	-8.27718
▁division	-8.28061
▁proteasome	-8.28063
▁stress	-8.28121
▁deaminase	-8.28125
▁myosin	-8.28168
▁sodium	-8.28199
otic	-8.28297
acyltransferase	-8.28413
▁ADP	-8.28561
▁glucose	-8.29236
chain	-8.29819
aminotransferase	-8.30107
acyl	-8.30376
▁antitoxin	-8.31407
▁10	-8.31476
tion	-8.31734
euk	-8.31763
▁6-	-8.31825
▁cluster	-8.32216
▁mutase	-8.32338
▁glutamine	-8.32403
▁glycine	-8.326
▁medi	-8.32615
▁glutathione	-8.32634
▁aspartate	-8.32726
alco	-8.33025
Fe	-8.33471
▁glycos	-8.33843
▁ma	-8.34599
hol	-8.35586
serine	-8.35681
▁immun	-8.35905
▁symporter	-8.35907
AR	-8.36022
▁pilus	-8.36143
▁heme	-8.36296
glycerol	-8.3635
cysteine	-8.3646
▁lipid	-8.36481
▁hydroxylase	-8.36577
90	-8.36697
--	-8.37043
II	-8.37154
dehydro	-8.3748
unc	-8.37515
ux	-8.37735
▁GN	-8.37898
▁phosph	-8.38146
late	-8.3851
adenosine	-8.39403
▁endo	-8.39831
us	-8.39903
▁anti	-8.39909
▁molecul	-8.40072
▁Rho	-8.40124
▁Rab	-8.40152
▁uL	-8.4018
▁ribonucleo	-8.40199
ance	-8.40381
▁5'-	-8.40814
re	-8.40893
▁mono	-8.41529
▁dioxygenase	-8.41783
mRNA	-8.42386
▁spor	-8.42505
▁16	-8.42532
coil	-8.42794
▁Ras	-8.43648
keto	-8.43769
▁SET	-8.44154
lactamase	-8.4442
▁electron	-8.4442
▁center	-8.44421
ankyrin	-8.4452
▁phosphorylase	-8.44626
▁formate	-8.44632
▁sorting	-8.44689
peron	-8.44843
AP	-8.45207
▁nuclease	-8.45262
▁IS	-8.45463
▁pyruvate	-8.45903
▁splicing	-8.46013
ly	-8.46434
ATP	-8.47145
out	-8.47313
▁Fe	-8.47347
ne	-8.47772
nucleotide	-8.48085
ive	-8.48333
▁gro	-8.48719
▁export	-8.4888
poly	-8.48898
▁leucine	-8.49234
▁RNF	-8.49369
ide	-8.49731
▁Cas	-8.49759
id	-8.49804
ni	-8.50027
▁J	-8.5007
▁adenylyl	-8.50408
▁ol	-8.50712
▁arginine	-8.50818
dehydrogenase	-8.51392
factor	-8.51463
coupl	-8.51589
epimerase	-8.51615
▁Z	-8.51849
▁23	-8.52205
60	-8.53595
▁heat	-8.5373
▁element	-8.53803
▁topoisomerase	-8.53804
▁peptidyl	-8.53954
99	-8.54052
▁oxygenase	-8.54109
▁meth	-8.54145
▁reacti	-8.54314
▁delta	-8.54434
▁porin	-8.54437
▁WD	-8.54459
▁fructose	-8.5454
transglycosylase	-8.5458
▁serp	-8.55147
▁Fli	-8.56102
59	-8.5637
ubiquinone	-8.56586
utiliz	-8.56923
ke	-8.57031
ox	-8.5851
w	-8.58573
▁effector	-8.58727
▁HTH	-8.58756
▁cofactor	-8.58772
▁lectin	-8.58787
▁dual	-8.5881
▁PTB	-8.58818
▁FAM	-8.58865
▁mur	-8.58963
-5-	-8.59012
▁cytidyl	-8.59021
▁TMEM	-8.59133
▁Tra	-8.59156
hosphodiesterase	-8.59359
▁fatty	-8.59463
▁copper	-8.59571
58	-8.59816
▁gene	-8.5994
strin	-8.60171
proton	-8.60984
▁an	-8.61168
▁de	-8.61483
▁exo	-8.61715
▁SH	-8.61744
DNA	-8.61776
lactate	-8.61859
dioxygenase	-8.61882
arginine	-8.61917
ter	-8.62067
one	-8.62427
▁26	-8.62616
DP	-8.63688
acid	-8.63961
▁multidrug	-8.6399
▁kDa	-8.63991
▁periplasmic	-8.63991
anthra	-8.64073
▁pyridoxal	-8.64091
▁coat	-8.64171
▁molybdenum	-8.64187
55	-8.64354
methionine	-8.64572
▁succinate	-8.64599
▁cyclic	-8.64983
atidylinositol	-8.65849
▁guanine	-8.6592
68	-8.6601
▁glycerol	-8.66359
ition	-8.66362
AMP	-8.66947
prolyl	-8.66972
process	-8.67243
▁acce	-8.67318
▁en	-8.67389
adenine	-8.67506
▁acyltransferase	-8.67662
▁pro	-8.68177
▁TFII	-8.68268
▁sho	-8.68475
▁14	-8.69057
▁Na	-8.69237
ta	-8.69529
▁particle	-8.69546
▁phospholipase	-8.69548
▁super	-8.6956
▁flavoprotein	-8.69561
▁aminopeptidase	-8.69592
▁uS	-8.69696
▁restriction	-8.69746
▁molybdopterin	-8.69754
▁thiamine	-8.69874
▁2,3-	-8.70562
amine	-8.70616
IP	-8.7062
▁11	-8.7084
ng	-8.71192
fold	-8.71677
▁vo	-8.7171
cogn	-8.7211
phosphoglycerate	-8.72437
BP	-8.72471
amidotransferase	-8.72808
amide	-8.72888
PLP	-8.72986
▁CoA	-8.73029
splicing	-8.73303
guanine	-8.7331
▁12	-8.73385
bisphosphat	-8.73508
velop	-8.74564
ose	-8.74679
▁d	-8.74981
▁recombination	-8.75428
▁thioesterase	-8.75439
ketoacyl	-8.75483
▁exporter	-8.75496
▁cyclohydrolase	-8.75531
▁bas	-8.7586
2/	-8.76141
▁ethanolamine	-8.76269
▁carbon	-8.76566
▁sulfate	-8.76704
u	-8.76787
glutamyl	-8.77113
▁aceto	-8.77123
▁methionine	-8.77188
▁fold	-8.77676
▁13	-8.77708
meth	-8.77889
carboxy	-8.78044
lu	-8.78532
69	-8.79005
▁sh	-8.79158
peptide	-8.79476
head	-8.79521
pyruvate	-8.79568
▁phosphatidyl	-8.79591
lysine	-8.79632
ene	-8.79655
'	-8.79821
tetrahydrofolate	-8.80124
erob	-8.80347
76	-8.80542
▁multi	-8.80563
▁Sm	-8.8075
▁lipo	-8.81231
▁exchange	-8.8148
▁chemo	-8.81668
▁peptidoglycan	-8.81678
▁vacuolar	-8.81678
▁metalloprotease	-8.8168
▁epsilon	-8.81774
▁nickel	-8.81908
orni	-8.82121
▁carbamoyl	-8.82148
▁adenyl	-8.82152
▁biotin	-8.82321
▁proline	-8.82491
EF	-8.82537
▁15	-8.83412
oxo	-8.83638
mi	-8.83803
▁inne	-8.83823
ou	-8.84193
▁epimerase	-8.84542
ent	-8.84857
DR	-8.85069
▁me	-8.85497
80	-8.86154
nucleotidase	-8.86154
precorrin	-8.86155
flavin	-8.86192
▁associated	-8.86879
▁in	-8.87084
oyl	-8.87458
GDP	-8.87576
glucose	-8.87839
▁single	-8.88345
▁pyrophosphatase	-8.88349
▁nitrate	-8.88352
▁intra	-8.88354
▁Flg	-8.88364
thine	-8.8844
▁amidase	-8.88516
▁diphosphatase	-8.88557
▁ana	-8.88625
▁HAD	-8.88644
ol	-8.88708
▁inter	-8.88741
GEF	-8.89025
▁carboxyl	-8.89063
ting	-8.89103
▁actin	-8.89125
regulat	-8.89248
▁thioredoxin	-8.89335
GN	-8.89524
▁antigen	-8.89788
▁ammonia	-8.89795
ve	-8.89825
▁PAS	-8.89966
▁ple	-8.90665
▁VII	-8.91268
)/	-8.91329
me	-8.9148
de	-8.91656
formation	-8.9174
triphosphate	-8.92304
complex	-8.93196
guanylate	-8.93301
tyrosine	-8.93325
gamma	-8.93331
carrier	-8.93349
98	-8.93537
jo	-8.93915
65	-8.94516
acet	-8.94673
1-	-8.95164
▁import	-8.95225
turn	-8.95488
loop	-8.95488
▁double	-8.95489
▁FYVE	-8.95494
▁phos	-8.95535
transporting	-8.95544
cytosine	-8.95678
▁eL	-8.95699
▁adapt	-8.95704
light	-8.95811
▁NADPH	-8.9588
▁SLC	-8.95984
66	-8.96005
▁glycoprotein	-8.96099
4/	-8.96207
▁mot	-8.96285
(34)	-8.96358
▁ring	-8.96384
▁X	-8.96386
▁glycosylase	-8.96454
51	-8.96604
▁RN	-8.96646
ribosyl	-8.96815
phosphoribosyl	-8.97069
78	-8.97162
ten	-8.97469
nate	-8.97562
▁flavin	-8.97853
▁acc	-8.97976
▁W	-8.98112
tor	-8.98159
▁tetra	-8.98231
trans	-8.98485
▁up	-8.98655
▁MAP	-8.99191
nt	-8.99509
Ysc	-8.99872
NAD	-9.00009
▁t	-9.00028
ribonuclease	-9.00163
▁proton	-9.00571
6)-	-9.00686
93	-9.01198
▁EF	-9.01204
citrate	-9.01206
stem	-9.02375
ock	-9.02415
▁Lys	-9.02871
▁hybrid	-9.0318
(37)-	-9.03185
▁energy	-9.03186
▁penicillin	-9.03261
▁capsid	-9.03296
arabinose	-9.03333
▁FMN	-9.03344
▁eIF	-9.03463
▁body	-9.03634
▁fus	-9.03768
▁tr	-9.03893
▁cobalt	-9.03981
▁acetate	-9.03995
▁branch	-9.04485
▁endopeptidase	-9.04526
hreonylcarbamoyl	-9.04774
ment	-9.05048
anyl	-9.05238
▁photosy	-9.06553
61	-9.07267
▁nucle	-9.08198
▁ion	-9.0829
▁IIA	-9.08434
-7-	-9.085
acetylmuram	-9.08757
led	-9.08792
reductase	-9.08895
sensitiv	-9.0906
homoserine	-9.09306
malate	-9.0941
▁17	-9.09683
ction	-9.09741
88	-9.10613
RK	-9.10897
85	-9.11036
main	-9.11381
is	-9.11458
modulin	-9.11513
▁competence	-9.11514
▁transaminase	-9.11514
▁region	-9.11526
▁pilin	-9.1153
▁LSm	-9.11542
▁fimbrial	-9.11593
▁low	-9.11626
▁ubiquinol	-9.11638
▁Esc	-9.11779
▁peroxisom	-9.11987
▁tubulin	-9.12004
um	-9.12066
▁AP	-9.12315
▁nitrite	-9.1258
translocat	-9.12771
ut	-9.12874
IX	-9.13089
co	-9.13533
▁fac	-9.13764
▁citrate	-9.13766
ilit	-9.14322
ssor	-9.1436
▁lysine	-9.14432
▁18	-9.14684
87	-9.15337
▁cas	-9.15903
▁ne	-9.16027
▁integr	-9.16306
dle	-9.17234
transporter	-9.17607
▁homo	-9.17848
▁22	-9.18037
st	-9.18282
permease	-9.18304
spermidine	-9.1846
▁TRAP	-9.18774
up	-9.19298
63	-9.19338
en	-9.19339
steroid	-9.19459
07	-9.19516
00	-9.19718
4-	-9.19731
phosphonate	-9.20119
▁Zn	-9.20435
▁hook	-9.20604
▁heavy	-9.20605
▁racemase	-9.20605
▁surface	-9.20605
▁bacteriocin	-9.20605
xanthine	-9.20606
▁KCTD	-9.20611
▁modulator	-9.20614
DEA	-9.2063
▁UBX	-9.2063
▁urease	-9.20639
▁RRP	-9.20655
▁virulence	-9.20741
▁auto	-9.20773
stranded	-9.20773
▁DEAD	-9.20948
▁PIN	-9.20954
▁esterase	-9.21099
▁cleavage	-9.2115
▁integra	-9.21158
plasmic	-9.21183
▁IIBC	-9.21272
▁eS	-9.21273
▁thiol	-9.21314
▁nitrogen	-9.21345
mannose	-9.21368
▁COM	-9.21389
only	-9.21395
96	-9.21677
-3	-9.21716
▁conjugat	-9.2196
▁pyrimidine	-9.22008
▁Clp	-9.22025
▁choline	-9.22294
3/	-9.22302
▁mannose	-9.2253
5/	-9.22681
▁Eut	-9.22972
III	-9.23552
z	-9.23774
▁Cys	-9.23784
▁ly	-9.23949
phatidylinositol	-9.24084
▁adenine	-9.24132
am	-9.24187
▁2'-	-9.24541
some	-9.24648
▁snRN	-9.24867
▁integrat	-9.24868
plate	-9.251
choline	-9.25313
MP	-9.25383
▁tau	-9.26196
essor	-9.26722
▁diphosphate	-9.26941
489	-9.26969
▁phosphodiester	-9.27062
oglutarate	-9.27493
ous	-9.27766
57	-9.28007
isomerase	-9.28195
cytochrome	-9.28317
guanosine	-9.28381
▁nucleo	-9.28401
chaperone	-9.28412
antigen	-9.28457
ammonia	-9.28458
iron	-9.28519
ATPase	-9.28526
52	-9.28715
2'-	-9.29213
bi	-9.29857
▁ephrin	-9.30604
▁high	-9.30604
▁magnesium	-9.30604
▁recombinase	-9.30604
▁lysozyme	-9.30605
▁synaptotagmin	-9.30605
▁TonB	-9.30609
▁motility	-9.30609
▁rho	-9.30609
▁aromatic	-9.3061
▁ribonucleoside	-9.30616
sensing	-9.30632
▁Hsp	-9.30684
rhamnose	-9.30689
▁tryptophan	-9.30753
▁carbohydrate	-9.30755
▁Pil	-9.30816
appa	-9.30852
▁COG	-9.30857
490	-9.30875
hydroxyacyl	-9.30881
▁VPS	-9.30894
vers	-9.30945
▁3'-5'	-9.30974
▁chitin	-9.31048
▁RAD	-9.31108
oligosaccharide	-9.31178
dicarboxylate	-9.31372
ork	-9.31387
▁GIN	-9.31519
▁Trb	-9.31554
▁PAP	-9.31558
▁basal	-9.31562
WA	-9.31587
rod	-9.3161
378	-9.31653
▁si	-9.31654
▁bL	-9.31844
▁FH	-9.31986
▁inositol	-9.32197
▁pyrophospho	-9.32291
▁gp	-9.32332
▁sulfi	-9.32441
▁enoyl	-9.32558
RNA	-9.3266
▁mo	-9.32697
adenosyl	-9.32772
▁ribose	-9.32847
▁spermidine	-9.3303
osomal	-9.33194
osome	-9.33272
▁nucleotidyl	-9.33288
opterin	-9.33475
04	-9.33705
aspartate	-9.33809
02	-9.34014
ac	-9.34059
▁Che	-9.34185
glucosamine	-9.34226
64	-9.34259
450	-9.34301
89	-9.34392
▁IIC	-9.35589
▁coi	-9.36158
peptidase	-9.3631
site	-9.36886
if	-9.36914
▁alkyl	-9.36966
▁dihydro	-9.37081
glycine	-9.37605
▁oxide	-9.37819
an	-9.3807
gent	-9.386
309	-9.38695
▁matura	-9.39095
porin	-9.39397
respons	-9.39463
cytidine	-9.39496
dehydratase	-9.39508
sigma	-9.39521
nucleoside	-9.39523
cyclic	-9.39635
enoyl	-9.39653
sulfate	-9.39697
thio	-9.39718
UDP	-9.39745
glutathione	-9.39746
NADP	-9.39761
86	-9.40423
▁transcript	-9.40701
▁hydro	-9.40712
▁HI	-9.40894
107	-9.40979
▁j	-9.41242
▁Tss	-9.4135
ional	-9.41372
▁Trm	-9.4147
▁unc	-9.41534
▁long	-9.41636
▁indole	-9.41716
▁selenium	-9.41716
galactosidase	-9.41716
▁Nek	-9.41719
▁vesic	-9.41725
▁amidohydrolase	-9.41728
quinate	-9.41741
sarcosine	-9.4176
▁Fo	-9.41773
degrad	-9.41783
▁primase	-9.41792
(5)	-9.41811
▁cycle	-9.41814
▁dyn	-9.41831
▁Ycf	-9.41848
▁hemoglobin	-9.41849
▁nitrogenase	-9.41855
▁to	-9.41855
▁damage	-9.4188
▁pyrophosphate	-9.41949
▁lipase	-9.41952
bisphosphatase	-9.41961
▁synthesis	-9.41991
▁CDC	-9.41995
▁polypeptide	-9.41998
▁3,4-	-9.42033
▁PIG	-9.42068
▁integrase	-9.42074
▁Ran	-9.42091
LRR	-9.42119
▁starvation	-9.42134
▁siderophore	-9.42134
▁isocitrate	-9.42142
295	-9.42166
4,6-	-9.42255
▁Yw	-9.42272
▁aspart	-9.42418
lgi	-9.42521
▁TBC	-9.42534
(2)-	-9.42579
▁transcriptase	-9.42598
ffic	-9.42602
▁guanylyl	-9.42619
aj	-9.42645
▁chromosome	-9.42647
▁iso	-9.42711
▁adenylate	-9.4282
sortase	-9.42986
77	-9.42999
▁PP	-9.43053
itol	-9.43139
ulose	-9.43147
▁tra	-9.43222
induc	-9.43388
▁uridine	-9.43503
▁betaine	-9.43629
▁dimethyl	-9.43849
▁uridyl	-9.44117
ral	-9.44221
h	-9.44233
ph	-9.44361
▁conjugati	-9.44542
ratu	-9.44915
ro	-9.45419
▁precorrin	-9.45562
▁NADP	-9.45636
▁head	-9.45778
mutase	-9.46058
omer	-9.46146
manno	-9.46441
pyrimidine	-9.46528
pent	-9.46958
157	-9.47192
forming	-9.47258
inositol	-9.47349
umarate	-9.48077
,5-	-9.48344
05	-9.48435
cell	-9.48578
ribose	-9.48842
▁NU	-9.49381
▁threonine	-9.49416
sor	-9.49979
▁prote	-9.50348
succinyl	-9.50481
▁Omp	-9.50615
malonate	-9.50639
▁IF	-9.50652
tetrahydro	-9.50874
axis	-9.51022
180	-9.51346
receptor	-9.51706
ligase	-9.51717
glucan	-9.51768
ferredoxin	-9.52025
monooxygenase	-9.52041
fructose	-9.52048
endopeptidase	-9.52057
copper	-9.52057
branch	-9.5208
hydroxylase	-9.52106
GTP	-9.52189
▁hydroxymethyl	-9.52378
199	-9.52652
osine	-9.52739
486	-9.52899
72	-9.53159
488	-9.53186
OS	-9.53249
▁plasmi	-9.53377
389	-9.53722
ding	-9.53826
v	-9.53981
formylglycin	-9.54043
ating	-9.54147
▁RPA	-9.54154
ization	-9.54156
valent	-9.54175
▁varia	-9.54216
witch	-9.54216
▁phenylalanine	-9.54216
▁tagat	-9.54216
▁autoinducer	-9.54216
▁hetero	-9.54216
▁mannitol	-9.54218
▁wall	-9.54218
methanopterin	-9.54218
▁dimerization	-9.54219
▁glycogen	-9.54228
glucosidase	-9.54234
▁nitric	-9.54248
Hrc	-9.543
oid	-9.54316
▁Mdt	-9.54392
▁desaturase	-9.54402
▁core	-9.54406
▁capsul	-9.5441
▁pyrrol	-9.54415
▁25	-9.54444
▁GA	-9.54474
fucose	-9.5448
▁Rlm	-9.54481
476	-9.54512
▁LPS	-9.54574
hand	-9.54576
▁UTP	-9.54585
▁exchanger	-9.54629
▁formyl	-9.54651
▁CCDC	-9.5469
▁geranylgeranyl	-9.54692
▁ribulose	-9.54716
determin	-9.54725
▁GPI	-9.54756
▁holin	-9.54766
▁adapter	-9.54777
enhancer	-9.54837
ND	-9.54849
286	-9.54875
▁RPC	-9.54914
▁aminoglycoside	-9.54914
▁SRP	-9.55112
▁TIM	-9.55129
▁SEC	-9.55147
▁PQ	-9.55255
▁modification	-9.55283
▁diacylglycerol	-9.55307
399	-9.55404
▁phospholipid	-9.55404
▁cis	-9.55499
ABC	-9.55555
mate	-9.55667
ma	-9.55735
ASH	-9.55837
▁prim	-9.56243
▁Nif	-9.56278
▁tol	-9.56563
glycero	-9.56645
organi	-9.5674
ogenesis	-9.56823
▁matur	-9.57092
opine	-9.57406
-70	-9.57514
carbon	-9.57566
▁3'-	-9.5822
domain	-9.58257
▁e	-9.58292
phenylacetate	-9.5856
▁dT	-9.59044
actin	-9.59166
▁Gp	-9.59442
▁se	-9.59525
460	-9.59585
166	-9.59637
ki	-9.59653
SP	-9.59714
73	-9.60043
product	-9.60191
2-	-9.60295
▁coupl	-9.60306
dipeptidase	-9.60507
256	-9.60567
▁carboxy	-9.60569
▁aminoacyl	-9.60666
▁PA	-9.60919
▁mRNA	-9.60934
▁we	-9.60956
120	-9.61253
177	-9.6129
▁termin	-9.61313
j	-9.61567
165	-9.61666
397	-9.61984
(2	-9.62366
▁v	-9.62579
6-	-9.62779
deoxychorismate	-9.63356
PRY	-9.63533
ot	-9.63695
▁ribo	-9.63699
▁MARCH	-9.63715
RN	-9.64374
dihydroxy	-9.64531
▁His	-9.64587
▁cyclo	-9.64734
bb	-9.64785
(1)	-9.64955
95	-9.65406
opropyl	-9.65431
▁dis	-9.65453
▁SU	-9.65505
OG	-9.65528
357	-9.65607
trico	-9.6564
pantothenate	-9.65719
387	-9.65778
▁for	-9.65935
▁Rec	-9.65939
420	-9.65943
297	-9.6613
▁Ubi	-9.6616
heptose	-9.66187
assembly	-9.66221
uracil	-9.66259
fatty	-9.6633
thioredoxin	-9.66337
3-	-9.66342
uridine	-9.66355
delta	-9.66389
ethanolamine	-9.66408
TM	-9.66468
GMP	-9.66495
HC	-9.6656
(3	-9.66633
-4	-9.66788
▁succinyl	-9.66797
308	-9.6685
compartment	-9.66892
03	-9.67075
enti	-9.6709
ocyte	-9.67234
onate	-9.67323
eff	-9.6734
▁proto	-9.67453
opeptide	-9.67583
▁Go	-9.67654
tr	-9.67689
sis	-9.6773
dimethyl	-9.67763
glucuron	-9.67778
▁sulf	-9.67826
ight	-9.67835
▁nucleol	-9.67898
shi	-9.67951
last	-9.68069
▁polyadenylat	-9.68094
hionine	-9.68158
▁cyto	-9.68256
▁telomer	-9.68363
▁adhesi	-9.68392
▁ester	-9.68399
480	-9.68474
▁deiminase	-9.68501
▁gyrase	-9.68501
▁immunoglobulin	-9.68501
▁mismatch	-9.68501
▁tumor	-9.68501
testis	-9.68501
▁insulin	-9.68501
▁mechan	-9.68501
▁autophagy	-9.68501
▁nodul	-9.68501
▁CcdA	-9.68502
▁pump	-9.68502
▁PRDM	-9.68504
▁desulfurase	-9.68507
▁1,2-	-9.68512
▁CCAAT	-9.68513
▁cystat	-9.68513
▁curli	-9.68517
▁translocation	-9.68538
▁PDZ	-9.6854
▁ECF	-9.68565
6/	-9.68572
phosphatidyl	-9.68599
▁Rsm	-9.68615
tamin	-9.68617
control	-9.68637
▁nexin	-9.68655
TR	-9.68664
▁AAA	-9.68679
▁dolich	-9.68683
▁PRP	-9.68713
▁deacylase	-9.68717
▁flavodoxin	-9.68717
▁ribonucleotide	-9.68755
▁RBM	-9.68759
▁LIM	-9.68774
ry	-9.68788
▁Ccm	-9.68798
▁Rpo	-9.68839
▁ATG	-9.68862
▁STE	-9.6889
▁MIC	-9.6892
278	-9.69042
redoxin	-9.69043
VI	-9.69054
▁nicotinamide	-9.69083
▁cobalamin	-9.69094
▁Gsp	-9.69102
▁purine	-9.69116
taxi	-9.6912
▁Asp	-9.69154
▁maltose	-9.69163
▁anchor	-9.69256
7)-	-9.69298
▁peroxidase	-9.69412
▁al	-9.69579
▁RPB	-9.6961
ad	-9.69687
▁CAP	-9.69801
WD	-9.69829
▁fib	-9.69936
▁sn	-9.69954
MT	-9.70074
▁Nup	-9.70107
92	-9.70128
▁Yv	-9.70188
▁uni	-9.70295
▁Sig	-9.70556
▁methan	-9.71047
▁EV	-9.7107
▁mannosyl	-9.71124
▁PHF	-9.71273
▁elong	-9.71343
cur	-9.71354
lipid	-9.71431
▁neuro	-9.71466
262	-9.71483
erse	-9.71708
▁Pot	-9.71849
▁glucan	-9.71903
EAL	-9.71931
▁thiosulf	-9.72016
ure	-9.72027
less	-9.72224
philin	-9.72402
ound	-9.72475
osin	-9.72485
-1,6-	-9.72532
ra	-9.72738
resid	-9.7278
▁sept	-9.73031
▁dihydroxy	-9.73049
200	-9.73057
enyl	-9.73091
▁guanylate	-9.73237
▁oligo	-9.73352
transpeptidase	-9.73444
PP	-9.73778
▁IX	-9.73822
67	-9.74023
sh	-9.74032
▁ca	-9.74063
▁Co	-9.7408
-6	-9.74119
diamino	-9.74163
phosph	-9.742
509	-9.74263
ue	-9.74299
▁rev	-9.74314
oquinol	-9.74324
189	-9.7445
5'-	-9.74716
▁ubiquinone	-9.7521
oligopeptide	-9.75309
▁hydroxy	-9.75395
277	-9.75439
activa	-9.75562
diol	-9.75724
▁ep	-9.75823
-5'-	-9.76145
sory	-9.76225
▁19	-9.76256
▁CU	-9.76382
▁HD	-9.76527
436	-9.76682
IM	-9.77027
▁prot	-9.77521
homocystein	-9.77943
▁glucosyl	-9.78025
7/	-9.78249
▁AC	-9.78376
activ	-9.78401
▁alanine	-9.78779
diphospho	-9.78848
▁activ	-9.79007
CP	-9.79073
rv	-9.79797
formyl	-9.79992
100	-9.80329
AF	-9.80395
CT	-9.80631
▁PI	-9.80672
ular	-9.81518
285	-9.81518
promot	-9.8173
/3-	-9.81867
synthase	-9.81879
▁GAT	-9.82181
li	-9.82206
ribosomal	-9.82252
385	-9.823
▁WW	-9.82385
▁arsen	-9.82513
ric	-9.82604
repeat	-9.82636
proline	-9.82678
▁Ni	-9.82678
hydroxyacid	-9.82693
putrescine	-9.82726
histidine	-9.8293
▁micro	-9.82979
cyclase	-9.82984
sugar	-9.82986
nitrite	-9.82992
glutamine	-9.83
▁21	-9.83046
▁SpoII	-9.83068
▁late	-9.83133
79	-9.83222
succinate	-9.8352
cyclo	-9.83566
rRNA	-9.83659
ven	-9.83665
530	-9.83703
▁Gat	-9.83751
▁Arg	-9.83758
▁Pho	-9.83773
305	-9.83894
Cas	-9.83934
▁fibrob	-9.83965
ethylphosphonate	-9.83969
▁Thi	-9.84601
▁Yi	-9.84665
▁vi	-9.84706
209	-9.84863
▁h	-9.84865
485	-9.84918
300	-9.84991
▁le	-9.85091
▁7-	-9.85125
▁fibronectin	-9.85168
oxoprolinase	-9.85168
propeller	-9.85168
zipper	-9.85168
▁collagen	-9.85168
▁cross	-9.85168
▁discoidin	-9.85168
▁flippase	-9.85168
▁isopentenyl	-9.85168
▁manganese	-9.85168
microtubule	-9.85168
▁modifier	-9.85168
▁rhodanese	-9.85168
▁transposon	-9.85168
▁transient	-9.85168
▁zeta	-9.85169
▁reticulum	-9.85169
▁rhombo	-9.85169
▁macro	-9.8517
▁expression	-9.8517
▁oligomer	-9.8517
deazaguanine	-9.85172
▁WNK	-9.85174
▁sterol	-9.85174
▁Ybj	-9.85174
▁dismutase	-9.85175
▁RIO	-9.85186
▁TOM	-9.85194
uroporphyrinogen	-9.85196
▁brain	-9.85196
▁relaxase	-9.85199
▁FOX	-9.852
oxoacid	-9.85201
▁hormone	-9.85211
▁module	-9.85219
▁Yeb	-9.85219
▁COX	-9.8523
▁Rfa	-9.8524
▁Wz	-9.85241
▁PSF	-9.85258
▁Phn	-9.85276
▁partitioning	-9.85323
▁urea	-9.8535
280	-9.85353
▁PAK	-9.85392
aminoimidazole	-9.85395
▁molybdate	-9.85426
▁short	-9.85429
/2-	-9.85429
▁Ada	-9.85437
▁dihydrolipoyl	-9.85446
▁exoribonuclease	-9.85449
duci	-9.85467
▁MDR	-9.85522
▁CWC	-9.85542
▁adhesin	-9.85547
over	-9.85558
proporphyrinogen	-9.85589
▁Flh	-9.85598
▁thiolase	-9.85635
▁catalase	-9.85654
▁Hyp	-9.85686
▁form	-9.8573
▁TAF	-9.8577
466	-9.85774
▁aconita	-9.85779
▁Yla	-9.85792
▁kinesin	-9.85817
▁affinity	-9.8582
▁PEP	-9.85868
▁chorismate	-9.85907
▁dipeptide	-9.85962
▁IMP	-9.85996
▁AddA	-9.86042
▁maturase	-9.8606
▁methylase	-9.86112
▁at	-9.86204
▁gli	-9.8626
▁trehalose	-9.86302
propionate	-9.864
▁SETD	-9.86516
(7)	-9.86605
▁galactose	-9.8663
oacetate	-9.86835
▁SMC	-9.86921
ct	-9.86924
▁imidazole	-9.86928
olic	-9.8695
▁thymidyl	-9.87022
▁monophosphate	-9.87026
75	-9.87056
▁VirB	-9.87148
rin	-9.87163
▁ch	-9.87348
▁oxal	-9.87567
▁PX	-9.8768
▁palmitoyl	-9.8771
FAD	-9.87881
▁uracil	-9.87882
▁aryl	-9.88
▁Fim	-9.88113
185	-9.88234
▁Rad	-9.88357
▁Bcs	-9.88537
▁glucosamine	-9.8856
▁cytidine	-9.88702
▁CHA	-9.88779
lipin	-9.88989
▁regul	-9.89032
pimel	-9.89066
▁guanosine	-9.89122
81	-9.89149
TP	-9.89261
solu	-9.89287
▁TM	-9.89309
10/	-9.89314
refoldin	-9.89442
▁GI	-9.89901
▁domains	-9.89907
▁homoserine	-9.89977
435	-9.90017
▁CD	-9.90035
▁Rap	-9.90122
▁pr	-9.90169
accept	-9.90284
her	-9.90419
▁PD	-9.90455
▁car	-9.90859
▁GRA	-9.90966
SL	-9.9114
298	-9.91188
84	-9.91318
▁Lyt	-9.91492
RAM	-9.91585
▁GG	-9.91704
Ala	-9.91855
356	-9.92
-5	-9.92064
208	-9.92403
438	-9.92488
▁NO	-9.92517
▁lysyl	-9.92677
▁lactate	-9.92687
▁adenosyl	-9.92772
▁Csg	-9.93119
-(	-9.93222
164	-9.93476
▁20	-9.93491
ring	-9.93514
▁mu	-9.93691
▁HP	-9.93792
▁methylmalon	-9.94521
hydrogenase	-9.94575
sulfotransferase	-9.94686
hydrofolate	-9.94831
183	-9.94855
nd	-9.94867
▁glycosid	-9.95065
▁germin	-9.95151
▁IIB	-9.95396
▁malto	-9.95473
phosphoserine	-9.95476
380	-9.95535
06	-9.95567
rel	-9.95737
erythr	-9.95795
rine	-9.95854
nuclease	-9.95928
phosphodiester	-9.96377
▁52	-9.96498
lease	-9.96518
▁fi	-9.97085
408	-9.97098
PC	-9.97325
▁Fad	-9.97336
167	-9.97347
368	-9.9739
partit	-9.97407
phosphoglucon	-9.97548
phosphofructo	-9.97577
okinase	-9.97707
4,5-	-9.97891
heme	-9.97931
▁OB	-9.97983
wing	-9.98021
''	-9.98976
ded	-9.99046
mediate	-9.9929
HA	-9.99408
▁nucleotid	-9.99429
ass	-9.99499
ohydrolase	-9.99982
deoxyribonucle	-10
PT	-10.0007
(1	-10.0016
thyltransferase	-10.0036
188	-10.0062
170	-10.0066
tabolism	-10.009
glycerate	-10.0139
494	-10.0144
idine	-10.0147
hydroxyphenyl	-10.0151
62	-10.0155
it	-10.016
416	-10.0207
ga	-10.0214
strand	-10.0256
198	-10.026
▁inactiv	-10.0267
Gln	-10.0269
220	-10.0274
SNARE	-10.0274
nce	-10.0275
▁Ra	-10.0278
ribbon	-10.0288
VirB	-10.0291
structur	-10.0293
cobalt	-10.0299
biotin	-10.03
RF	-10.032
leuk	-10.032
nitrogen	-10.0321
imidazole	-10.0338
dr	-10.0342
412	-10.0347
506	-10.0347
response	-10.0352
betaine	-10.0358
carbox	-10.0363
▁vir	-10.0366
TK	-10.0372
cis	-10.0379
DM	-10.0382
idase	-10.0393
ti	-10.0395
▁wi	-10.0396
▁mid	-10.0396
493	-10.0404
30/	-10.0411
056	-10.0428
(20	-10.0439
CO	-10.0455
cystin	-10.0459
▁Tol	-10.046
▁ex	-10.048
ulonate	-10.048
cation	-10.0485
▁partition	-10.0498
▁insert	-10.0503
phosphohept	-10.0504
▁hydrogen	-10.0507
▁penta	-10.0508
associat	-10.051
▁aldo	-10.0513
sacchar	-10.0515
neuramin	-10.0516
▁bacilli	-10.0517
CTERM	-10.0517
hydrolyzing	-10.0517
▁anhydrase	-10.0517
▁mycofactocin	-10.0517
origin	-10.0517
▁sprouty	-10.0517
▁biosynthetic	-10.0517
▁archae	-10.0517
▁undecaprenyl	-10.0517
▁filament	-10.0517
▁FERM	-10.0517
▁LexA	-10.0517
▁occlu	-10.0517
▁nucleosidase	-10.0517
▁four	-10.0517
▁homeodomain	-10.0517
carboxypropyl	-10.0518
▁homeobox	-10.0518
▁NDUFA	-10.0518
▁brea	-10.0518
-2,6-	-10.0518
-1,4-	-10.0518
asparaginase	-10.0518
▁death	-10.0518
-1,2-	-10.0519
propane	-10.0519
▁alkalin	-10.052
▁antiterminator	-10.052
▁2,4-	-10.052
▁tetraspanin	-10.052
▁spec	-10.0521
▁CFAP	-10.0521
3',5'-	-10.0522
▁integrity	-10.0523
gulonate	-10.0523
▁divalent	-10.0524
▁SOX	-10.0525
▁methanol	-10.0525
lin	-10.0526
▁ORF	-10.0526
obilin	-10.0527
▁4'-	-10.0527
conduct	-10.0527
▁NHL	-10.0528
packag	-10.0528
▁chlorophyll	-10.0529
▁UBR	-10.0529
▁PLK	-10.053
elta	-10.0531
transglutaminase	-10.0531
▁Mla	-10.0532
▁glycyl	-10.0533
▁rap	-10.0533
lysidine	-10.0534
▁FtsH	-10.0536
▁Qse	-10.0537
▁termination	-10.0542
▁PhoP	-10.0545
▁DCC	-10.0545
▁asparagine	-10.0547
▁nicotinate	-10.0548
▁histidinol	-10.0548
▁glyceraldehyde	-10.0548
▁Psb	-10.0548
▁Osm	-10.0549
▁Dna	-10.055
▁MARK	-10.055
▁extra	-10.0551
▁Ydb	-10.0552
change	-10.0553
▁perm	-10.0553
comb	-10.0554
pyridine	-10.0555
▁COP	-10.0556
▁Kdp	-10.0559
caroten	-10.0565
▁Rlu	-10.0566
▁Ylb	-10.0567
▁Yjf	-10.0567
▁Yhc	-10.0568
yti	-10.057
Myb	-10.0571
phosphoinositide	-10.0573
adenylyl	-10.0577
glutar	-10.0581
▁polyadenylate	-10.0582
carnitine	-10.0583
▁xylo	-10.0586
▁VIII	-10.0588
▁SIK	-10.0592
activator	-10.0593
▁SWI	-10.0594
▁hemolysin	-10.0598
▁glycosidase	-10.0603
tide	-10.0605
▁Maf	-10.0606
▁Xa	-10.0609
bis	-10.0612
▁NME	-10.0612
▁Mus	-10.0613
▁initiator	-10.0619
▁SNF	-10.062
▁antibiotic	-10.0621
▁DAD	-10.0625
▁importin	-10.0626
▁PAN	-10.0632
(2))-	-10.0633
▁Ter	-10.0634
▁STAR	-10.0635
kle	-10.0637
▁con	-10.0638
▁Ydh	-10.0639
▁Yhf	-10.064
418	-10.0644
carboxylase	-10.0648
▁Ydi	-10.065
▁exosortase	-10.0651
▁arsenic	-10.0663
▁Q	-10.0668
eck	-10.0678
▁38	-10.0679
▁isopren	-10.0679
▁folate	-10.0691
175	-10.07
▁Tor	-10.0701
▁TRM	-10.0712
renyltransferase	-10.0718
omyc	-10.0723
▁Glp	-10.0742
▁structur	-10.0746
▁ribbon	-10.0751
ri	-10.0752
▁nitril	-10.076
MO	-10.0769
▁regulat	-10.0771
▁Fts	-10.0781
▁mL	-10.0783
▁Rcs	-10.079
▁Met	-10.0794
▁Gld	-10.0798
▁Sr	-10.08
gene	-10.0806
395	-10.0814
tri	-10.0816
oly	-10.0819
▁MY	-10.0824
▁SI	-10.083
-54	-10.084
shape	-10.0843
▁Ig	-10.0844
452	-10.0856
na	-10.0858
▁Mer	-10.086
idA	-10.0863
▁43	-10.0863
▁Dot	-10.0864
(6)-	-10.0869
301	-10.0871
▁GMP	-10.0873
TA	-10.0882
lactonase	-10.0895
prote	-10.0901
TH	-10.0917
CA	-10.0919
clus	-10.0921
ochlorophyll	-10.0923
▁Psp	-10.0929
▁Lsr	-10.0935
▁DC	-10.0948
109	-10.0955
▁ac	-10.0987
▁SPI	-10.1015
269	-10.1017
po	-10.1019
▁steroid	-10.1021
146	-10.1023
hydroxybenzo	-10.1026
505	-10.1027
ex	-10.1034
▁Cbi	-10.1043
ilization	-10.1053
GE	-10.1053
▁syn	-10.1064
EM	-10.1084
▁32	-10.1095
thiol	-10.1104
▁ras	-10.1112
▁phosphoprotein	-10.1113
▁malate	-10.1115
▁Mo	-10.1134
▁cata	-10.1134
▁Cof	-10.1157
117	-10.1161
dio	-10.1164
456	-10.117
AK	-10.1194
478	-10.1196
Na	-10.1205
▁AMP	-10.1209
IG	-10.121
sta	-10.121
▁quinol	-10.1221
0375	-10.1221
▁met	-10.1221
▁Fl	-10.1225
▁TL	-10.1232
▁cap	-10.1236
eoxyribonuclease	-10.1248
UP	-10.1255
▁Ars	-10.1277
▁DD	-10.1304
log	-10.1307
(3)	-10.1314
ogen	-10.1317
423	-10.1321
ear	-10.1333
cyclotransferase	-10.1334
but	-10.1342
▁ver	-10.1354
▁Cd	-10.1368
et	-10.1374
phosphopantothen	-10.1376
▁Nha	-10.1389
LIP	-10.1409
429	-10.1411
405	-10.1428
▁ANT	-10.1434
299	-10.1449
▁process	-10.1465
▁polyprotein	-10.1471
▁Nap	-10.1474
▁St	-10.1483
(5	-10.1483
SK	-10.1506
▁halo	-10.1509
LM	-10.1518
gen	-10.1521
▁Mar	-10.1523
cellula	-10.1544
▁neuron	-10.1545
468	-10.155
192	-10.1561
▁AT	-10.1562
phosphoesterase	-10.1568
ks	-10.1577
releas	-10.158
arre	-10.1581
207	-10.1596
▁Gal	-10.1612
▁TA	-10.1622
223	-10.163
▁sta	-10.1634
▁RP	-10.1636
398	-10.1648
umb	-10.1653
link	-10.167
420-	-10.1679
ET	-10.1685
413	-10.1692
▁FG	-10.1708
ally	-10.1708
bZ	-10.1715
EST	-10.1734
▁l	-10.1737
linke	-10.1741
▁Yid	-10.1758
▁lam	-10.1779
419	-10.1793
quinol	-10.1795
▁Sp	-10.1796
▁chlor	-10.1798
pr	-10.1809
ain	-10.1819
acetate	-10.19
CI	-10.19
160	-10.191
439	-10.1913
ix	-10.1915
294	-10.1955
OP	-10.1959
273	-10.1961
330	-10.1965
olipid	-10.1976
(5)-	-10.1989
▁AD	-10.1993
▁MK	-10.1995
onin	-10.2025
▁PR	-10.2036
sion	-10.2059
(151	-10.2064
pain	-10.208
and	-10.2081
AB	-10.2087
SME	-10.2091
thiazol	-10.2099
128	-10.2102
midine	-10.2104
▁TH	-10.2123
362	-10.2124
▁tetrat	-10.213
erpen	-10.2144
un	-10.2145
tach	-10.2151
▁cellul	-10.2169
169	-10.2174
▁g	-10.2181
▁min	-10.2192
487	-10.2212
prA	-10.2229
190	-10.2261
phospholipid	-10.2285
▁Cot	-10.2288
▁2'	-10.2321
5)-	-10.2323
23/	-10.2331
bpA	-10.2337
▁rela	-10.2386
UD	-10.2399
NA	-10.24
349	-10.2405
RM	-10.2406
08	-10.2416
379	-10.2427
473	-10.2435
nin	-10.2441
CE	-10.2443
ax	-10.2444
106	-10.245
HS	-10.2479
transfer	-10.2497
▁n	-10.2499
▁SN	-10.2502
▁(2	-10.2512
317	-10.2533
▁organi	-10.2544
per	-10.255
rt	-10.2553
▁AN	-10.2566
oenolpyruvate	-10.2579
184	-10.2586
360	-10.259
▁Hrp	-10.2607
ransferase	-10.261
▁SR	-10.2612
tB	-10.2619
427	-10.262
136	-10.2634
SE	-10.2639
olate	-10.2643
uronate	-10.2646
malonyl	-10.2654
▁SP	-10.2689
463	-10.2704
ur	-10.2711
RA	-10.2715
olyhydroxyalkano	-10.2715
finger	-10.2728
RIP	-10.2738
Glc	-10.274
dihydrouridine	-10.275
octaprenyl	-10.2752
cyano	-10.2755
Met	-10.2771
pepsin	-10.2776
synthetase	-10.2779
decarboxylase	-10.278
helicase	-10.2782
flagella	-10.2783
coenzyme	-10.2784
Tim	-10.2787
▁Mal	-10.2788
Cys	-10.2789
potassium	-10.2789
resistance	-10.2789
exonuclease	-10.2791
▁Tat	-10.2792
acetaldehyde	-10.2793
modification	-10.2793
lipoprotein	-10.2796
cluster	-10.2797
TMEM	-10.2798
▁deca	-10.2801
adenylate	-10.2803
diacylglycerol	-10.2803
can	-10.2818
PHD	-10.282
galactose	-10.2826
Nup	-10.2836
trehalose	-10.2844
PS	-10.2845
▁argin	-10.2849
RING	-10.2852
Pro	-10.286
hydroxymethyl	-10.286
▁Yg	-10.2867
▁liga	-10.2873
AM	-10.2875
vin	-10.2876
▁exoso	-10.2896
▁47	-10.2917
228	-10.2925
▁Yce	-10.293
01	-10.2931
ADP	-10.2934
BS	-10.2943
int	-10.2951
504	-10.2953
hosphopantethein	-10.2956
trA	-10.2956
261	-10.2957
400	-10.2961
Gp	-10.2962
▁Pdx	-10.2972
▁chaperon	-10.2977
▁apo	-10.298
EL	-10.2987
▁cytos	-10.2989
as	-10.2996
▁Yaa	-10.3006
▁oxygen	-10.3006
▁Nuo	-10.3007
▁35	-10.3009
/3'-	-10.3012
▁Msr	-10.3012
▁fimbria	-10.3013
▁morpho	-10.3016
express	-10.3016
antagonist	-10.3017
macroglobulin	-10.3017
▁connector	-10.3017
▁desuccinylase	-10.3017
▁desulfhydrase	-10.3017
▁fibrinogen	-10.3017
▁globin	-10.3017
▁segregation	-10.3017
▁supervillin	-10.3017
▁tousled	-10.3017
▁DeoR	-10.3017
▁omega	-10.3017
▁phytoene	-10.3017
▁prepilin	-10.3017
,3'-	-10.3017
▁5'-3'	-10.3017
▁sphingo	-10.3017
▁DMRTA	-10.3017
▁ferritin	-10.3017
▁lipocalin	-10.3017
▁TetR	-10.3017
▁diphthine	-10.3017
▁host	-10.3017
▁demethylase	-10.3017
▁alloph	-10.3017
▁trimethylamine	-10.3017
▁anaphase	-10.3017
▁amylo	-10.3017
▁osmo	-10.3017
▁dehalogenase	-10.3017
▁Que	-10.3017
▁nitrous	-10.3017
▁Sgk	-10.3017
choic	-10.3017
▁glucitol	-10.3018
amylase	-10.3018
▁promoter	-10.3018
▁Yjj	-10.3018
hydrate	-10.3018
▁holo	-10.3018
▁DCLK	-10.3018
▁TFB	-10.3018
thiouridine	-10.3018
▁gag	-10.3019
▁TATA	-10.302
▁glutathion	-10.302
▁Fab	-10.302
▁acetoacetate	-10.302
transferring	-10.302
▁FtsW	-10.3021
▁CBL	-10.3022
octulosonate	-10.3022
(6))-	-10.3022
▁TGF	-10.3022
bda	-10.3022
▁medium	-10.3022
▁Yeh	-10.3023
▁PrsA	-10.3024
▁Pqq	-10.3024
▁activity	-10.3024
▁auxin	-10.3025
▁CorA	-10.3026
▁aldose	-10.3026
lenc	-10.3027
ginate	-10.3027
▁RecJ	-10.3027
▁isochorismatase	-10.3028
galactosamine	-10.3029
▁nucleoid	-10.3029
▁XdhC	-10.3029
▁ferric	-10.303
Pmp	-10.3031
▁Max	-10.3032
▁PIK	-10.3033
▁BACH	-10.3034
▁Homer	-10.3035
dog	-10.3039
▁Nrd	-10.3039
▁PKA	-10.3041
▁RnfA	-10.3042
▁arf	-10.3043
▁3,5-	-10.3044
▁ING	-10.3044
▁seque	-10.3044
acetylesterase	-10.3045
▁Bio	-10.3045
▁retro	-10.3046
▁DHH	-10.3046
▁Wca	-10.3046
▁Yae	-10.3046
▁Rha	-10.3048
▁Yab	-10.3049
▁Spt	-10.305
▁dihydroorota	-10.305
▁decarboxyla	-10.305
▁Ygg	-10.3051
▁MotA	-10.3051
▁neural	-10.3052
drome	-10.3053
▁Deg	-10.3053
xin	-10.3053
▁DsbA	-10.3053
▁Dlt	-10.3054
▁target	-10.3055
-2,4-	-10.3055
▁Pkn	-10.3056
▁glutamic	-10.3057
▁glyoxalase	-10.3057
▁sulfhydryl	-10.3057
▁biofilm	-10.3057
▁patatin	-10.3057
▁aquaporin	-10.3057
▁circular	-10.3057
▁flagellin	-10.3058
▁Eha	-10.3059
▁Lpq	-10.3059
▁catechol	-10.3059
▁DnaA	-10.306
▁Lpx	-10.3062
▁TNF	-10.3063
▁SecY	-10.3064
▁Nik	-10.3065
▁NTP	-10.3067
▁Ybg	-10.3069
▁Yes	-10.307
▁Yfh	-10.3073
▁Yee	-10.3074
▁cupin	-10.3075
▁Rim	-10.3075
▁Csi	-10.3077
▁entero	-10.308
▁Yhd	-10.308
▁ERG	-10.3081
▁aminoacylase	-10.3081
▁Prp	-10.3082
▁TrmB	-10.3085
▁Art	-10.3085
▁heptos	-10.3086
▁Yfa	-10.3088
▁lipoyl	-10.3089
▁Rel	-10.3092
GD	-10.3093
▁Yci	-10.3094
392	-10.3094
▁Yfc	-10.3099
▁Pur	-10.3108
▁Nud	-10.3109
polyprenyl	-10.3109
74	-10.3113
Rpb	-10.3113
sorbos	-10.3115
▁WDR	-10.3117
phenol	-10.3121
▁SMP	-10.3121
▁bis	-10.3123
▁fungal	-10.3123
▁prephenate	-10.3124
▁Bam	-10.3124
aminomutase	-10.3126
▁fla	-10.3127
▁sulfonate	-10.3127
▁SOS	-10.3139
▁isochorismat	-10.314
ducin	-10.3141
284	-10.3146
▁Yfd	-10.3146
▁triphosphatase	-10.3151
▁cili	-10.3151
CD	-10.3154
271	-10.3158
KMT	-10.3159
▁Fhu	-10.3159
YTH	-10.316
▁Lam	-10.3161
▁PLC	-10.3162
sp	-10.3164
▁Cyd	-10.3166
▁SL	-10.3166
rp	-10.3167
▁TraB	-10.3167
gp	-10.3172
▁Yjb	-10.3172
aspartyl	-10.318
▁Ypp	-10.3181
▁NOP	-10.3182
RCC	-10.3185
▁phase	-10.3188
licin	-10.319
▁mitotic	-10.3191
▁Vps	-10.3192
▁exopoly	-10.3193
▁exportin	-10.3193
▁Sel	-10.3194
▁phenol	-10.3201
-2,3-	-10.3203
endo	-10.3214
▁Tyr	-10.3219
tape	-10.3222
cA	-10.3226
▁Cag	-10.3228
▁Psa	-10.3245
deformyla	-10.3248
▁aspartyl	-10.3254
▁coenzyme	-10.3257
▁Mur	-10.326
▁Tim	-10.3263
▁acetaldehyde	-10.3264
▁glyco	-10.3267
lar	-10.3267
ep	-10.327
▁Glu	-10.3272
▁4,5-	-10.3272
91	-10.3281
162	-10.3282
adia	-10.3321
sA	-10.3321
CCH	-10.3325
156	-10.3326
▁glycerophospho	-10.3335
▁Hsc	-10.3339
inosine	-10.334
▁SAP	-10.3341
auro	-10.3359
dens	-10.3365
366	-10.3379
▁comple	-10.3391
467	-10.3395
▁Trp	-10.3398
▁Mot	-10.3405
▁py	-10.342
pro	-10.3428
▁Yha	-10.3443
531	-10.3449
▁acet	-10.3457
▁Rse	-10.3461
UT	-10.3467
XK	-10.349
▁path	-10.3494
NP	-10.3495
OB	-10.3498
▁k	-10.3514
ap	-10.3515
GP	-10.3538
onic	-10.3548
▁glucon	-10.3563
5)	-10.3567
mB	-10.3572
extrin	-10.3572
oxidative	-10.3583
pI	-10.3586
▁SD	-10.3596
▁mobil	-10.3605
io	-10.3608
hot	-10.3612
▁mS	-10.362
▁pot	-10.3675
DL	-10.3682
443	-10.369
▁Yhe	-10.3694
▁Yec	-10.3714
aminomethyl	-10.3718
adR	-10.3736
▁WS	-10.3745
land	-10.375
▁lysophospholip	-10.3752
phosphono	-10.3768
transhydrogenase	-10.3775
BCD	-10.3783
pZ	-10.3787
TS	-10.3802
ycin	-10.381
121	-10.3844
benz	-10.3847
)(	-10.3848
425	-10.3857
254	-10.386
▁oxid	-10.386
gas	-10.3864
mA	-10.3869
he	-10.387
arate	-10.3872
methylpyrimidine	-10.388
▁42	-10.388
rA	-10.39
lay	-10.3916
▁bS	-10.3924
▁PE	-10.3943
▁sca	-10.3947
▁CP	-10.3948
181	-10.3963
peroxid	-10.3989
▁nucleotidase	-10.4005
▁para	-10.4021
azole	-10.4023
▁ER	-10.403
▁phospha	-10.404
▁leuk	-10.4044
methylated	-10.4067
182	-10.4068
ON	-10.4094
nase	-10.4117
bun	-10.4128
304	-10.4142
ANT	-10.4146
▁nas	-10.4168
247	-10.42
25/	-10.4224
▁HE	-10.4241
403	-10.4252
▁un	-10.4253
▁PB	-10.4263
▁FA	-10.4267
KH	-10.4282
mevalonate	-10.4287
▁dist	-10.4288
479	-10.4291
▁ser	-10.4292
meas	-10.4308
llin	-10.4311
▁Aae	-10.4312
508	-10.4317
▁chromat	-10.4326
216	-10.4328
▁env	-10.4348
500	-10.4354
hlB	-10.4354
▁Nar	-10.4379
oC	-10.4382
orf	-10.4384
sB	-10.4389
▁deoxy	-10.4394
388	-10.4397
275	-10.4431
phos	-10.4432
CK	-10.4439
▁amido	-10.4442
326	-10.4464
▁fumar	-10.4467
hexose	-10.4467
▁FN	-10.4513
▁Tr	-10.4521
genera	-10.4522
glucon	-10.4531
conve	-10.4535
276	-10.4543
tric	-10.461
IV	-10.4613
▁SO	-10.4617
ecB	-10.4644
▁lyso	-10.4656
mal	-10.4658
513	-10.4666
▁induc	-10.467
q	-10.4674
144	-10.47
edA	-10.4702
es	-10.4706
▁Rr	-10.4708
▁us	-10.4723
▁erythro	-10.4755
conjugat	-10.4761
ipA	-10.4762
heli	-10.4764
at	-10.4784
try	-10.4786
296	-10.4798
trin	-10.4811
▁secret	-10.4825
426	-10.4832
367	-10.4832
LD	-10.4834
▁RH	-10.4837
▁Ct	-10.4845
cetylglucosamine	-10.4853
XX	-10.4868
aR	-10.4879
302	-10.489
elate	-10.489
fu	-10.4902
LP	-10.4908
▁AB	-10.4929
ge	-10.4929
EN	-10.4944
510	-10.4944
TF	-10.4946
▁phosphogluco	-10.4948
▁CE	-10.4957
UB	-10.4957
▁mal	-10.4959
enolpyruvate	-10.4967
hydrox	-10.4968
535	-10.4982
pho	-10.4985
mo	-10.4997
DUF	-10.5013
149	-10.5014
359	-10.5035
▁chlori	-10.5043
▁MO	-10.5057
bl	-10.5061
PX	-10.5075
▁ACP	-10.5076
272	-10.5095
1)-	-10.5121
▁phosphoryl	-10.5134
▁pol	-10.5135
gras	-10.5162
293	-10.519
KAP	-10.522
▁Yt	-10.5222
eath	-10.5226
▁Re	-10.5234
▁sulfo	-10.5239
ory	-10.5242
emia	-10.5257
ver	-10.5264
315	-10.5276
▁ST	-10.5276
▁MI	-10.528
481	-10.5284
om	-10.5302
▁sial	-10.5316
▁Ph	-10.5335
▁lys	-10.5342
orin	-10.5393
▁shi	-10.5424
(4)	-10.5445
Pr	-10.5446
prot	-10.5462
▁ad	-10.549
13/	-10.5498
▁SM	-10.5502
▁Ts	-10.5512
idylinositol	-10.5518
ty	-10.5549
318	-10.556
tA	-10.5564
mov	-10.5564
MR	-10.5568
▁3'	-10.5575
ell	-10.5575
ID	-10.5588
▁Cp	-10.5594
syltransferase	-10.5601
390	-10.5614
leg	-10.5619
329	-10.5621
▁IIAB	-10.564
▁Pol	-10.5657
CTP	-10.5666
▁bacterio	-10.5677
LT	-10.5703
▁Cb	-10.5707
urin	-10.5711
ribosyla	-10.5711
peptidyl	-10.572
ethylthi	-10.573
pu	-10.5762
492	-10.5765
bitol	-10.5781
▁2,3	-10.5809
22/	-10.581
rogen	-10.5823
iaA	-10.5846
▁Nlp	-10.5847
lan	-10.5859
537	-10.5871
tibi	-10.5875
otropic	-10.5877
▁Yf	-10.5897
▁ribos	-10.5899
CH	-10.59
phosphoryl	-10.5912
atri	-10.5912
▁CA	-10.5927
09	-10.5961
▁BC	-10.5966
usC	-10.5977
501	-10.5985
mp	-10.5996
ub	-10.6
transport	-10.6005
ethanol	-10.6008
▁DM	-10.6016
229	-10.6016
SC	-10.6019
Ynf	-10.602
carbamoyl	-10.6021
mucon	-10.6022
Spo	-10.6022
Nir	-10.6034
methoxy	-10.604
▁Ycc	-10.6041
oxygenase	-10.6041
▁TIA	-10.6045
▁NR	-10.605
Pal	-10.6079
sulfatase	-10.6081
hydroxybutyr	-10.6088
Fix	-10.6096
mon	-10.6099
dipicolin	-10.6104
repressor	-10.611
deacetylase	-10.6111
min	-10.6114
mitotic	-10.6114
Vps	-10.6117
phosphorylase	-10.6119
exosortase	-10.612
calcium	-10.6121
pilus	-10.6124
leucine	-10.6125
monophosphate	-10.6125
thiamine	-10.6127
cleavage	-10.6127
sorting	-10.6129
body	-10.6129
chromosome	-10.6129
tubulin	-10.613
tin	-10.613
▁Sh	-10.6131
Rec	-10.6135
peroxidase	-10.6136
export	-10.6138
▁do	-10.6139
amate	-10.6143
▁Ku	-10.6145
ida	-10.6154
anchor	-10.6159
▁Pr	-10.616
▁Ty	-10.6165
Ure	-10.6166
RPB	-10.6171
▁Ch	-10.6189
RNF	-10.6197
Sec	-10.6199
210	-10.62
▁Zap	-10.6203
tail	-10.6206
NADH	-10.6206
Yji	-10.6209
SEC	-10.6209
▁redox	-10.621
wi	-10.6219
aminobutyrate	-10.6222
IIB	-10.6224
eu	-10.6226
gener	-10.6246
Glu	-10.6246
ylase	-10.6249
▁51	-10.625
147	-10.6251
▁glycero	-10.6252
119	-10.6256
▁Uvr	-10.6284
▁Ecc	-10.6293
▁Fec	-10.6293
Val	-10.6295
qui	-10.6305
▁Dsb	-10.6306
067	-10.631
▁Yk	-10.6311
484	-10.6315
94	-10.6324
540	-10.6325
Asn	-10.6327
▁adenos	-10.6333
▁synapt	-10.6333
▁PRK	-10.6343
▁auxi	-10.6344
catech	-10.6344
pressor	-10.6347
▁Hfl	-10.6349
undecapren	-10.635
▁bridg	-10.635
▁tellurite	-10.635
ascorbate	-10.635
biliverdin	-10.635
cobaltochelatase	-10.635
ferrochelatase	-10.635
▁APOBEC	-10.635
▁Rossmann	-10.635
▁attractin	-10.635
▁centromere	-10.635
▁deubiquitinase	-10.635
▁differentiation	-10.635
▁drebrin	-10.635
▁droplet	-10.635
▁formimidoyl	-10.635
▁hydantoinase	-10.635
▁interferon	-10.635
▁phenazine	-10.635
▁spermatogenesis	-10.635
▁Kelch	-10.635
▁PepSY	-10.635
▁heparan	-10.635
▁nonsense	-10.635
▁pathogenicity	-10.635
▁endoprotease	-10.635
▁lauroyl	-10.635
▁AbiEi	-10.635
▁cytokinesis	-10.635
▁invasi	-10.635
▁propanediol	-10.635
▁IclR	-10.635
▁cullin	-10.635
▁twinfilin	-10.635
hexanoate	-10.635
uconolacton	-10.635
aspartoacylase	-10.635
formamido	-10.635
starch	-10.635
▁SBDS	-10.635
▁nucleobase	-10.635
▁leucyl	-10.635
▁methionyl	-10.635
phenylpropionate	-10.635
▁OTU	-10.635
▁allantoinase	-10.635
▁TilS	-10.635
▁syntaxin	-10.635
▁lanthipeptide	-10.635
▁NEDD	-10.635
▁morphogene	-10.635
▁hemagglutinin	-10.635
heptaprenyl	-10.635
▁nitroreductase	-10.635
▁Azl	-10.635
▁SGNH	-10.635
▁galactitol	-10.6351
▁Yrz	-10.6351
▁chemokine	-10.6351
dihydropter	-10.6351
▁morphogenesis	-10.6351
▁matrix	-10.6351
RodA	-10.6351
▁MraZ	-10.6351
YcaO	-10.6351
▁dynamin	-10.6351
▁Ywq	-10.6351
neuraminidase	-10.6351
LrgA	-10.6352
▁HtpX	-10.6352
DksA	-10.6352
▁Rnl	-10.6352
▁transaldolase	-10.6352
▁ELMO	-10.6352
▁tricho	-10.6352
decanoyl	-10.6352
▁transamidase	-10.6352
butanone	-10.6353
▁enolase	-10.6353
▁YgfZ	-10.6353
▁Yqz	-10.6353
▁exci	-10.6353
▁hemin	-10.6353
DsrF	-10.6353
(54)-	-10.6353
▁cycloisomerase	-10.6353
convert	-10.6354
▁Kef	-10.6354
stabilizing	-10.6354
lycop	-10.6354
▁incorporation	-10.6354
Utp	-10.6354
▁Yku	-10.6355
▁stimulator	-10.6355
ribazole	-10.6355
▁Fdh	-10.6355
formamidase	-10.6355
▁interactor	-10.6356
▁HECT	-10.6356
valine	-10.6356
▁chemoreceptor	-10.6356
▁DhaK	-10.6356
▁Ykv	-10.6357
▁HlyD	-10.6357
▁YbaK	-10.6357
▁HEAT	-10.6357
▁Btu	-10.6357
▁phycocyanin	-10.6357
alkene	-10.6357
▁muta	-10.6357
▁Dms	-10.6358
▁dolichol	-10.6358
▁glucokinase	-10.6358
▁TadE	-10.6359
▁cold	-10.6359
▁lactose	-10.6359
NOT	-10.6359
▁PaaI	-10.6359
▁Ugp	-10.6359
▁CBM	-10.636
▁Yuz	-10.636
▁MoeA	-10.636
▁surv	-10.636
▁EamA	-10.6361
▁Yrh	-10.6361
▁ARMH	-10.6361
▁ESX	-10.6361
epsin	-10.6362
▁Mft	-10.6362
▁Hsl	-10.6362
▁TSR	-10.6362
▁Zra	-10.6362
▁TusA	-10.6362
ribu	-10.6362
▁cup	-10.6363
▁Yaf	-10.6364
▁DnaJ	-10.6364
ch	-10.6364
▁LptF	-10.6364
gop	-10.6365
12-	-10.6365
▁UbiX	-10.6366
▁Mrp	-10.6367
▁NTPase	-10.6368
0374	-10.6368
▁arginase	-10.6368
▁Yqj	-10.6368
▁Aim	-10.6368
▁Op	-10.6368
hemerythrin	-10.6369
▁Peptidase	-10.637
met	-10.637
trehalase	-10.637
▁ARHG	-10.6371
▁IBR	-10.6371
▁STAS	-10.6372
▁CopC	-10.6373
osortase	-10.6373
▁Tec	-10.6373
▁Yfi	-10.6374
▁Ma	-10.6375
ketosteroid	-10.6377
▁Ylx	-10.6377
▁plasma	-10.6377
▁Rep	-10.6377
farnesyl	-10.638
▁NuoF	-10.638
▁toll	-10.6381
▁Muk	-10.6381
▁GRB	-10.6381
▁Ydc	-10.6381
▁Tau	-10.6382
▁hexa	-10.6383
gluc	-10.6383
▁Nod	-10.6384
▁WASH	-10.6384
▁HSP	-10.6385
▁Yob	-10.6385
▁Yej	-10.6385
▁TsaB	-10.6385
▁Ypj	-10.6387
▁Yei	-10.6387
▁MON	-10.6387
▁dinucleotide	-10.6387
▁TatC	-10.6388
▁Yai	-10.6388
▁RepA	-10.639
▁DsbD	-10.639
▁Hem	-10.639
▁Hos	-10.639
▁SigE	-10.6391
▁molybdo	-10.6391
antibiotic	-10.6391
▁zon	-10.6392
▁NCS	-10.6392
▁Hyd	-10.6392
▁GspE	-10.6393
▁TraJ	-10.6394
▁Al	-10.6395
▁Ula	-10.6395
▁Tsa	-10.6395
▁Bet	-10.6396
▁cadherin	-10.6397
▁EXO	-10.6397
pentapeptide	-10.6397
▁septin	-10.6399
HP	-10.64
oc	-10.6401
▁MPP	-10.6401
▁SKIP	-10.6401
acetylmuramate	-10.6401
cent	-10.6402
▁Ypm	-10.6402
ens	-10.6403
▁BUD	-10.6403
deadenyl	-10.6403
ydro	-10.6404
▁DEN	-10.6404
▁TolC	-10.6405
▁RlmN	-10.6405
▁agmatine	-10.6408
▁CXXC	-10.6408
▁sucrose	-10.6408
▁IRE	-10.6408
▁gelsolin	-10.6408
▁glutaredoxin	-10.6408
▁glyoxylate	-10.6408
▁cryptochrome	-10.6408
▁cyclodeaminase	-10.6409
▁TolB	-10.6409
▁sup	-10.641
▁mycothiol	-10.6411
▁Hpn	-10.6411
▁TraK	-10.6411
▁Tnp	-10.6415
phosphohydrolase	-10.6415
▁TBP	-10.6415
▁Ten	-10.6416
theta	-10.6417
▁DsrE	-10.6417
▁KDM	-10.6418
▁PAM	-10.6418
▁ALG	-10.6419
loc	-10.6419
▁Kdo	-10.642
▁Ybf	-10.6421
pentap	-10.6422
▁RsmB	-10.6423
▁Pdu	-10.6423
▁NSF	-10.6423
▁ULK	-10.6424
▁Fis	-10.6424
▁RecQ	-10.6424
Man	-10.6425
▁Alb	-10.6426
▁Yeg	-10.6427
▁Nrf	-10.6427
▁SLX	-10.6429
▁Paa	-10.643
▁LysE	-10.6432
▁Yqh	-10.6434
▁CopD	-10.6435
▁Yba	-10.6435
ssion	-10.6437
▁FliM	-10.6437
oxyqu	-10.6439
▁PRKC	-10.6439
porter	-10.6441
▁MutS	-10.6442
▁ATM	-10.6444
ARM	-10.6447
▁NDM	-10.6447
▁Com	-10.6447
▁TrbC	-10.6447
scu	-10.6449
demethyl	-10.6449
▁Gnt	-10.6451
▁dikinase	-10.6451
▁PPP	-10.6453
lene	-10.6454
▁Yed	-10.646
▁Rht	-10.6462
▁lacton	-10.6463
▁phosphocholine	-10.6465
▁MlaD	-10.6465
▁CysB	-10.6466
434	-10.6466
▁Tct	-10.6467
GroEL	-10.6467
lity	-10.6472
GBP	-10.6473
▁Ybe	-10.6473
▁TraR	-10.6475
▁Yje	-10.6475
402	-10.6477
chae	-10.648
mpA	-10.648
gA	-10.6482
rotase	-10.6482
▁pantoate	-10.6482
iz	-10.6486
LptG	-10.6486
▁MRP	-10.6486
▁1,4-	-10.6487
▁sex	-10.6489
TEX	-10.6489
▁Fes	-10.649
225	-10.6491
▁SPT	-10.6492
do	-10.6494
▁twin	-10.6498
▁TPR	-10.6498
▁siroh	-10.65
▁Yjc	-10.6503
3298	-10.6503
▁myel	-10.6503
▁YdeI	-10.6504
▁BRC	-10.6509
▁selenocystein	-10.651
▁Mut	-10.6512
▁Yqe	-10.6512
salic	-10.6516
▁pore	-10.6516
▁MutL	-10.6518
eg	-10.652
iogenesis	-10.6521
lide	-10.6521
▁Mob	-10.6521
erve	-10.6521
▁infecti	-10.6521
▁TOP	-10.6522
▁RA	-10.6528
▁PL	-10.6531
▁HU	-10.6533
▁Sul	-10.6538
▁dock	-10.6539
dideoxy	-10.6542
▁OmpA	-10.6543
▁Ent	-10.6545
▁CC	-10.6548
▁DIP	-10.6549
▁acetylglutamate	-10.655
▁calp	-10.6552
▁Lux	-10.6554
saB	-10.6556
▁Yus	-10.6557
tpA	-10.6564
▁TraC	-10.6564
▁Ag	-10.6564
▁Yop	-10.6569
▁Hyb	-10.6569
▁Cha	-10.657
▁Spo	-10.6573
▁RO	-10.6574
▁tu	-10.6587
▁27	-10.6591
rJ	-10.6593
tyrosyl	-10.6594
▁IICB	-10.6594
▁odo	-10.6597
▁dipicolin	-10.6603
▁37	-10.6604
▁Yji	-10.6608
▁keto	-10.6618
Ves	-10.6621
pantetheine	-10.6622
▁hy	-10.6627
▁39	-10.6629
▁plasm	-10.6636
281	-10.6637
butano	-10.6641
2/3	-10.6645
CTD	-10.6648
▁Ync	-10.6653
9/	-10.6654
▁Yii	-10.6656
▁maleylacet	-10.666
▁solu	-10.6661
arpin	-10.6668
tidylinositol	-10.6669
▁CTP	-10.667
▁antiterminat	-10.667
tanoyl	-10.6671
stabili	-10.6671
▁2/3	-10.668
▁tube	-10.6681
▁Yqf	-10.6683
▁tw	-10.6686
aceto	-10.6687
▁homeosta	-10.6689
ancer	-10.6692
Rpp	-10.6694
▁(5-	-10.6695
279	-10.6695
diene	-10.6698
▁Cut	-10.6699
RAG	-10.6699
▁Yqa	-10.67
▁Tru	-10.67
TolQ	-10.6701
RE	-10.6704
▁Gvp	-10.6705
(15)	-10.6705
ist	-10.6708
▁phosphat	-10.671
▁pepsin	-10.6713
MBL	-10.6717
▁SecD	-10.6717
327	-10.6717
▁Yo	-10.6729
▁pa	-10.6733
cinnamoyl	-10.6733
erlin	-10.6753
lant	-10.6756
obyrinic	-10.6756
▁Sin	-10.6756
▁strand	-10.6761
▁deoxyribo	-10.6782
enyltransferase	-10.6784
thioribose	-10.6785
hydroxyalkano	-10.6786
-8-	-10.6791
haC	-10.6795
▁bd	-10.6796
▁Aro	-10.6797
▁SNARE	-10.6799
sR	-10.6801
em	-10.6803
▁Amp	-10.6805
ai	-10.6809
hydroxythreonine	-10.6809
achin	-10.6812
xide	-10.6812
LO	-10.6816
▁Yx	-10.6817
339	-10.683
▁Gln	-10.6831
▁Isc	-10.6845
483	-10.6857
▁SPF	-10.6862
ureidoglyc	-10.6863
▁aminomethyl	-10.6866
▁Bug	-10.6871
adG	-10.6871
0308	-10.6875
▁Hic	-10.6878
▁ag	-10.6884
DO	-10.6892
350	-10.6895
lav	-10.6901
▁putrescine	-10.6903
VAS	-10.6908
042	-10.691
534	-10.692
den	-10.6937
ExbB	-10.6949
▁wa	-10.6957
▁aden	-10.6959
▁Opp	-10.6967
deoxyribo	-10.6968
▁UL	-10.6984
▁Cmo	-10.6985
5-	-10.6994
▁microc	-10.7008
▁Glc	-10.7009
GA	-10.7015
▁TIP	-10.7018
257	-10.7018
NBP	-10.702
▁MFSD	-10.7022
▁diamino	-10.7033
▁29	-10.7039
gC	-10.7039
▁AF	-10.704
244	-10.7044
▁heptose	-10.7044
▁VP	-10.7061
▁tropo	-10.7069
▁Bar	-10.7071
Ya	-10.7075
WWP	-10.7077
▁Rp	-10.7078
erg	-10.708
▁Usp	-10.7087
MM	-10.709
tocho	-10.71
▁Isp	-10.7106
lp	-10.7114
RL	-10.712
oate	-10.7124
▁AIR	-10.713
307	-10.7133
▁ASH	-10.7139
536	-10.7141
Ox	-10.7145
▁thymid	-10.7148
butyrate	-10.7169
▁forming	-10.7172
▁TRAPP	-10.7172
▁multipl	-10.7174
▁Se	-10.7177
nic	-10.7191
IS	-10.7192
PAP	-10.7193
▁5,	-10.7196
▁Mg	-10.7197
spA	-10.7201
440	-10.7213
mannosyl	-10.7222
▁photosynthe	-10.7223
▁41	-10.7232
EG	-10.7233
chlor	-10.7237
thioadenosine	-10.7259
Rad	-10.7284
▁Lon	-10.7293
VirD	-10.7301
▁Cu	-10.7303
▁Feo	-10.7311
la	-10.7318
NlpA	-10.7319
▁Fap	-10.7334
▁Dha	-10.7337
apA	-10.7351
▁MAC	-10.7353
037	-10.7355
▁interact	-10.7362
cr	-10.7363
KC	-10.7364
SD	-10.7372
▁Rbs	-10.7373
▁diphospho	-10.7374
UbiB	-10.7384
561	-10.7386
))	-10.7388
▁lipop	-10.739
▁is	-10.7422
acylglycerol	-10.7424
app	-10.7427
▁Yc	-10.744
8/	-10.744
sym	-10.7442
SCP	-10.7443
▁GH	-10.7444
ster	-10.7451
adA	-10.7457
age	-10.7457
da	-10.7465
289	-10.7469
▁qu	-10.7475
NH	-10.7477
▁cla	-10.7477
dihydro	-10.7478
▁TR	-10.748
▁end	-10.7481
glucos	-10.7482
pot	-10.7485
▁Lig	-10.7489
▁MR	-10.7489
NMT	-10.7493
mannos	-10.7511
▁Chp	-10.7513
▁Cop	-10.7527
PI	-10.7534
IT	-10.7551
FA	-10.7555
▁123	-10.7561
VP	-10.7563
▁manno	-10.7565
lani	-10.7566
SA	-10.7575
288	-10.7596
MC	-10.76
▁Grp	-10.7601
glutarate	-10.7621
▁glutamyl	-10.7626
▁str	-10.7644
RT	-10.7654
olar	-10.7656
▁Ssp	-10.7663
carboxymethyl	-10.7682
▁UB	-10.7685
▁54-	-10.77
▁pair	-10.7705
lic	-10.7716
amin	-10.7726
83	-10.7737
cyst	-10.7742
KE	-10.7752
▁HR	-10.7754
RAP	-10.7757
srA	-10.7765
▁fo	-10.7768
477	-10.7772
AS	-10.778
line	-10.7786
cC	-10.7798
pantoate	-10.7806
▁CAS	-10.7827
334	-10.7843
▁SLA	-10.7849
▁MAT	-10.785
495	-10.7867
▁CW	-10.7868
Sp	-10.7876
lpA	-10.7884
255	-10.7885
▁PRE	-10.791
▁Ac	-10.7917
amA	-10.7918
384	-10.7919
▁Mia	-10.7938
▁ME	-10.7947
CAS	-10.7953
▁31	-10.7954
424	-10.7974
▁epi	-10.7989
(16	-10.7993
217	-10.7995
433	-10.8017
PN	-10.8017
163	-10.8018
gra	-10.8033
FliN	-10.8046
206	-10.806
▁Ex	-10.8068
▁activat	-10.808
SN	-10.811
ical	-10.812
-(3-	-10.8121
▁myo	-10.8122
rk	-10.8135
ribulose	-10.8156
▁Tlp	-10.816
LK	-10.8173
▁methylthio	-10.8183
▁CL	-10.8184
lope	-10.8191
▁RG	-10.8194
▁NS	-10.82
WE	-10.8209
282	-10.8211
galact	-10.8223
▁glucuron	-10.8224
glycinamid	-10.8224
(4	-10.8228
▁r	-10.8239
▁RU	-10.8244
ha	-10.8252
RAMP	-10.8256
422	-10.8263
▁Fi	-10.8267
viru	-10.8269
▁Mnt	-10.8281
RAC	-10.8282
▁Va	-10.8303
▁Her	-10.8308
▁centr	-10.8309
▁lacto	-10.8315
ae	-10.8315
EX	-10.8339
lase	-10.8343
▁prolyl	-10.8346
▁Pp	-10.8347
lysin	-10.8366
olyl	-10.8368
altro	-10.8372
▁BL	-10.8376
OC	-10.8378
▁gr	-10.8387
▁Vap	-10.8401
Par	-10.8402
nA	-10.8403
wa	-10.8406
▁Ho	-10.8416
tron	-10.8422
sulf	-10.8436
51/	-10.8447
▁BE	-10.8449
▁termina	-10.8455
fructokinase	-10.8483
▁54	-10.8504
el	-10.853
ermination	-10.8533
178	-10.8549
▁Yq	-10.8554
▁methylt	-10.8566
XG	-10.857
475	-10.8573
▁Po	-10.8578
Gpp	-10.858
emA	-10.859
▁NAC	-10.8601
▁Yp	-10.8602
fucos	-10.8603
DE	-10.8607
SS	-10.8616
▁CH	-10.863
olB	-10.8644
con	-10.8648
Co	-10.8666
bD	-10.8676
▁Hip	-10.8683
Bcr	-10.8686
▁Pha	-10.8689
ning	-10.8699
457	-10.8711
YN	-10.8711
os	-10.8717
ease	-10.8721
hy	-10.8747
415	-10.8749
▁modulat	-10.8756
▁phyt	-10.877
ARP	-10.8772
▁succin	-10.8773
lA	-10.8782
riad	-10.8785
diaminop	-10.8789
ini	-10.8802
UR	-10.8816
▁cyst	-10.882
▁SUR	-10.8841
▁24	-10.8845
URP	-10.8847
acA	-10.8863
PBP	-10.8863
▁sp	-10.8871
Hup	-10.8874
ca	-10.8894
364	-10.8902
thy	-10.8907
KT	-10.8909
sL	-10.8917
▁retinoi	-10.8917
PL	-10.8919
▁XP	-10.8921
455	-10.8934
▁amine	-10.895
18)-	-10.8958
BCC	-10.8971
024	-10.8979
▁Hu	-10.8982
11/	-10.8993
▁Kai	-10.9
▁cal	-10.9035
to	-10.9057
▁trip	-10.9066
2)-	-10.9076
cpA	-10.9089
116	-10.9094
GS	-10.9115
025	-10.9137
thiosulf	-10.9148
▁SY	-10.915
259	-10.9158
biB	-10.9175
▁Ad	-10.9192
enetetrahydro	-10.9194
383	-10.92
▁PK	-10.9205
Gls	-10.9214
onve	-10.9224
▁Arn	-10.9235
▁AK	-10.9236
ACA	-10.9237
▁Sip	-10.9241
HY	-10.9245
il	-10.9245
▁RE	-10.9252
▁AR	-10.9263
▁Ka	-10.9271
▁Yn	-10.9281
370	-10.9288
form	-10.9291
▁fol	-10.9293
186	-10.9302
cycl	-10.9303
ribitol	-10.9303
▁VT	-10.9335
/4-	-10.9366
▁abo	-10.9388
atory	-10.9399
oA	-10.9406
BO	-10.9407
sgA	-10.9412
▁Min	-10.9413
▁SF	-10.9444
ppA	-10.946
gZ	-10.9469
ig	-10.9475
▁GSK	-10.9479
ogene	-10.9501
phoenolpyruvate	-10.9514
15/	-10.9533
tra	-10.9536
ome	-10.9544
▁IN	-10.9548
xA	-10.9576
▁GP	-10.9595
pi	-10.9616
287	-10.9616
ement	-10.9625
▁Ta	-10.9642
ute	-10.9649
21/	-10.9652
123	-10.9655
methylthio	-10.9655
uc	-10.966
SF	-10.967
gluco	-10.969
pt	-10.9695
444	-10.9707
▁HM	-10.9724
IA	-10.9729
osyltransferase	-10.9738
▁spo	-10.974
▁mononucleotid	-10.977
▁RF	-10.9779
270	-10.9786
▁thym	-10.9791
iacylglycerol	-10.9817
YR	-10.9818
TE	-10.983
▁glucos	-10.9833
bB	-10.9833
9)-	-10.9846
17/	-10.985
▁or	-10.9864
▁che	-10.9879
VE	-10.9884
▁Ara	-10.9886
ace	-10.9892
▁interacti	-10.9893
glycosylase	-10.9908
cobalamin	-10.9914
stA	-10.9925
321	-10.9932
310	-10.9934
▁BA	-10.9935
174	-10.9937
amid	-10.9938
▁Vir	-10.9943
-(5-	-10.995
lC	-10.9953
▁neu	-10.9955
ip	-10.996
▁rep	-10.9967
▁DAS	-10.9984
SH	-10.9987
▁Yb	-10.9989
Sf	-11.0001
HD	-11.0024
PW	-11.0033
lock	-11.0034
gu	-11.0034
RP	-11.0036
hexulo	-11.004
▁Lac	-11.0054
glycosyl	-11.0057
Cp	-11.0064
piB	-11.01
▁Yu	-11.01
▁pi	-11.0107
▁DA	-11.0126
alan	-11.0127
anM	-11.0135
IF	-11.0138
▁Sf	-11.016
▁PC	-11.0164
uC	-11.0193
Dol	-11.0233
LR	-11.0242
ime	-11.0242
▁cystin	-11.0262
226	-11.029
pyranos	-11.0297
ophilin	-11.0299
▁peri	-11.0303
rR	-11.0351
▁transform	-11.0353
▁Pa	-11.0356
▁nex	-11.0358
CR	-11.0363
ndin	-11.0364
olA	-11.0379
ner	-11.0402
IB	-11.0437
258	-11.0441
▁CLA	-11.0445
erythrocyt	-11.0447
▁POZ	-11.0455
stag	-11.0455
pa	-11.0455
ir	-11.046
▁44	-11.0473
▁Mt	-11.0481
xyl	-11.0482
IN	-11.0492
▁palmito	-11.0493
▁Cre	-11.0501
▁Br	-11.0503
465	-11.0505
GLI	-11.0535
▁ph	-11.0536
der	-11.0537
xylo	-11.0541
VA	-11.055
xxC	-11.0561
ureido	-11.0564
-1,6	-11.0568
ribo	-11.0568
503	-11.0578
▁Exb	-11.0592
(6)	-11.0595
▁SpoV	-11.0597
8)-	-11.0623
pA	-11.0625
(34)-	-11.0627
134	-11.0628
ceptor	-11.0629
▁AE	-11.0632
▁hist	-11.0636
opia	-11.064
ylate	-11.0646
▁transduc	-11.0647
ple	-11.066
yd	-11.0668
▁2,	-11.0678
imel	-11.069
ecA	-11.0691
▁IB	-11.0698
cosyltransferase	-11.0704
depolymeriz	-11.0706
▁Lol	-11.0708
az	-11.0735
rpin	-11.0739
▁FAR	-11.0743
kin	-11.0744
pterin	-11.0753
pX	-11.0762
UL	-11.0778
YL	-11.0781
LIT	-11.0786
nc	-11.079
chorismate	-11.0791
oup	-11.0796
omerase	-11.0797
▁retin	-11.0802
ACH	-11.0809
507	-11.0814
▁thio	-11.0818
retin	-11.0825
1,6-	-11.0829
▁Fix	-11.0829
038	-11.083
ker	-11.0835
zinc	-11.0844
7-	-11.0852
▁asparto	-11.086
transcription	-11.0863
▁maleyl	-11.0864
enosylcobinamide	-11.0864
▁Cpa	-11.0878
017	-11.0886
KB	-11.0889
anoate	-11.089
▁chromo	-11.0893
410	-11.0893
▁exten	-11.0897
lida	-11.093
▁Md	-11.0932
hi	-11.0955
▁36	-11.0963
imidazol	-11.0973
oxidoreductase	-11.0979
iso	-11.0993
▁Whi	-11.1001
cinnam	-11.1002
uridylyl	-11.1006
ture	-11.1008
ubiquitin	-11.1014
▁patch	-11.1023
▁reduct	-11.1029
▁Mu	-11.103
IL	-11.1035
ant	-11.1039
substrate	-11.1042
edl	-11.1047
▁enhance	-11.1054
Omp	-11.1059
endonuclease	-11.1073
centr	-11.1076
homolog	-11.1079
12/	-11.108
mobilization	-11.1082
mercury	-11.1082
tartrate	-11.1083
680	-11.1084
squa	-11.1085
photo	-11.109
yc	-11.1096
YdeI	-11.1104
myel	-11.1106
MutL	-11.1108
pseudouridine	-11.1109
prephenate	-11.1112
MFS	-11.1113
sodium	-11.1113
micro	-11.1114
fungal	-11.1115
Leu	-11.1117
hemolysin	-11.1118
molybdenum	-11.1119
molybdopterin	-11.1119
sulfonate	-11.112
affinity	-11.1122
maturase	-11.1122
geranylgeranyl	-11.1123
kinesin	-11.1123
triphosphatase	-11.1123
siderophore	-11.1123
starvation	-11.1123
nickel	-11.1124
chitin	-11.1124
nicotinamide	-11.1124
adapter	-11.1124
CCDC	-11.1125
Hyb	-11.1125
maltose	-11.1126
basal	-11.1127
restriction	-11.1127
antiterminat	-11.1128
isocitrate	-11.1129
tetra	-11.1129
solute	-11.1131
▁Yl	-11.1131
Yhf	-11.1133
glycoprotein	-11.1134
aconita	-11.1136
406	-11.1137
formate	-11.114
purine	-11.1143
TAP	-11.1143
▁Add	-11.1143
myo	-11.1147
Sul	-11.1153
Opr	-11.1153
NME	-11.1158
RIM	-11.116
Glp	-11.1163
3'-5'	-11.1163
Yia	-11.1166
346	-11.1168
polymer	-11.1169
ul	-11.1171
PAN	-11.1171
myosin	-11.1172
GPI	-11.1173
TRM	-11.1178
▁Yqg	-11.1179
SNF	-11.1182
012	-11.1183
NOP	-11.1185
DIS	-11.1196
BAP	-11.1196
reduct	-11.1198
eIF	-11.1198
▁Yh	-11.1203
NR	-11.1204
dock	-11.1207
▁w	-11.1212
568	-11.1213
iJ	-11.1215
acetylglutamate	-11.1216
PLC	-11.1216
ket	-11.1219
aminoglycoside	-11.1223
bE	-11.1229
265	-11.1238
bH	-11.124
galactosamin	-11.1242
pyrimidin	-11.1243
NADPH	-11.1244
yrinic	-11.1245
▁phenylacet	-11.1245
▁pur	-11.1246
▁Efe	-11.1249
393	-11.1264
RPC	-11.1265
dipeptide	-11.1268
RAD	-11.1272
▁pl	-11.1272
▁Ruv	-11.1275
bromo	-11.1282
aminoacyl	-11.1283
IIBC	-11.1285
py	-11.1287
Emr	-11.1292
ulation	-11.1294
▁germ	-11.1295
▁Mnm	-11.1297
Sel	-11.1299
▁Sl	-11.1301
▁ab	-11.1302
dR	-11.1302
Ras	-11.1302
DAD	-11.1305
▁Trk	-11.1306
cob	-11.1308
▁glutamin	-11.131
phase	-11.1317
othionein	-11.1321
▁Xdh	-11.1324
sulfi	-11.1325
RC	-11.1326
▁pseud	-11.1334
▁ammoni	-11.1334
▁mercur	-11.1335
ssociat	-11.1336
isk	-11.1337
octuloson	-11.1339
▁thioester	-11.1339
fibrill	-11.1341
esterase	-11.1342
stimulat	-11.1342
▁dihydrolipo	-11.1343
▁sarco	-11.1345
▁cyan	-11.1346
transferrin	-11.1348
516)	-11.1348
GFR	-11.1349
deaza	-11.1349
glyceryl	-11.1349
▁aqua	-11.1349
ycocyanin	-11.135
▁circ	-11.135
▁ceramid	-11.135
oligos	-11.135
ribityl	-11.135
phen	-11.135
carboxyethyl	-11.135
hydroxymyristoyl	-11.135
naphtho	-11.135
▁lympho	-11.135
▁proliferat	-11.135
▁KLHL	-11.135
▁cytoskelet	-11.135
▁nutrient	-11.135
▁phycobili	-11.135
▁ryanodine	-11.135
bacterioferritin	-11.135
feruloyl	-11.135
inosose	-11.135
lactoferrin	-11.135
neurotransmitter	-11.135
producing	-11.135
selenouridine	-11.135
trophin	-11.135
umilio	-11.135
ureidoacrylate	-11.135
vanadium	-11.135
▁MARVEL	-11.135
▁NEURL	-11.135
▁PDDEXK	-11.135
▁Praja	-11.135
▁RalGPS	-11.135
▁argonaute	-11.135
▁armadillo	-11.135
▁attenuat	-11.135
▁coactosin	-11.135
▁condensin	-11.135
▁coniferyl	-11.135
▁cortex	-11.135
▁cytohesin	-11.135
▁ecotin	-11.135
▁fanconi	-11.135
▁flotillin	-11.135
▁frataxin	-11.135
▁huntingtin	-11.135
▁laccase	-11.135
▁myrist	-11.135
▁phosphoketolase	-11.135
▁retrotransposon	-11.135
▁shuttl	-11.135
▁stomatin	-11.135
▁tandem	-11.135
▁thermo	-11.135
▁topolog	-11.135
▁transketolase	-11.135
▁tubby	-11.135
▁DOMON	-11.135
▁drug	-11.135
Kunitz	-11.135
MoaB	-11.135
hypoxanthine	-11.135
▁amphi	-11.135
▁cereb	-11.135
▁cyanophycin	-11.135
▁pheromone	-11.135
▁yippee	-11.135
▁TtcA	-11.135
▁RhuM	-11.135
▁SbcC	-11.135
▁YrbL	-11.135
▁galectin	-11.135
▁LrgB	-11.135
▁caspase	-11.135
ublecortin	-11.135
▁MscL	-11.135
▁NfeD	-11.135
modif	-11.135
▁ApaG	-11.135
▁PsiE	-11.135
umarylacetoaceta	-11.135
▁agmatinase	-11.135
▁creatininase	-11.135
▁CcdB	-11.135
▁NmrA	-11.135
XVIII	-11.135
▁Obg	-11.135
(1402)-	-11.135
hyalin	-11.135
▁CcdC	-11.135
▁pectin	-11.135
▁AbrB	-11.135
▁BPTI	-11.135
▁senescence	-11.135
▁PTEN	-11.135
▁RsfS	-11.135
▁ssDNA	-11.135
avidin	-11.135
▁DEDD	-11.135
▁TmcA	-11.135
▁DcrB	-11.135
▁SgrR	-11.135
▁MAEA	-11.135
▁fibrillarin	-11.135
▁ClcB	-11.135
▁RavA	-11.135
▁SprT	-11.135
▁opsin	-11.135
dimethylallyl	-11.135
▁PstC	-11.135
succinylbenzoate	-11.1351
▁clamp	-11.1351
▁decaprenyl	-11.1351
▁CoiA	-11.1351
▁PstS	-11.1351
▁EssA	-11.1351
▁InaA	-11.1351
▁CrcB	-11.1351
▁SlyX	-11.1351
▁galactokinase	-11.1351
palmitoleoyl	-11.1351
▁PrkA	-11.1351
▁FANCI	-11.1351
▁RraA	-11.1351
flavorubredoxin	-11.1351
SigA	-11.1351
Xkd	-11.1351
▁cohesi	-11.1351
▁TamB	-11.1351
requir	-11.1351
▁GreA	-11.1351
▁Hcp	-11.1351
cetylmannosamine	-11.1351
▁CcoG	-11.1351
oadipate	-11.1351
▁Gcv	-11.1351
▁excision	-11.1351
▁villin	-11.1351
▁phototropin	-11.1351
▁KCNG	-11.1351
▁peroxiredoxin	-11.1351
methylthiopent	-11.1352
gluconolactonase	-11.1352
▁Tgt	-11.1352
▁PcnB	-11.1352
▁EnvZ	-11.1352
▁assimilat	-11.1352
propionyl	-11.1352
▁chelatase	-11.1352
▁metaxin	-11.1352
▁GlgX	-11.1352
▁RutR	-11.1352
▁pyridoxine	-11.1352
▁DoxX	-11.1352
▁Ytz	-11.1352
▁Dcp	-11.1352
▁isoamylase	-11.1352
PmbA	-11.1353
▁rhamnulokinase	-11.1353
fringe	-11.1353
cyclohexane	-11.1353
▁elicitor	-11.1353
▁CobW	-11.1353
▁internal	-11.1353
tripeptide	-11.1353
▁TfuA	-11.1353
oxyacet	-11.1353
▁Yjz	-11.1353
▁TTC	-11.1353
▁Rtc	-11.1353
▁Yez	-11.1353
▁NusG	-11.1354
▁RmuC	-11.1354
▁RicA	-11.1354
▁Sbn	-11.1354
▁Bud	-11.1354
▁depolymerase	-11.1354
adren	-11.1354
▁rab	-11.1354
▁Nnr	-11.1354
▁Ycj	-11.1354
▁XRE	-11.1354
▁PrgI	-11.1354
▁Cmr	-11.1354
▁CCHC	-11.1354
spo	-11.1355
▁flavohemo	-11.1355
▁Snf	-11.1355
▁MscS	-11.1355
▁LicD	-11.1355
▁Gua	-11.1355
▁BglG	-11.1355
▁5,6-	-11.1355
aminoadipate	-11.1355
▁KIF	-11.1355
▁Sbm	-11.1356
▁PLEKHG	-11.1356
TOP	-11.1356
▁Dpn	-11.1356
▁Yjh	-11.1356
▁SirB	-11.1356
▁Kba	-11.1356
▁Tdc	-11.1356
▁CobQ	-11.1356
▁TusE	-11.1357
▁BREX	-11.1357
▁methylesterase	-11.1357
▁YhbY	-11.1357
▁SoxY	-11.1357
▁YaaW	-11.1357
igna	-11.1358
▁reduc	-11.1358
▁Upx	-11.1358
YdeP	-11.1358
▁Pxp	-11.1358
▁RusA	-11.1358
▁Vgr	-11.1358
hydroxymucon	-11.1358
neurin	-11.1358
▁SufE	-11.1359
▁FRMD	-11.1359
▁Kdg	-11.1359
▁MCM	-11.1359
▁AsmA	-11.1359
▁TCF	-11.1359
▁YlqF	-11.1359
▁PsbV	-11.136
▁SSU	-11.136
UbiF	-11.136
ovaler	-11.136
NrtA	-11.136
erolysin	-11.136
▁corepressor	-11.1361
annexin	-11.1361
ombo	-11.1361
▁FlaG	-11.1361
▁MoaC	-11.1361
oxidizing	-11.1361
▁Hy	-11.1361
▁MltG	-11.1361
▁CotJ	-11.1361
▁HrcA	-11.1361
trihydroxy	-11.1361
▁FimV	-11.1361
▁phytase	-11.1361
CYRI	-11.1361
▁HflX	-11.1362
▁ParM	-11.1362
▁Egt	-11.1362
▁Xis	-11.1362
▁TVP	-11.1363
▁MoaD	-11.1363
▁Yqk	-11.1363
▁NirD	-11.1363
RaiA	-11.1363
▁PgaD	-11.1363
▁UFD	-11.1363
embr	-11.1363
▁TCR	-11.1364
▁Rih	-11.1364
Fps	-11.1364
▁PAAR	-11.1365
DEAD	-11.1365
498)-	-11.1365
ketoglutarate	-11.1365
▁EngA	-11.1365
▁HflK	-11.1365
▁MoaA	-11.1365
vp	-11.1365
▁SapC	-11.1365
▁MnmG	-11.1365
▁SufB	-11.1365
▁PgaA	-11.1366
ile	-11.1366
▁GCN	-11.1366
▁bou	-11.1366
▁HdeA	-11.1366
▁PstA	-11.1366
▁NosR	-11.1366
▁SurE	-11.1366
SpoV	-11.1367
▁RlpA	-11.1367
▁NifW	-11.1367
▁NodZ	-11.1367
▁phosphomutase	-11.1367
▁CobN	-11.1367
▁BRCT	-11.1367
▁AcuC	-11.1367
▁ASCH	-11.1368
▁PuuE	-11.1368
▁CBF	-11.1368
▁phytochrome	-11.1368
▁LptE	-11.1368
▁OmpW	-11.1368
▁retrovir	-11.1368
▁SNX	-11.1368
▁AraC	-11.1368
▁LSM	-11.1369
▁YbbN	-11.137
▁FtsQ	-11.137
▁McrC	-11.137
▁TRAF	-11.137
▁LanM	-11.1371
MBR	-11.1371
▁AcrA	-11.1371
▁PhoU	-11.1371
▁CheW	-11.1371
NK	-11.1372
(32)	-11.1372
▁TrkH	-11.1373
▁YchF	-11.1374
▁HutP	-11.1374
▁SYK	-11.1374
▁CpaF	-11.1374
▁EGF	-11.1375
▁UreF	-11.1375
▁defe	-11.1375
▁YhaM	-11.1375
▁GspJ	-11.1375
▁FtsK	-11.1376
▁TAO	-11.1376
▁Xer	-11.1376
cofilin	-11.1377
▁Atu	-11.1377
▁Eps	-11.1377
▁Liv	-11.1378
▁Csy	-11.1378
187	-11.1378
itin	-11.1379
▁VHS	-11.1379
CPSF	-11.1379
▁deac	-11.1379
▁arm	-11.138
▁RecX	-11.138
▁ComEC	-11.138
▁TsaE	-11.138
▁BshB	-11.138
▁Ytx	-11.1381
TIP	-11.1382
▁SoxB	-11.1382
▁RuvB	-11.1383
thrin	-11.1383
▁CARP	-11.1383
▁Sfn	-11.1384
▁ParB	-11.1384
▁MalT	-11.1384
▁TCP	-11.1385
▁PurL	-11.1385
▁Lld	-11.1385
zo	-11.1386
▁NusB	-11.1386
▁Spx	-11.1386
▁NMD	-11.1386
▁Lrp	-11.1387
▁peroxin	-11.1388
▁Ark	-11.1388
▁EMC	-11.1388
▁MnmD	-11.1389
▁XerD	-11.1389
▁Yaj	-11.1389
▁Rsx	-11.1389
▁alkane	-11.1389
▁UreD	-11.1389
▁Yhj	-11.139
▁GTPBP	-11.139
▁Bss	-11.139
▁ParD	-11.139
▁insertase	-11.139
▁Mqs	-11.139
▁ComF	-11.139
▁YbgE	-11.1391
▁Ytf	-11.1392
▁PNP	-11.1392
ixA	-11.1393
▁Mmc	-11.1393
▁fam	-11.1393
▁addi	-11.1394
▁phycoerythr	-11.1394
▁ArsR	-11.1395
▁Yfj	-11.1395
MAK	-11.1395
▁sel	-11.1395
▁MnmA	-11.1395
▁RuvA	-11.1396
▁CreA	-11.1396
▁TrkA	-11.1396
oeB	-11.1396
▁autokinase	-11.1397
61-	-11.1398
▁GPR	-11.1398
Eb	-11.1398
▁diff	-11.1398
acting	-11.1399
▁AGC	-11.1399
▁glutaminase	-11.1399
▁Syc	-11.1399
Rdx	-11.14
▁RecT	-11.1401
▁CsgG	-11.1401
▁FtsE	-11.1402
▁DsbC	-11.1402
AsnC	-11.1403
▁Dsd	-11.1403
▁Ypb	-11.1403
▁YebG	-11.1404
▁resp	-11.1404
▁Abl	-11.1404
▁15,1	-11.1405
▁Cyn	-11.1405
▁quino	-11.1406
TMCO	-11.1406
REP	-11.1406
▁Nop	-11.1407
ival	-11.1407
▁Rsb	-11.1407
▁translin	-11.1407
▁YccS	-11.1407
▁orot	-11.1408
▁telomerase	-11.1409
▁BSD	-11.1409
▁stapho	-11.141
▁TruA	-11.1411
▁Ymg	-11.1411
▁polypren	-11.1412
▁Src	-11.1412
▁MGM	-11.1413
PIAS	-11.1413
▁SMG	-11.1413
▁UvrD	-11.1413
▁Arf	-11.1414
▁MotB	-11.1414
▁Fur	-11.1414
▁LptA	-11.1414
▁Yyc	-11.1414
sbA	-11.1414
atD	-11.1415
▁CARM	-11.1415
SRP	-11.1416
▁VRK	-11.1416
▁TrbI	-11.1416
▁Puu	-11.1418
▁Yfk	-11.1418
yp	-11.1418
romodomain	-11.1418
liver	-11.1419
kine	-11.1419
▁TraU	-11.1419
VL	-11.142
▁HATPase	-11.142
▁PilT	-11.142
▁DSC	-11.142
▁nucleolin	-11.1421
▁GspL	-11.1421
ism	-11.1421
▁PspC	-11.1422
oxal	-11.1423
hydroxyiso	-11.1424
▁PqqC	-11.1424
▁UvrA	-11.1425
▁YobA	-11.1425
glycerophosphate	-11.1425
▁CLK	-11.1426
▁Yun	-11.1427
▁Dsr	-11.1428
▁YidC	-11.143
ensin	-11.143
▁FAN	-11.1431
IML	-11.1432
▁LolA	-11.1433
▁TraX	-11.1434
oisomerase	-11.1434
▁TrbG	-11.1435
lacton	-11.1435
▁PhoH	-11.1435
▁Yda	-11.1436
▁Ygf	-11.1437
▁MTR	-11.1437
▁RlmE	-11.1438
▁Mlt	-11.1438
▁Muc	-11.1438
▁TatD	-11.1439
▁NPL	-11.1442
▁FtsB	-11.1442
▁sperm	-11.1443
▁NapC	-11.1444
▁YaaA	-11.1445
acetylserine	-11.1445
▁Yra	-11.1445
▁inhibit	-11.1446
▁TorD	-11.1446
068	-11.1447
▁ectoine	-11.1448
▁TatA	-11.1449
▁Ypf	-11.1449
▁MSL	-11.1449
▁snRNP	-11.145
▁calci	-11.145
▁SLT	-11.145
RagB	-11.145
▁cdc	-11.1451
jB	-11.1451
▁MCP	-11.1451
▁cortico	-11.1451
▁DIM	-11.1451
bla	-11.1452
▁lethal	-11.1452
▁aci	-11.1452
dUTP	-11.1452
▁Ybb	-11.1453
▁rhodopsin	-11.1453
▁TldD	-11.1453
▁condensation	-11.1453
▁Ybh	-11.1453
▁xylulokinase	-11.1454
hydroxyproline	-11.1454
▁pyruvoyl	-11.1454
▁sialidase	-11.1454
▁hexokinase	-11.1454
▁EmrA	-11.1454
▁ICP	-11.1454
▁Pup	-11.1455
▁Mce	-11.1455
▁cellobiose	-11.1455
▁PdxA	-11.1455
▁Urt	-11.1455
▁sedoheptulose	-11.1456
▁benzoyl	-11.1456
ocin	-11.1457
▁RecF	-11.1457
▁Ych	-11.1457
▁BamA	-11.1458
▁MazE	-11.1459
▁Pgl	-11.146
IAA	-11.146
▁GRK	-11.1461
▁CIR	-11.1462
Asp	-11.1462
▁Cya	-11.1463
▁FabZ	-11.1464
▁ComG	-11.1464
▁PqiB	-11.1464
▁ClpX	-11.1465
▁COQ	-11.1465
▁Dpp	-11.1465
chondr	-11.1465
▁ceramidase	-11.1465
▁RAB	-11.1466
holin	-11.1466
▁FtsZ	-11.1467
▁TusD	-11.1467
▁KU	-11.1467
▁GatB	-11.1467
▁apoprotein	-11.1467
▁Yxe	-11.1468
▁DegQ	-11.1468
▁Thr	-11.1468
▁PspA	-11.1468
▁formaldehyde	-11.147
▁MsrA	-11.147
▁Nos	-11.1471
carboxylesterase	-11.1471
▁dihydroorotase	-11.1472
▁SCO	-11.1472
▁organiz	-11.1472
▁Ycg	-11.1472
▁MHC	-11.1473
▁Ynd	-11.1473
▁CpxP	-11.1473
▁TrmH	-11.1474
succin	-11.1474
▁PilW	-11.1474
▁pyrophosphoryl	-11.1475
▁CSK	-11.1475
161	-11.1476
▁mis	-11.1476
▁Crt	-11.1478
▁CUT	-11.1478
ield	-11.148
▁GntR	-11.148
▁Hpr	-11.148
SusD	-11.1481
▁Sop	-11.1482
▁Yfb	-11.1483
▁EutN	-11.1483
▁Mgl	-11.1484
▁formin	-11.1484
fuculo	-11.1485
▁NifX	-11.1485
▁ComE	-11.1486
▁RB	-11.1493
▁benzoate	-11.1494
▁ERCC	-11.1495
▁ribokinase	-11.1496
▁thr	-11.1497
▁Tox	-11.1498
▁Yjg	-11.1498
▁tyrosin	-11.15
▁Pri	-11.1501
(74	-11.1503
▁MAD	-11.1503
▁RepB	-11.1506
don	-11.1506
▁FliI	-11.1506
perf	-11.1506
KIN	-11.1508
▁EutP	-11.1508
▁RecB	-11.1509
omal	-11.1509
▁Mio	-11.151
▁RPAC	-11.151
▁RSP	-11.1511
▁MinD	-11.1511
▁ClpP	-11.1516
▁ELP	-11.1518
llar	-11.152
▁Van	-11.152
▁longin	-11.152
GDY	-11.1522
▁Dj	-11.1523
▁BET	-11.1523
▁MET	-11.1524
▁Eis	-11.1524
ERB	-11.1525
crotonase	-11.1525
lage	-11.1526
▁Yac	-11.153
▁TraG	-11.1537
▁relax	-11.1539
▁TPM	-11.1539
▁ThiF	-11.154
PALP	-11.154
EfeO	-11.1542
▁CheB	-11.1542
GreB	-11.1543
▁EccC	-11.1544
▁GerP	-11.1545
▁SIS	-11.1546
▁Yhb	-11.155
pyruvyl	-11.1551
0239	-11.1551
▁Era	-11.1552
▁fascic	-11.1552
stator	-11.1553
▁DMP	-11.1555
▁the	-11.1556
▁RecA	-11.1557
dA	-11.1557
▁SPP	-11.1558
CMP	-11.1559
▁Cpx	-11.156
aD	-11.156
▁Dab	-11.1561
▁Ssa	-11.1566
▁GAL	-11.1568
▁FliL	-11.1568
▁Cit	-11.1568
▁cob	-11.1569
▁Glm	-11.157
fectiv	-11.1573
(9)	-11.1578
CIN	-11.1582
inter	-11.1583
glucosaminid	-11.1583
lmC	-11.1584
acalin	-11.1584
▁ABA	-11.1585
▁CCP	-11.1585
FBD	-11.1585
▁Puc	-11.1586
▁SPC	-11.1586
▁Sur	-11.1592
▁34	-11.1593
313	-11.1595
▁TssA	-11.1596
▁VIT	-11.16
▁ThiS	-11.16
),	-11.1602
202	-11.1604
pe	-11.1605
ENTH	-11.1607
▁Brx	-11.1607
Yuk	-11.1607
▁Vb	-11.1608
▁Hyc	-11.161
▁Yjd	-11.1611
icol	-11.1612
▁Dnd	-11.1614
▁Yue	-11.1615
▁CCA	-11.1619
deoxyglucon	-11.1621
▁squa	-11.1623
▁tartrate	-11.1624
▁Ger	-11.1626
▁Hut	-11.1628
▁mobilization	-11.1629
▁Ynf	-11.1632
Gppp	-11.1633
1/2	-11.1633
KRE	-11.1639
▁Wb	-11.164
▁Yga	-11.164
▁mercury	-11.1641
▁IST	-11.1642
▁Bla	-11.1644
▁Mog	-11.1646
0280	-11.1648
▁SPO	-11.1652
▁Ira	-11.1658
▁Hs	-11.1658
▁SecE	-11.1661
▁HPF	-11.1661
TPR	-11.1663
▁arginin	-11.1666
sex	-11.1666
▁Yea	-11.1667
▁she	-11.1671
▁cry	-11.1673
furan	-11.1676
▁RIM	-11.1677
▁Hx	-11.1682
Mg	-11.1684
▁Csd	-11.1694
obA	-11.1697
tetrahydropter	-11.1697
▁DIS	-11.1698
pal	-11.1698
INS	-11.17
cill	-11.1702
VT	-11.1703
▁FlgD	-11.1704
▁Yfm	-11.1704
YscG	-11.1709
LNG	-11.1715
OSCA	-11.1717
WhiG	-11.1718
▁chromosom	-11.1721
▁Cbr	-11.1722
bilization	-11.1725
▁kno	-11.1729
dI	-11.1729
diaminobutyrate	-11.173
▁SAG	-11.1736
YnfE	-11.1737
▁phosphoesterase	-11.174
▁ARC	-11.174
amidase	-11.1742
▁Opr	-11.1744
slipin	-11.1754
mL	-11.1756
dec	-11.1757
▁Rcn	-11.1765
onal	-11.177
538	-11.1772
prim	-11.1773
kB	-11.1778
381	-11.1781
det	-11.1784
radi	-11.1789
▁Dct	-11.1789
YqgF	-11.1792
▁TRI	-11.1793
FIP	-11.1794
patched	-11.1801
rnA	-11.1802
▁sulfatase	-11.1806
▁acylase	-11.1815
458	-11.1818
Abi	-11.1818
pC	-11.1819
atB	-11.182
▁Ycb	-11.1822
dihydroxybenzo	-11.1823
SufD	-11.1826
▁extensi	-11.1827
▁Ybc	-11.1828
386	-11.1828
TusB	-11.1829
oppo	-11.1834
GY	-11.1836
441	-11.1837
▁Cbt	-11.184
0228	-11.1841
▁reducta	-11.1844
▁muc	-11.1844
▁cad	-11.1845
▁Znu	-11.1852
▁Sox	-11.1854
▁carbam	-11.1855
osylcobinamide	-11.186
▁Yoa	-11.186
▁SpoIIS	-11.1862
ptA	-11.1867
▁SIP	-11.1869
irA	-11.187
▁Ys	-11.187
▁Mre	-11.1872
▁Yqc	-11.1872
▁Hes	-11.1874
▁SpoIII	-11.1876
▁Ure	-11.1876
▁benz	-11.1878
▁Yib	-11.1879
▁Eco	-11.1881
(260	-11.1881
040	-11.1882
▁CDK	-11.1882
SAN	-11.1892
(191	-11.1893
YedE	-11.1902
▁SHC	-11.1904
wnt	-11.1908
SapB	-11.1908
▁Lpt	-11.1909
▁Mbe	-11.1909
-1,	-11.1911
hydroxyl	-11.1913
pha	-11.1913
▁FliA	-11.1915
cJ	-11.1917
▁toxic	-11.192
▁Ygd	-11.192
376	-11.1927
▁fibro	-11.193
OSC	-11.1935
▁GAG	-11.1937
PhoQ	-11.1945
▁arabinos	-11.1949
hai	-11.1951
▁kine	-11.1954
▁Sd	-11.1954
▁Sas	-11.1961
▁par	-11.1965
▁guanyl	-11.1968
Hrp	-11.1972
ArgO	-11.1976
▁octaprenyl	-11.1978
▁cyano	-11.1979
▁ster	-11.1981
Mqn	-11.1987
▁dihydrouridine	-11.1989
▁Fla	-11.1991
▁TIR	-11.1999
431	-11.2001
▁268	-11.2024
din	-11.2027
▁myc	-11.2034
hemoprotein	-11.2039
rcA	-11.204
▁Cob	-11.204
▁Fos	-11.2044
YceG	-11.2047
179	-11.2052
▁li	-11.2053
ompartment	-11.2055
482	-11.2056
ZapE	-11.2057
AMPK	-11.2066
▁Yug	-11.2075
▁Ygi	-11.2083
VB	-11.2088
▁BAC	-11.209
MoeB	-11.21
bC	-11.2103
hB	-11.212
odC	-11.2121
cf	-11.2125
oxalo	-11.2133
DPK	-11.2136
▁SA	-11.2138
ABP	-11.2139
ici	-11.2139
LacB	-11.2144
421	-11.2146
1962	-11.2149
POP	-11.215
▁SecA	-11.2151
▁Sth	-11.216
▁OST	-11.2162
▁CAA	-11.2164
ORC	-11.2188
▁28	-11.2197
aeR	-11.2201
022	-11.2203
rbB	-11.2212
parti	-11.2216
polymerization	-11.2217
▁propionate	-11.2218
chrome	-11.2219
▁transloc	-11.2222
DivI	-11.2229
NO	-11.2229
▁GAS	-11.224
infect	-11.2244
hex	-11.2248
▁Ykg	-11.2252
non	-11.2255
OPA	-11.2257
dh	-11.2267
TatE	-11.227
▁GY	-11.2284
guanid	-11.2296
▁Tc	-11.23
▁STA	-11.2306
BPI	-11.2309
▁neur	-11.2309
▁FM	-11.2322
scr	-11.2334
porph	-11.2335
iv	-11.2338
(5-	-11.2343
propano	-11.2346
LY	-11.2348
▁Por	-11.2348
ADA	-11.235
▁hydroxyacid	-11.235
018	-11.2351
▁cutic	-11.2357
CpaB	-11.2362
compa	-11.2364
▁Mtr	-11.2367
▁Mc	-11.2372
470	-11.2383
▁TO	-11.2406
▁phi	-11.2411
vinyl	-11.2417
med	-11.2419
▁CO	-11.2422
▁Rc	-11.2423
rest	-11.243
zr	-11.244
▁SV	-11.2441
osaminidase	-11.2448
,8-	-11.2449
gr	-11.2451
131	-11.2458
▁GL	-11.2466
MPN	-11.2476
SpoVA	-11.2484
▁Rh	-11.2489
450/	-11.2492
▁Yy	-11.2493
▁EX	-11.2499
▁13-	-11.2501
409	-11.2522
FtsL	-11.2524
135	-11.2524
▁Pep	-11.2528
▁PU	-11.2529
Phd	-11.2535
▁Fic	-11.2538
izing	-11.254
LI	-11.2545
▁bacteri	-11.2554
▁z	-11.2558
ZW	-11.2563
-17	-11.2575
▁Kd	-11.2588
usA	-11.2592
cE	-11.2599
▁SMI	-11.2601
▁Bsh	-11.2615
▁rhamnosyl	-11.2617
eta	-11.2622
psF	-11.2629
▁Hop	-11.2632
▁div	-11.2635
ery	-11.2637
▁LY	-11.2649
miS	-11.2656
▁myot	-11.2661
▁MCT	-11.2667
furin	-11.2668
82	-11.2671
▁Gsh	-11.2674
▁To	-11.2693
ocyanin	-11.2702
▁Par	-11.2729
denosylcobalamin	-11.2732
▁tetrahydro	-11.2735
▁gu	-11.274
▁Yqi	-11.2743
tack	-11.2743
▁KE	-11.2754
268	-11.2757
APK	-11.2758
ELF	-11.2764
irin	-11.2783
sine	-11.2793
ib	-11.2812
YccA	-11.2818
sC	-11.2821
▁ste	-11.2824
oheme	-11.2829
FixA	-11.2829
-8	-11.2833
▁MM	-11.2838
lipo	-11.284
FT	-11.284
151	-11.2842
px	-11.2845
371	-11.2849
▁BT	-11.2851
375	-11.2867
▁mannos	-11.2869
▁bio	-11.2876
▁Cr	-11.2877
opyranos	-11.2877
▁RNAse	-11.2891
BRI	-11.2893
LacA	-11.2901
▁TFIII	-11.292
rB	-11.2922
0028	-11.2923
▁pyran	-11.2928
▁CSL	-11.293
▁Lap	-11.2934
▁gluco	-11.2946
▁ARM	-11.2947
14/	-11.2949
ll	-11.2956
SAE	-11.2956
))-	-11.2961
HrpB	-11.2963
Cdc	-11.2965
▁RasG	-11.2967
▁pelli	-11.298
469	-11.2991
Moc	-11.2993
▁Paf	-11.2997
197	-11.2998
galacton	-11.3009
▁ML	-11.3017
▁Tad	-11.3029
▁hex	-11.303
▁Pro	-11.3032
usB	-11.3043
▁pyridox	-11.3043
▁repeats	-11.305
292	-11.3051
▁Med	-11.3055
▁Dcu	-11.3058
onine	-11.3062
▁MB	-11.3063
026	-11.3066
EMT	-11.3073
LC	-11.3074
▁HV	-11.3082
▁AA	-11.3094
▁sec	-11.3096
▁170	-11.3103
aB	-11.3112
)-2-	-11.3126
Cse	-11.3135
▁Bof	-11.3137
▁130	-11.3137
251	-11.3139
▁Yol	-11.3145
vel	-11.3148
mj	-11.3149
ei	-11.3152
▁Res	-11.3175
▁Tf	-11.3192
nor	-11.3194
GF	-11.3196
MK	-11.3199
FKB	-11.3201
FTR	-11.3209
yrophosphokinase	-11.3213
add	-11.3224
MS	-11.3236
ocA	-11.3236
▁Hig	-11.3253
▁KD	-11.3256
LAS	-11.3261
▁Nu	-11.3269
▁Do	-11.327
▁Ypi	-11.3287
ML	-11.3302
▁ND	-11.3304
▁Hof	-11.3325
▁Ydf	-11.3331
HT	-11.3338
▁Yia	-11.3339
CHAP	-11.335
yr	-11.3352
olysin	-11.3359
▁YE	-11.3389
OmpR	-11.339
0267	-11.3392
oint	-11.3395
sed	-11.3397
▁Mep	-11.3408
tei	-11.3426
342	-11.3426
▁sensitiv	-11.343
230	-11.3433
UE	-11.3436
▁ki	-11.3437
Ssa	-11.3439
uA	-11.3441
xylulo	-11.3443
▁Abi	-11.3467
glycos	-11.3469
RecN	-11.347
▁Der	-11.3474
417	-11.3474
355	-11.3481
▁Ss	-11.3488
2251	-11.3491
psi	-11.3501
▁SC	-11.3504
HisF	-11.3512
▁organ	-11.3549
Si	-11.3552
tern	-11.358
▁EL	-11.3581
mis	-11.3582
Lcr	-11.3594
176	-11.3595
▁116	-11.3609
CUL	-11.361
▁UF	-11.3615
▁LD	-11.362
)-4	-11.3631
igogalacturonate	-11.3643
ST	-11.3644
MARCHF	-11.3647
etylgalactosamin	-11.3657
mino	-11.3666
▁Gx	-11.3678
445	-11.3681
▁hydr	-11.3683
icarboxylate	-11.3684
▁Brn	-11.3684
cano	-11.3696
SUN	-11.3715
043	-11.3739
vir	-11.3749
▁selen	-11.376
lating	-11.3769
PAS	-11.3777
2069	-11.3787
ARC	-11.3794
cro	-11.3797
26/	-11.3799
PK	-11.3809
▁col	-11.3828
▁NP	-11.3845
thenyltetrahydro	-11.3847
-7	-11.3853
▁77	-11.3862
▁At	-11.3864
1835	-11.3867
▁Nin	-11.3891
KL	-11.3894
Pho	-11.3898
exin	-11.3902
▁phosphosulf	-11.3902
IMP	-11.3903
Bi	-11.3906
(4)-	-11.3907
▁NE	-11.3907
▁fimbril	-11.3909
cle	-11.3913
utB	-11.3916
bS	-11.3934
OR	-11.3938
▁Cir	-11.3948
XR	-11.3952
▁pel	-11.396
crA	-11.3968
IND	-11.3972
34/	-11.3983
EC	-11.3988
HAD	-11.3989
lxA	-11.3997
RTA	-11.4011
bisphosph	-11.4012
▁BO	-11.4018
isoaspart	-11.4024
▁Dkg	-11.403
▁Mcr	-11.4033
4)	-11.4039
3''	-11.404
rea	-11.4041
ns	-11.4045
▁Saf	-11.4057
Mec	-11.4069
ike	-11.4073
neph	-11.4075
▁phosphatid	-11.4084
cate	-11.4092
▁NT	-11.4101
▁lact	-11.4101
BCK	-11.4104
PMP	-11.4104
galactos	-11.4105
Iuc	-11.4118
ipB	-11.4118
KN	-11.4128
xL	-11.4139
430	-11.4159
▁121	-11.4168
oside	-11.417
▁DO	-11.4172
im	-11.4186
▁fucos	-11.4199
Fad	-11.423
av	-11.4236
▁reactiva	-11.4242
tbA	-11.4245
no	-11.4251
127	-11.4253
▁Pi	-11.4281
si	-11.4286
▁Ef	-11.43
▁Ral	-11.4301
amb	-11.4306
▁Lar	-11.4311
▁Ly	-11.4313
▁Mad	-11.4317
▁ES	-11.4322
314	-11.4327
▁gluc	-11.433
port	-11.4347
411	-11.4379
mmon	-11.438
stre	-11.4384
▁Rst	-11.4411
129	-11.4416
▁SRS	-11.4416
sn	-11.4421
446	-11.4424
apB	-11.4436
363	-11.444
▁CRE	-11.4445
PDC	-11.4446
ulfurtransferase	-11.4451
-3,4	-11.4483
erin	-11.4491
ining	-11.4491
▁Ser	-11.4529
Mfa	-11.4535
193	-11.4538
▁Cse	-11.4548
eK	-11.4562
▁HA	-11.4596
pT	-11.4598
enosylmethionine	-11.4604
lamin	-11.4605
543	-11.4621
▁Ysc	-11.4623
YST	-11.4623
ba	-11.463
methylt	-11.4637
▁galactos	-11.467
564	-11.4683
ld	-11.4684
croton	-11.4688
afA	-11.4688
▁su	-11.4694
▁BR	-11.4711
cl	-11.4736
▁ferro	-11.4739
SR	-11.474
▁Lpp	-11.4747
AD	-11.4747
533	-11.476
▁SPR	-11.477
inate	-11.4773
idin	-11.4779
361	-11.4795
suA	-11.4796
methan	-11.4801
PY	-11.4801
ite	-11.4818
ribos	-11.4819
mgE	-11.4838
▁87	-11.4839
126	-11.4855
ade	-11.4855
1917	-11.4895
osa	-11.4895
susc	-11.4897
gF	-11.4902
▁maltos	-11.4907
otransferase	-11.491
▁Ym	-11.4911
ococc	-11.4929
oxoac	-11.4941
BA	-11.4943
pG	-11.4954
rP	-11.4967
abolism	-11.498
diester	-11.499
▁Pc	-11.4991
ulin	-11.4991
CS	-11.4997
358	-11.5015
TAB	-11.5024
▁Scp	-11.5031
NT	-11.5035
▁App	-11.5035
edu	-11.5038
LF	-11.5058
atidylcholine	-11.5068
▁PDG	-11.517
legum	-11.5174
rhamno	-11.5175
101	-11.5221
▁Lip	-11.5224
ym	-11.5234
phati	-11.524
INT	-11.5241
yst	-11.5275
▁la	-11.5289
▁Im	-11.5292
▁Ba	-11.5302
arti	-11.5312
tem	-11.5319
RG	-11.5379
▁metalloprotein	-11.5398
SAC	-11.5408
▁CI	-11.5414
CG	-11.5419
325	-11.5421
arabin	-11.5438
PDGF	-11.5449
ECT	-11.545
iose	-11.5452
▁rhamn	-11.5462
▁Nan	-11.5468
hyltransferase	-11.5476
▁pho	-11.5484
▁Yig	-11.5487
▁phosphohexo	-11.5496
248	-11.5527
139	-11.5549
159	-11.5549
ccin	-11.5558
432	-11.5559
go	-11.5569
083	-11.5578
xE	-11.558
▁LA	-11.5599
ps	-11.5601
regul	-11.5606
246	-11.5616
iB	-11.5617
▁MTA	-11.5621
thylthioribulose	-11.5633
▁Mpr	-11.5635
▁STM	-11.5645
▁RR	-11.5651
71	-11.5652
erpe	-11.5655
▁glyc	-11.5658
▁Rs	-11.5666
▁Bae	-11.5668
diA	-11.568
▁peroxid	-11.5689
translocati	-11.5698
▁MAPK	-11.5704
ylation	-11.5709
UF	-11.5722
▁BM	-11.5744
▁Fol	-11.5748
diacetyl	-11.5771
108	-11.5771
tonin	-11.5772
agA	-11.5794
20/	-11.5831
olE	-11.585
lastin	-11.5854
▁FY	-11.5863
uB	-11.5905
inor	-11.5911
▁Pe	-11.5929
449	-11.5933
▁terminal	-11.5945
eclin	-11.5945
xx	-11.5953
sper	-11.5981
ial	-11.5997
cyclin	-11.5998
sf	-11.6001
so	-11.6004
KR	-11.6033
▁no	-11.6036
38/	-11.6047
▁FAB	-11.606
▁mann	-11.606
▁Rhl	-11.607
250	-11.6084
sD	-11.613
/(	-11.6136
propyl	-11.6145
culin	-11.6152
RMD	-11.6154
RD	-11.6161
▁LAR	-11.6186
ORM	-11.6191
glutam	-11.6205
cap	-11.6212
lR	-11.6215
677	-11.6216
Cu	-11.6223
▁fa	-11.6248
qu	-11.6255
UM	-11.6262
▁retino	-11.6267
211	-11.6271
▁ferr	-11.6274
bact	-11.6282
ROR	-11.6286
flu	-11.6296
MD	-11.6312
otriesterase	-11.632
AMM	-11.6346
▁Sia	-11.6359
▁spi	-11.6383
VIIa	-11.6383
err	-11.6386
carboxyl	-11.6391
604	-11.6393
tine	-11.6405
deoxyribos	-11.6407
ali	-11.6407
acetylase	-11.6418
▁CF	-11.6429
fC	-11.6444
030	-11.646
entia	-11.651
▁contr	-11.6511
46/	-11.6515
835	-11.6538
onc	-11.6549
Dn	-11.6567
erro	-11.6568
ROM	-11.6584
ME	-11.6592
tropin	-11.6592
▁Cus	-11.6603
▁Dac	-11.6605
Ym	-11.6606
ER	-11.6611
▁fimbri	-11.6618
▁Mp	-11.6623
hydroxyla	-11.6644
▁Csr	-11.6668
▁NF	-11.6678
▁cut	-11.67
▁NEP	-11.6728
FY	-11.673
▁MYS	-11.673
▁allanto	-11.6733
HF	-11.6739
dB	-11.6789
839	-11.6801
reB	-11.6803
▁cu	-11.6815
benzo	-11.6829
galacto	-11.6833
ota	-11.6834
glucuroni	-11.6852
219	-11.6878
ogalacturona	-11.6896
▁Tn	-11.6913
Exo	-11.6921
CF	-11.6942
▁RBC	-11.6968
17)	-11.6972
▁SW	-11.6994
▁chromati	-11.7005
▁TN	-11.701
▁galact	-11.702
ess	-11.7029
▁Gl	-11.7061
▁SB	-11.7067
pp	-11.7075
▁paral	-11.7103
acti	-11.712
539	-11.712
sin	-11.713
ED	-11.7137
▁chi	-11.7167
anoyl	-11.7174
ef	-11.7192
▁SK	-11.7208
▁Er	-11.7218
205	-11.7219
HK	-11.723
air	-11.7239
dF	-11.724
▁gen	-11.7253
▁GT	-11.7255
lo	-11.7261
▁Cap	-11.7263
rmal	-11.728
▁translocat	-11.7285
ia	-11.7291
▁Rin	-11.7307
191	-11.731
UN	-11.731
phobi	-11.7323
fl	-11.7329
▁pyrophosph	-11.733
243	-11.7332
shA	-11.7337
▁Cad	-11.7347
437	-11.7372
352	-11.7374
348	-11.7378
238	-11.738
324	-11.7382
PAR	-11.7385
917	-11.739
▁ar	-11.743
oB	-11.7445
▁Fbp	-11.7474
benzoate	-11.7474
▁oxida	-11.7476
▁TRA	-11.753
RII	-11.7545
24/	-11.7558
▁Ub	-11.7596
CAB	-11.7603
LE	-11.7604
Yrd	-11.7613
ena	-11.7622
396	-11.7633
hage	-11.7659
sc	-11.7662
▁ESC	-11.7665
arP	-11.7695
-1/	-11.7698
-6-(	-11.7705
▁Sse	-11.7707
TI	-11.7717
sulfo	-11.7752
eas	-11.7769
▁phosphonat	-11.7773
man	-11.7787
oz	-11.7798
TraD	-11.7807
apE	-11.7809
rev	-11.781
124	-11.7821
938	-11.7866
212	-11.7873
ethylaminomethyl	-11.7885
EO	-11.7905
yk	-11.7914
dfR	-11.7922
ab	-11.7923
▁EI	-11.7928
bil	-11.7934
ag	-11.7935
▁BCI	-11.7984
lip	-11.8
▁Gf	-11.8002
meso	-11.8004
poi	-11.8008
RSF	-11.8012
▁que	-11.8027
folate	-11.8038
ysM	-11.8045
▁Pts	-11.8065
▁Ti	-11.8075
▁pyr	-11.8084
▁synde	-11.8096
303	-11.8105
▁OC	-11.8126
hpA	-11.8137
▁Fin	-11.8148
459	-11.815
▁Hp	-11.8158
rico	-11.8168
(25	-11.8174
▁EP	-11.8175
▁flagell	-11.818
145	-11.8191
osidase	-11.8227
▁Pan	-11.8237
291	-11.8247
sensory	-11.8263
▁Si	-11.8263
tis	-11.8279
ADH	-11.8282
ger	-11.8288
rate	-11.8292
ytR	-11.8295
▁pell	-11.8298
hA	-11.8306
oacyl	-11.8346
oglucomutase	-11.8354
▁leukoc	-11.8375
▁RES	-11.8388
subunit	-11.8403
▁triphospho	-11.8412
cyte	-11.8421
rsH	-11.8422
omannomutase	-11.8455
ran	-11.8457
Cop	-11.8497
uni	-11.852
aC	-11.8542
▁pe	-11.8547
▁KT	-11.8558
lys	-11.856
EK	-11.8563
rdC	-11.8564
utQ	-11.858
ribosylamino	-11.8589
egume	-11.8591
tocyanin	-11.8595
LRE	-11.8602
▁FE	-11.8608
365	-11.862
fi	-11.8624
19/	-11.8625
ysin	-11.8638
039	-11.868
ug	-11.8714
AZ	-11.8719
rb	-11.8724
pB	-11.8725
115	-11.8752
▁nitr	-11.8758
bsR	-11.8765
462	-11.8783
mann	-11.8797
prenyl	-11.8799
TRA	-11.8815
▁gly	-11.8835
▁Yj	-11.884
PII	-11.8841
conjuga	-11.8878
▁Ld	-11.8882
ru	-11.8885
▁centri	-11.8894
hosphomevalonate	-11.8901
372	-11.8904
zing	-11.8915
253	-11.8916
dicarboxyl	-11.8959
aryl	-11.8962
ylhomocysteinase	-11.8979
tol	-11.8985
Pip	-11.8993
428	-11.9017
dihydropyrimidin	-11.902
sol	-11.9035
967	-11.9045
butyryl	-11.9052
/6	-11.9064
sphoenolpyruvate	-11.9069
ton	-11.9078
▁3',	-11.9081
▁VL	-11.9103
PAD	-11.9141
SOR	-11.9176
▁pyro	-11.9211
471	-11.9231
▁MT	-11.9238
Sgc	-11.9241
▁LO	-11.9246
5'	-11.9249
yn	-11.9253
phosphocholine	-11.9268
glyc	-11.9272
op	-11.928
mer	-11.9316
loride	-11.9319
otei	-11.9367
imT	-11.9368
galacturon	-11.9378
csF	-11.938
chrom	-11.9384
VO	-11.9404
283	-11.9406
dC	-11.9409
▁fer	-11.9413
WF	-11.9416
ost	-11.9419
csC	-11.944
gi	-11.9442
nF	-11.9459
▁ur	-11.946
▁Cl	-11.9476
lon	-11.9485
XT	-11.9525
143	-11.9526
▁WG	-11.9528
DOC	-11.9547
54-	-11.9566
▁my	-11.9575
DT	-11.959
491	-11.9617
ocompa	-11.9622
▁sorb	-11.9623
PR	-11.9635
isC	-11.964
-13	-11.9641
llid	-11.9663
▁oligopeptid	-11.967
uccinylglutamate	-11.9679
▁comp	-11.968
194	-11.9683
span	-11.9689
▁lip	-11.9696
Yxi	-11.9742
-30	-11.9748
moA	-11.975
▁st	-11.9751
Lpr	-11.9752
▁chrom	-11.9767
nk	-11.9774
PB	-11.9814
nction	-11.9818
▁arabino	-11.9821
hylenetetrahydro	-11.9821
VH	-11.9831
tsJ	-11.9847
▁per	-11.9853
nucle	-11.9856
ish	-11.9862
ptD	-11.9862
ldE	-11.9862
▁phosphorib	-11.9863
Pom	-11.9869
ind	-11.9875
112	-11.9883
sperm	-11.9897
DK	-11.9904
rsA	-11.9907
▁Mn	-11.9909
umen	-11.9925
hydroxycinnam	-11.9946
SIM	-11.9948
lv	-11.9952
phenyl	-11.9967
ino	-11.998
▁97	-11.9982
▁Ca	-11.9992
fin	-12.0009
lkB	-12.0012
cyclohexa	-12.0031
▁homeo	-12.0033
bM	-12.0039
stasis	-12.0044
ulokinase	-12.0058
263	-12.0059
apC	-12.006
▁top	-12.0064
olC	-12.0075
vase	-12.0075
Atp	-12.0094
▁RI	-12.01
316	-12.0113
▁meta	-12.013
2,3-	-12.0134
▁BU	-12.0134
▁Zi	-12.0137
319	-12.0168
0421	-12.0193
▁RAR	-12.0224
5,1	-12.0236
YS	-12.0249
fQ	-12.025
▁hom	-12.0254
▁Cs	-12.0256
US	-12.0259
▁Suf	-12.0267
541	-12.0306
vpA	-12.0343
▁SE	-12.0356
WP	-12.0358
SAP	-12.0377
bic	-12.0384
Yj	-12.0391
rotein	-12.0394
REC	-12.0395
saA	-12.0396
242	-12.0399
▁fruct	-12.04
regulator	-12.0425
rad	-12.045
▁carbo	-12.0455
FS	-12.0485
▁protoporphyrin	-12.0486
toxin	-12.0487
hydro	-12.0488
▁Yd	-12.049
311	-12.0497
be	-12.0498
▁extr	-12.0524
▁integrati	-12.0528
Esp	-12.054
▁lysophosph	-12.054
105	-12.054
▁Car	-12.0552
ruC	-12.056
▁med	-12.0562
attac	-12.0565
ofuran	-12.0571
0245	-12.0573
ec	-12.0584
dhR	-12.0587
benzoyl	-12.0587
153	-12.0612
Al	-12.0627
AL	-12.0639
inhibit	-12.0655
(2))	-12.0657
polymerase	-12.0657
XI	-12.0659
110	-12.0663
huA	-12.0676
464	-12.0682
567	-12.0682
PA	-12.0688
▁fur	-12.0693
Yh	-12.0694
xCxx	-12.0697
scin	-12.0714
PHP	-12.072
deoxygluc	-12.0727
▁YI	-12.0728
Yhi	-12.0732
aeA	-12.0733
▁Av	-12.0737
ser	-12.0739
▁De	-12.0754
▁1,	-12.0754
cin	-12.0761
gic	-12.0779
toxic	-12.0788
▁glu	-12.0789
(2)	-12.0828
PLA	-12.0845
tropic	-12.0852
taxin	-12.0856
▁carnitin	-12.0873
orph	-12.0875
▁GroE	-12.0876
ASE	-12.0877
2604	-12.0882
Pop	-12.0882
DI	-12.0884
UTP	-12.0887
▁Sha	-12.0893
oxidase	-12.0896
polypren	-12.0902
rf	-12.0913
DC	-12.093
104	-12.0931
small	-12.094
GG	-12.0947
DCK	-12.0949
oxypentan	-12.0954
Bir	-12.0961
Ebs	-12.0963
halo	-12.0966
protoporphyrin	-12.0973
XIV	-12.0975
enzyme	-12.098
▁seleno	-12.0991
▁diaminobutyr	-12.0994
metallo	-12.1
sensor	-12.1004
merization	-12.1005
Maz	-12.1007
AN	-12.1013
BX	-12.1016
epoxy	-12.1026
Ybc	-12.1026
▁VE	-12.1032
Csd	-12.104
histone	-12.1042
aldolase	-12.1042
▁cobyri	-12.1044
Yoa	-12.1045
secret	-12.1046
lgH	-12.1055
▁threonyl	-12.1057
long	-12.1057
mitochondri	-12.1064
regulatory	-12.1064
▁croton	-12.1067
deaminase	-12.1067
▁po	-12.1068
kelch	-12.1071
glutathion	-12.1072
transposase	-12.1074
Ygi	-12.1075
motif	-12.1077
patch	-12.1078
Yqa	-12.1078
fibro	-12.1083
stress	-12.1086
nucleotid	-12.1086
lipase	-12.1088
pyruvoyl	-12.1091
butyr	-12.1091
sialidase	-12.1091
Scp	-12.1092
condensation	-12.1092
hexokinase	-12.1092
sedoheptulose	-12.1092
cellobiose	-12.1092
TldD	-12.1092
rhodopsin	-12.1092
PqiB	-12.1092
FtsZ	-12.1093
DegQ	-12.1093
CpxP	-12.1093
FabZ	-12.1093
NifX	-12.1093
TusD	-12.1094
ThiF	-12.1094
topoisomerase	-12.1095
cy	-12.1095
ceramidase	-12.1095
lethal	-12.1095
ThiS	-12.1096
cortico	-12.1096
PilW	-12.1097
Brx	-12.1097
Pgl	-12.1099
GntR	-12.1099
Yqf	-12.11
▁Moe	-12.11
dihydroorotase	-12.1101
Thr	-12.1102
Yii	-12.1104
modulat	-12.1104
xylulokinase	-12.1105
OCT	-12.1105
ectoine	-12.1105
dihydroorota	-12.1105
cdc	-12.1106
glucosaminyl	-12.1109
Ygd	-12.1109
RepB	-12.111
epsilon	-12.111
selenocystein	-12.1111
cryptochrome	-12.1111
glyoxylate	-12.1111
gelsolin	-12.1111
cyclodeaminase	-12.1112
mycothiol	-12.1112
sucrose	-12.1112
Yjb	-12.1112
Yqe	-12.1112
glutaredoxin	-12.1113
oxid	-12.1113
MinD	-12.1113
lipoyl	-12.1114
CXXC	-12.1114
MlaD	-12.1114
formaldehyde	-12.1115
calci	-12.1115
MazE	-12.1115
pyridoxal	-12.1116
capsid	-12.1116
virulence	-12.1117
Trp	-12.1118
ubiquinol	-12.1118
patatin	-12.1119
biofilm	-12.1119
circular	-12.1119
sulfhydryl	-12.1119
Yqh	-12.1119
aquaporin	-12.112
carbohydrate	-12.112
tryptophan	-12.112
Ycg	-12.1121
Yfh	-12.1122
desaturase	-12.1122
pyrophosphate	-12.1122
histidinol	-12.1122
Pqq	-12.1122
flavodoxin	-12.1122
damage	-12.1122
glyceraldehyde	-12.1123
dihydrolipoyl	-12.1123
deacylase	-12.1123
molybdate	-12.1124
exoribonuclease	-12.1125
▁perox	-12.1125
DsrE	-12.1125
dolich	-12.1126
short	-12.1126
adhesin	-12.1126
dis	-12.1127
cupin	-12.1127
importin	-12.1127
FMN	-12.1128
Psb	-12.1128
glycosidase	-12.1128
Lys	-12.1128
Rpi	-12.1128
malto	-12.1128
cyclohydrolase	-12.1128
Rab	-12.1129
Hpn	-12.113
integrase	-12.113
reticul	-12.1131
CWC	-12.1131
target	-12.1132
Lpq	-12.1132
SpoIII	-12.1133
flavo	-12.1133
decarboxyla	-12.1133
Osm	-12.1133
catechol	-12.1134
glyoxalase	-12.1135
Pa	-12.1137
thymidyl	-12.1137
Pkn	-12.1138
nicotinate	-12.1138
retro	-12.1139
ribokinase	-12.114
extra	-12.1141
ribonucleotide	-12.1141
MutS	-12.1143
Ych	-12.1149
cytidyl	-12.115
lysophospholip	-12.115
RecQ	-12.1151
MARK	-12.1151
SpoII	-12.1151
ferric	-12.1151
Gvp	-12.1152
▁Ibp	-12.1155
aminoacylase	-12.1156
cadherin	-12.1158
smA	-12.116
element	-12.1162
IR	-12.1163
hemoglobin	-12.1165
RBM	-12.1166
Bcs	-12.1169
COQ	-12.1171
agmatine	-12.1171
ULK	-12.1173
polypeptide	-12.1174
pyridox	-12.1178
Yci	-12.1183
penicillin	-12.1184
glutamic	-12.1184
asparagine	-12.1185
Saf	-12.1185
chit	-12.1186
Nrf	-12.1187
amily	-12.119
SIK	-12.1191
pyrrol	-12.1193
KDM	-12.1198
Nud	-12.1198
Rim	-12.12
▁amid	-12.1201
Dsb	-12.1204
▁Rnf	-12.1208
pyrophospho	-12.1212
gE	-12.1212
Hsc	-12.1214
Fim	-12.1224
ERCC	-12.1229
ALG	-12.123
Kdo	-12.123
2605	-12.1231
TW	-12.1232
Ubi	-12.1232
ERG	-12.1237
phycoerythr	-12.1239
thiolase	-12.1239
▁5'	-12.1241
EmrA	-12.1242
put	-12.1243
Lpx	-12.1244
Pdu	-12.1246
low	-12.1246
CDK	-12.1247
332	-12.1248
▁ge	-12.1249
▁cataboli	-12.1255
CopD	-12.1256
SLX	-12.1259
Dsr	-12.1261
chon	-12.1264
plasto	-12.1264
arsen	-12.1264
Ccm	-12.1269
alkane	-12.1272
Yv	-12.1274
rythrin	-12.1274
▁HII	-12.1274
PHF	-12.1276
asparagin	-12.1278
catal	-12.1281
agB	-12.1287
alogenase	-12.1287
agmatin	-12.1291
plasm	-12.1291
▁repli	-12.1293
dX	-12.1294
OST	-12.1295
enc	-12.1296
Prp	-12.1301
aF	-12.1302
integra	-12.1302
TBC	-12.1304
carno	-12.1304
Lyt	-12.1304
▁phytochrom	-12.1305
dual	-12.1308
CCC	-12.1309
GAL	-12.131
OmpA	-12.1311
▁hormon	-12.1311
Tra	-12.1313
▁nicotinamid	-12.1314
hibit	-12.1316
urea	-12.1317
colo	-12.1318
filin	-12.1318
▁Pqi	-12.1321
siroh	-12.1322
▁phycocyan	-12.1323
amil	-12.1324
cyclohex	-12.1325
▁tetraspan	-12.1326
enolpyruv	-12.1328
Van	-12.1328
▁Ylq	-12.1329
poII	-12.1332
▁incorporat	-12.1333
WW	-12.1334
glyoxal	-12.1334
▁oxidoreduct	-12.1334
nicotin	-12.1334
▁PLEKH	-12.1336
aptin	-12.1336
ect	-12.1336
▁splic	-12.1336
▁CRISP	-12.1337
aminoadip	-12.1338
▁mycothio	-12.1339
assembl	-12.1339
synthesi	-12.1342
▁aromat	-12.1342
propion	-12.1342
cystein	-12.1342
citra	-12.1343
▁sedoheptulo	-12.1343
▁elicit	-12.1343
▁energ	-12.1344
▁citr	-12.1345
▁symport	-12.1345
ssimilat	-12.1346
metaboli	-12.1346
thiourid	-12.1346
▁pseudourid	-12.1347
xanth	-12.1347
histid	-12.1347
▁FYV	-12.1348
oligosacchar	-12.1348
▁antiport	-12.1348
▁mito	-12.1348
inosit	-12.1348
rubredoxin	-12.1348
▁nicoti	-12.1348
-3',	-12.1349
252	-12.1349
emagglutinin	-12.1349
zyme	-12.1349
thionin	-12.1349
▁alkan	-12.1349
chel	-12.135
cleav	-12.135
▁senescen	-12.135
▁creatin	-12.135
resistan	-12.135
▁rubre	-12.135
oglobin	-12.135
globulin	-12.135
metalloreg	-12.135
▁hypox	-12.135
genicity	-12.135
▁phenylacetald	-12.135
hepta	-12.1351
topoi	-12.1351
llula	-12.1351
▁sidero	-12.1351
▁phytoch	-12.1351
trypt	-12.1352
ubi	-12.1352
▁diacylglycer	-12.1352
anediol	-12.1353
▁tricarb	-12.1353
VPS	-12.1353
oxyacyl	-12.1353
ribosylglyc	-12.1353
▁surf	-12.1354
press	-12.1354
Cyd	-12.1354
metallopho	-12.1354
terminator	-12.1355
glycan	-12.1355
FANC	-12.1355
phenylalan	-12.1356
hopen	-12.1356
bamo	-12.1357
odZ	-12.1358
nRNP	-12.1358
▁hepa	-12.1359
▁signa	-12.136
isomer	-12.136
▁hyd	-12.136
aminobutyr	-12.136
ffect	-12.136
staph	-12.136
▁cytokin	-12.136
ramp	-12.1361
egrin	-12.1362
apto	-12.1362
SMC	-12.1363
seque	-12.1363
emop	-12.1363
BET	-12.1363
taining	-12.1364
obiose	-12.1364
▁hema	-12.1365
zincin	-12.1366
chloro	-12.1368
▁tryp	-12.1368
Clp	-12.1369
Yw	-12.137
Gl	-12.137
azine	-12.1371
fibrillar	-12.1372
astin	-12.1372
oxylase	-12.1375
▁chlorop	-12.1377
▁phosphoglyc	-12.1379
penten	-12.138
vage	-12.1384
phosphoser	-12.1384
▁Htp	-12.1386
okine	-12.1387
escin	-12.1388
eratin	-12.139
iki	-12.139
▁pseudo	-12.1391
▁phosphotrans	-12.1391
ifici	-12.1392
bsA	-12.1392
portin	-12.1393
tility	-12.1393
ogenes	-12.1394
oviral	-12.1395
▁propa	-12.1395
sulfon	-12.1397
Yhb	-12.1398
anos	-12.14
paB	-12.1404
125	-12.1404
▁part	-12.1405
Rpo	-12.1407
▁Env	-12.1407
ensing	-12.1408
ller	-12.141
Nha	-12.141
STE	-12.1412
halogenase	-12.1413
NNM	-12.1414
halos	-12.1415
muC	-12.1416
ternal	-12.1418
pol	-12.142
Yhd	-12.1421
▁synapto	-12.1422
polo	-12.1423
▁chap	-12.1425
▁XI	-12.1426
ick	-12.1427
FAM	-12.1427
▁dinucle	-12.1427
PTB	-12.1435
aprenyl	-12.1438
▁Prg	-12.1438
ystin	-12.1441
▁chit	-12.1441
naJ	-12.1443
▁thre	-12.1445
▁VC	-12.1445
merc	-12.1448
▁replicati	-12.1449
zati	-12.145
ult	-12.145
IVA	-12.1452
SKI	-12.1455
▁RIN	-12.1456
mur	-12.146
▁enol	-12.146
▁Glg	-12.146
▁synta	-12.146
▁op	-12.1461
biose	-12.1463
ENT	-12.1464
▁rac	-12.1466
Prk	-12.1466
▁ve	-12.147
▁Uv	-12.1473
oride	-12.1473
20-	-12.1474
ogenic	-12.1478
eucyl	-12.1479
bA	-12.1479
5,15	-12.149
PEM	-12.149
nopy	-12.149
ule	-12.1493
▁ves	-12.1499
Yla	-12.1502
llopeptidase	-12.1503
▁ba	-12.1504
▁exp	-12.1507
CY	-12.1511
▁DCL	-12.1511
inhibitor	-12.1518
ato	-12.1519
Tet	-12.1521
▁flavo	-12.1521
osyl	-12.1524
qF	-12.1525
xy	-12.1527
▁plas	-12.1534
▁ELM	-12.1537
uD	-12.1541
nosine	-12.1544
152	-12.1545
▁proteasom	-12.1548
▁BRE	-12.1552
road	-12.1553
rpA	-12.1553
ATA	-12.1553
His	-12.1554
oglucose	-12.1556
▁WAS	-12.1556
thionein	-12.1557
omp	-12.1558
▁ferri	-12.1559
Tar	-12.156
▁Bgl	-12.1561
otoxin	-12.1561
▁def	-12.1563
azo	-12.1566
tau	-12.1567
qC	-12.157
lob	-12.1572
formi	-12.1574
nop	-12.1581
octulo	-12.1581
(140	-12.1582
118	-12.1591
bilin	-12.1596
IIIA	-12.1596
liI	-12.1598
Nad	-12.16
tRN	-12.16
lch	-12.1607
PRD	-12.1609
▁monome	-12.1617
ella	-12.1618
▁desulfura	-12.1618
ybut	-12.1626
vor	-12.1629
tag	-12.163
▁trimethyl	-12.1634
cino	-12.1634
LPS	-12.1647
222	-12.1648
arbo	-12.1651
▁trime	-12.1653
decap	-12.1655
IST	-12.1661
▁prese	-12.1663
▁bica	-12.1667
vity	-12.1668
▁seg	-12.1671
▁oct	-12.1672
Yjg	-12.1675
▁decarbo	-12.1678
SLC	-12.1679
est	-12.1683
dimeri	-12.169
▁Acu	-12.169
▁reticul	-12.1692
▁mut	-12.1692
ocarbox	-12.1695
Lux	-12.1696
▁RT	-12.1699
▁va	-12.1703
▁bra	-12.1704
cyt	-12.1704
Ran	-12.1706
▁Pga	-12.1707
metal	-12.1708
LLL	-12.1714
▁sli	-12.1715
alamin	-12.1719
inotransferase	-12.1722
plication	-12.1722
cytosi	-12.1722
▁SpoI	-12.1724
vy	-12.1728
ubb	-12.1732
8-	-12.1733
▁polymer	-12.1739
romyc	-12.1741
▁ASC	-12.1745
lec	-12.1749
215	-12.1751
401	-12.1753
hY	-12.1754
iat	-12.1772
▁aspar	-12.1792
SPT	-12.1793
Yid	-12.1795
jD	-12.1801
ETM	-12.1812
tab	-12.1812
▁Maz	-12.1817
▁mod	-12.1819
wy	-12.1821
ylenetetrahydro	-12.1831
fa	-12.1836
▁Rb	-12.1841
ange	-12.185
▁FU	-12.1851
HAP	-12.1853
nnel	-12.1856
rag	-12.1859
roid	-12.1868
MAR	-12.1868
ophore	-12.1871
Th	-12.1881
▁reg	-12.1882
▁van	-12.1886
▁uro	-12.1893
Pil	-12.1895
▁stra	-12.1904
pep	-12.1907
▁pim	-12.1908
▁est	-12.1912
zz	-12.1918
caC	-12.1922
▁divis	-12.1923
pq	-12.1927
RNP	-12.1931
Hut	-12.1937
ylamine	-12.1937
lum	-12.194
▁filam	-12.1941
IDA	-12.1943
▁eth	-12.1949
▁pil	-12.195
▁hea	-12.1952
Dna	-12.1952
efoldin	-12.1966
phat	-12.1966
purin	-12.197
▁Hde	-12.1971
▁butyr	-12.1976
Sip	-12.1977
▁Tu	-12.1977
sbD	-12.1985
pre	-12.1994
▁Mra	-12.1997
DPG	-12.2003
yte	-12.201
diphosphatase	-12.2011
Mut	-12.2013
rm	-12.2016
lectin	-12.2021
ataxin	-12.2023
GW	-12.2023
ath	-12.2028
star	-12.2029
▁bac	-12.2039
vC	-12.204
-60	-12.2041
typ	-12.2046
phoc	-12.2047
mX	-12.2061
nylase	-12.2061
150	-12.2075
vate	-12.2075
dor	-12.2076
ope	-12.209
▁Leu	-12.2105
uton	-12.2136
ELP	-12.2137
▁pat	-12.216
Sm	-12.2165
nuclea	-12.2167
▁OR	-12.2172
962	-12.2174
GI	-12.2176
Zn	-12.218
▁lig	-12.2184
zB	-12.2187
173	-12.2192
▁ga	-12.2195
▁motil	-12.2197
ylated	-12.2201
▁imidazol	-12.2208
▁Eh	-12.2212
▁purin	-12.2215
▁cinnam	-12.2216
FAR	-12.223
tu	-12.2231
nol	-12.2233
CFA	-12.2234
▁lon	-12.2245
MARC	-12.2267
esin	-12.2269
gK	-12.227
uL	-12.2272
▁AI	-12.2288
472	-12.2294
Cox	-12.2298
erol	-12.2311
▁thy	-12.2319
itri	-12.2319
edi	-12.2337
OX	-12.2338
▁fructos	-12.2341
xa	-12.2345
yt	-12.2348
▁chol	-12.2349
▁Moa	-12.2353
ud	-12.2359
▁FI	-12.236
ane	-12.2364
▁phas	-12.2368
kp	-12.239
XO	-12.2399
029	-12.2399
tig	-12.2401
Pot	-12.2413
lem	-12.2457
hH	-12.2459
sic	-12.2465
1911	-12.2468
ety	-12.2473
4'	-12.2489
▁MA	-12.2495
RSP	-12.2495
ption	-12.2517
oporin	-12.2542
bG	-12.2543
Cob	-12.2543
YK	-12.2545
NDP	-12.2545
▁TS	-12.2554
dE	-12.256
▁ta	-12.2575
▁AU	-12.2586
bT	-12.2589
bacter	-12.2599
bu	-12.2602
stabiliz	-12.2605
ucosidase	-12.2606
alkyl	-12.2606
TER	-12.2607
▁Ah	-12.2608
phosphor	-12.2614
gation	-12.2618
IC	-12.2625
ATG	-12.2639
Acr	-12.2642
CNG	-12.265
▁polym	-12.2654
aci	-12.2658
▁Dh	-12.2658
erase	-12.2684
▁pu	-12.2698
old	-12.2703
oporphyrinogen	-12.2704
605	-12.2717
▁ribulo	-12.274
ulf	-12.275
isA	-12.2759
erator	-12.2759
'-5'	-12.2783
YT	-12.2787
▁Wc	-12.2793
car	-12.2798
itor	-12.2809
GXG	-12.2816
cB	-12.2818
cet	-12.2823
glucuronid	-12.2846
PV	-12.2849
▁sele	-12.2863
hydroxycyclohexa	-12.2866
▁ethanol	-12.2867
ility	-12.2886
cG	-12.289
lli	-12.2928
oxyphenyl	-12.2932
ust	-12.2933
synthetic	-12.2959
etic	-12.2965
sx	-12.2966
▁Ap	-12.2979
LL	-12.2981
373	-12.3003
bles	-12.3005
SCH	-12.3036
Ybe	-12.3038
▁ub	-12.3047
▁arseni	-12.3053
▁qui	-12.3057
eve	-12.306
arD	-12.3063
UG	-12.3066
lf	-12.3077
oration	-12.3079
ifi	-12.3083
spor	-12.3091
gT	-12.3093
lJ	-12.3113
lg	-12.3123
RhoG	-12.3126
▁Pg	-12.3142
Ni	-12.3148
IIA	-12.3152
▁APO	-12.3153
,5'-	-12.3161
▁decap	-12.3165
ryl	-12.3171
Bla	-12.3184
emo	-12.3185
AV	-12.3193
▁Dox	-12.3201
cting	-12.321
171	-12.3231
▁La	-12.3243
midas	-12.3244
ducer	-12.3246
▁mi	-12.3252
TG	-12.3262
224	-12.3266
▁rhamnulo	-12.3284
394	-12.3297
▁dec	-12.3299
▁Am	-12.3311
LX	-12.3335
nh	-12.3335
▁red	-12.3338
ecR	-12.3341
XC	-12.335
dispa	-12.3351
Yea	-12.3371
lm	-12.3372
502	-12.3375
illin	-12.3377
kali	-12.3384
CN	-12.3404
pime	-12.3405
▁histo	-12.3409
fuA	-12.341
195	-12.3428
Cb	-12.3429
rop	-12.343
unit	-12.3449
▁LC	-12.3459
▁ami	-12.346
oQ	-12.3461
rmB	-12.3505
PRO	-12.3507
yg	-12.3536
samine	-12.356
▁Eng	-12.3561
bre	-12.3564
rix	-12.3565
pK	-12.3567
404	-12.357
ART	-12.3571
tT	-12.3574
▁MH	-12.3581
-10	-12.3602
▁Ib	-12.3609
zin	-12.3612
▁Ge	-12.3617
▁fasci	-12.3621
▁71	-12.3623
oM	-12.3634
AC	-12.364
057	-12.3658
▁Nir	-12.3658
▁An	-12.3692
Mar	-12.3704
▁Tm	-12.3729
rhamnos	-12.3762
▁3,4	-12.3769
▁LI	-12.3794
▁all	-12.3797
ew	-12.3803
atidylglycerol	-12.3813
idC	-12.3822
IK	-12.3827
lt	-12.3833
eh	-12.3848
Spr	-12.3863
cX	-12.3864
MG	-12.3866
▁Ab	-12.3873
cat	-12.3911
SCR	-12.392
Xa	-12.394
ephospho	-12.3941
▁trehalo	-12.3961
lyC	-12.3983
val	-12.3985
▁as	-12.4008
▁kinases	-12.401
pin	-12.4016
▁Cy	-12.4021
955	-12.4055
spermi	-12.4099
SIP	-12.4105
CLA	-12.4108
▁Bg	-12.4121
xC	-12.4139
amido	-12.4155
mK	-12.4163
rat	-12.4174
ho	-12.4183
▁LL	-12.4194
aQ	-12.4195
notropic	-12.4207
hD	-12.4212
▁mag	-12.4268
▁Nad	-12.427
synthesis	-12.428
dd	-12.4305
ovir	-12.4314
▁HT	-12.432
▁respons	-12.4325
ndo	-12.4337
,6	-12.435
ethylthio	-12.4367
EE	-12.4383
▁nexi	-12.4384
deoxygalacto	-12.4385
igB	-12.4391
oX	-12.4405
sec	-12.4414
GAT	-12.4414
▁Fp	-12.4466
tC	-12.4478
▁PLA	-12.4493
TL	-12.4554
eme	-12.4557
290	-12.456
homocysteinase	-12.456
ans	-12.4562
▁nitro	-12.4576
TIM	-12.4583
(54	-12.4631
320	-12.4635
461	-12.4646
nse	-12.4658
▁cor	-12.4661
▁perip	-12.471
▁Prs	-12.472
ow	-12.4724
Vap	-12.4724
ies	-12.4731
bQ	-12.4758
diacet	-12.4807
▁Eb	-12.484
mos	-12.4896
▁CY	-12.4925
▁du	-12.4925
resc	-12.4937
▁trop	-12.4951
aiB	-12.4964
kA	-12.4977
TAF	-12.4988
App	-12.5029
218	-12.5033
▁Te	-12.5037
▁1,4	-12.5041
▁Ri	-12.5048
cum	-12.5055
130	-12.5061
▁promot	-12.5065
fam	-12.5069
dehydr	-12.5094
▁Rd	-12.5111
lysyl	-12.5114
FO	-12.5131
▁lanthi	-12.514
343	-12.5154
xis	-12.5159
(19	-12.5188
▁lar	-12.5198
138	-12.5207
oadip	-12.5248
exopoly	-12.5262
DU	-12.5268
sY	-12.5329
▁biof	-12.5331
336	-12.5347
FG	-12.537
▁amin	-12.5393
▁AG	-12.5402
▁suc	-12.5416
iff	-12.5422
tomer	-12.543
pF	-12.544
fic	-12.5457
▁ja	-12.5457
▁Ec	-12.5466
cI	-12.5468
vA	-12.5475
MH	-12.5486
MY	-12.5501
▁Hly	-12.5531
TSC	-12.5544
1915	-12.5562
inducer	-12.5586
Ade	-12.5619
gS	-12.5682
344	-12.5683
mH	-12.5693
pR	-12.572
PH	-12.574
du	-12.5754
▁alk	-12.5785
erm	-12.5793
▁TG	-12.5802
adL	-12.5803
▁mucon	-12.5844
dY	-12.5875
NI	-12.5887
▁Is	-12.5888
sorb	-12.5896
gat	-12.5924
LG	-12.5928
▁EN	-12.5929
▁fu	-12.5954
fB	-12.5959
▁cuti	-12.5987
MA	-12.6027
seG	-12.6032
pM	-12.6036
myc	-12.6048
mine	-12.6061
▁bon	-12.6073
ESA	-12.608
TO	-12.6105
NM	-12.6144
▁Hf	-12.6179
▁CX	-12.6191
nding	-12.6239
que	-12.6242
148	-12.626
YO	-12.626
decan	-12.6278
▁Bo	-12.6286
ther	-12.6308
▁Ki	-12.6322
▁Me	-12.6376
carboxym	-12.6397
induce	-12.6413
▁8-	-12.6419
'-	-12.643
fA	-12.6432
HO	-12.6451
anc	-12.6472
Yr	-12.6478
mpl	-12.6482
DOP	-12.6492
HR	-12.6507
ERC	-12.6521
aden	-12.6531
▁Em	-12.6582
24-	-12.661
Pi	-12.6618
aline	-12.662
▁Gr	-12.662
sod	-12.6643
inB	-12.6706
TMP	-12.671
Fic	-12.6737
▁sor	-12.6752
▁Ep	-12.6761
▁copi	-12.6789
PIN	-12.6794
APP	-12.6836
aG	-12.6855
-40	-12.6859
323	-12.688
mediat	-12.6896
oyltransferase	-12.6913
▁Pu	-12.6929
cH	-12.6935
BZ	-12.6947
▁ri	-12.6966
ami	-12.6971
fuco	-12.6994
Ye	-12.6999
ept	-12.7013
alY	-12.7031
aX	-12.7035
▁KR	-12.7055
▁cl	-12.7058
pE	-12.7075
sG	-12.7085
▁AL	-12.7088
En	-12.7108
geran	-12.715
mC	-12.7153
023	-12.7186
aK	-12.7205
CxxC	-12.7206
▁GD	-12.7246
orA	-12.7289
Go	-12.7323
▁cy	-12.7325
polyphosphatase	-12.7325
osphoglucomutase	-12.7345
TB	-12.7373
▁GM	-12.7446
sm	-12.7449
NE	-12.7451
▁am	-12.7462
▁Con	-12.7493
LA	-12.7523
ifB	-12.7547
Fl	-12.7556
com	-12.7601
▁ha	-12.7602
▁El	-12.7641
imer	-12.7674
▁2/1	-12.7683
)-2	-12.7691
SHA	-12.7712
ero	-12.7717
cT	-12.7727
351	-12.7727
▁Dg	-12.7796
▁PW	-12.7833
155	-12.7836
▁Dus	-12.7851
RO	-12.7854
Ser	-12.7965
▁PT	-12.7968
NF	-12.7979
uitin	-12.7998
acetylmurami	-12.8026
cc	-12.8027
SI	-12.8115
all	-12.817
▁dipeptid	-12.8173
▁DE	-12.8198
SKIP	-12.8203
SO	-12.8229
ctate	-12.8237
SX	-12.8238
374	-12.8267
312	-12.8273
tal	-12.8289
267	-12.8317
ci	-12.832
Yi	-12.8348
acetamid	-12.8371
erine	-12.8385
▁rhamno	-12.8432
▁ino	-12.8465
eW	-12.8466
Tf	-12.8499
rhamn	-12.851
pen	-12.856
zal	-12.8573
328	-12.8619
otor	-12.8667
eF	-12.8669
lat	-12.8685
inase	-12.8694
rot	-12.8701
ylating	-12.8729
FAP	-12.8789
raJ	-12.8832
ylpyrimidine	-12.8882
▁DB	-12.8904
▁thi	-12.8914
Ic	-12.8943
▁DN	-12.8957
PM	-12.8986
Hu	-12.9003
-2,	-12.9019
▁u	-12.9019
▁EB	-12.9043
▁OS	-12.9059
POB	-12.9071
fG	-12.9094
odeoxychorismate	-12.9131
IZ	-12.919
phosphorib	-12.9217
era	-12.9231
▁allantoi	-12.9235
fus	-12.9257
(15	-12.9278
015	-12.9279
gate	-12.9299
MI	-12.9309
AO	-12.9333
transform	-12.9385
AH	-12.9403
▁PS	-12.9417
the	-12.9442
▁ox	-12.949
eI	-12.9492
▁Sg	-12.9524
260	-12.953
▁DI	-12.9532
Me	-12.9602
asal	-12.961
Gr	-12.9625
▁EII	-12.9671
249	-12.9673
Nor	-12.9674
ok	-12.9772
▁te	-12.9807
653	-12.9815
racti	-12.9826
sem	-12.9864
mP	-12.9888
TOR	-12.9987
▁IR	-13.0009
HH	-13.0037
yb	-13.0058
066	-13.0087
▁epox	-13.0104
Av	-13.011
photriesterase	-13.0135
201	-13.0158
DH	-13.0165
245	-13.0198
▁Dp	-13.0327
alt	-13.0336
ormyltransferase	-13.0371
erythri	-13.0377
case	-13.038
