<unk>	0
<s>	0
</s>	0
▁	-2.3718
|	-2.84145
-	-3.05506
▁domain	-3.45154
▁(	-3.86423
,	-3.95226
_	-4.11954
)	-4.12406
▁of	-4.25038
▁and	-4.3103
/	-4.35548
▁protein	-4.35813
A	-4.61508
like	-4.64731
]	-4.76358
▁N	-4.76708
▁[	-4.76727
▁C	-4.9271
▁family	-5.00923
2	-5.02939
▁in	-5.04068
▁proteins	-5.09545
s	-5.17788
1	-5.23987
terminal	-5.37481
binding	-5.43467
▁similar	-5.43713
▁function	-5.48167
▁repeat	-5.51089
nd	-5.5246
C	-5.56671
▁fou	-5.59348
▁the	-5.63097
▁unknown	-5.75309
DUF	-5.76702
▁PRK	-5.80098
3	-5.82461
▁transduction	-5.86329
▁Domain	-5.92805
▁mechanisms	-5.959
B	-5.96917
S	-5.9728
▁transport	-5.98353
▁kinase	-5.98825
▁S	-6.00991
type	-6.04668
▁type	-6.10964
▁DNA	-6.1138
Signal	-6.13008
e	-6.14378
▁finger	-6.14399
▁subunit	-6.14521
▁P	-6.17582
▁RNA	-6.18215
▁T	-6.18746
containing	-6.20153
N	-6.20446
▁a	-6.20514
▁1	-6.22707
▁binding	-6.24464
D	-6.25153
ion	-6.29445
R	-6.30337
al	-6.30557
▁DUF	-6.31617
c	-6.32325
▁motif	-6.3246
ing	-6.3292
H	-6.34876
P	-6.36858
▁2	-6.3727
a	-6.40628
▁factor	-6.4189
▁domains	-6.42713
▁Protein	-6.42782
▁F	-6.43995
p	-6.44272
▁homology	-6.4645
4	-6.47331
▁system	-6.48155
▁zinc	-6.48424
d	-6.5204
M	-6.52323
transferase	-6.52458
L	-6.54266
▁or	-6.54328
▁PAS	-6.55077
ral	-6.55426
▁predict	-6.56046
Gene	-6.56416
5	-6.56466
▁repeats	-6.56791
▁I	-6.57058
▁only	-6.57558
I	-6.62371
▁A	-6.63623
1)	-6.63767
▁metabolism	-6.65075
▁B	-6.66201
▁3	-6.6672
▁related	-6.66741
▁to	-6.67792
finger	-6.68718
▁G	-6.71763
;	-6.71969
in	-6.7404
▁Zinc	-6.74931
ed	-6.76623
E	-6.77785
▁superfamily	-6.7869
▁M	-6.79793
F	-6.81136
▁receptor	-6.83006
▁R	-6.8408
▁region	-6.8656
t	-6.87211
Cell	-6.87327
▁beta	-6.88023
▁COG	-6.88148
▁transcription	-6.88325
▁synthase	-6.89945
CR	-6.93729
▁The	-6.94048
▁Methyl	-6.94749
associated	-6.95
▁response	-6.96922
▁ATPase	-6.97268
▁regulators	-6.98106
▁biogenesis	-6.98872
box	-6.9988
▁helicase	-7.01003
G	-7.01744
▁recognition	-7.02331
helix	-7.02634
rich	-7.05369
RRM	-7.06513
atalytic	-7.07249
SF	-7.0758
o	-7.07831
▁regulator	-7.08358
or	-7.08713
▁II	-7.09531
▁fold	-7.10022
▁PHA	-7.10099
.	-7.11438
▁copies	-7.11982
T	-7.13101
▁Peptidase	-7.14073
▁D	-7.14104
:	-7.14401
▁histidine	-7.14426
2)	-7.146
▁wall	-7.1461
40	-7.14878
▁Ankyrin	-7.14912
6	-7.14998
▁p	-7.15249
▁E	-7.15565
▁Bacterial	-7.16775
accept	-7.18094
▁RING	-7.20119
▁Ig	-7.2127
Transcription	-7.22118
membrane	-7.22642
▁hydrolase	-7.22656
),	-7.23052
n	-7.24119
▁biosynthesis	-7.25162
▁component	-7.25293
▁Signal	-7.25683
etratricopeptide	-7.25715
r	-7.26298
cyclase	-7.26377
▁class	-7.26731
m	-7.26761
protein	-7.26899
dependent	-7.27484
specific	-7.27648
▁acid	-7.27773
▁Uncharacterized	-7.28356
▁Histidine	-7.28848
x	-7.29132
▁with	-7.29496
b	-7.29807
K	-7.29911
▁contains	-7.30029
▁BTB	-7.30315
▁Y	-7.30902
related	-7.31676
▁Type	-7.32081
turn	-7.33655
▁chemotaxis	-7.33737
▁kinases	-7.34168
▁ABC	-7.3435
7	-7.35118
▁catalytic	-7.36161
▁Serine	-7.36249
▁member	-7.37514
▁L	-7.3769
receiver	-7.39688
▁complex	-7.39697
▁secretion	-7.40127
8	-7.41164
▁transporter	-7.41421
▁GGDEF	-7.41455
▁membrane	-7.42521
_2	-7.43548
envelope	-7.44074
apos	-7.44532
▁Zn	-7.44625
l	-7.44651
phosphoacceptor	-7.44814
(	-7.44932
▁conserved	-7.45319
▁H	-7.45718
▁regulatory	-7.458
▁helix	-7.47813
▁bacterial	-7.47979
▁cell	-7.4802
▁Src	-7.48029
▁double	-7.48137
▁Kinase	-7.48184
▁SH	-7.48205
y	-7.48513
▁repair	-7.4871
▁is	-7.49048
▁Putative	-7.49335
▁alpha	-7.49419
Threonine	-7.49431
▁site	-7.4977
Y	-7.49952
1-	-7.50221
▁GAF	-7.51451
REC	-7.51599
beta	-7.52295
▁first	-7.53126
▁Immunoglobulin	-7.5337
POZ	-7.53621
▁subfamily	-7.5449
▁TRD	-7.546
present	-7.54787
O	-7.54971
1,	-7.55574
▁associated	-7.55842
▁Glycosyl	-7.5602
▁phosphatase	-7.57542
▁WD	-7.58231
0	-7.58238
PH	-7.5955
▁cyclase	-7.60189
▁catabolism	-7.60984
u	-7.61012
ary	-7.61374
▁second	-7.61527
▁Diguanylate	-7.62019
▁reductase	-7.62185
er	-7.62195
▁HAMP	-7.62848
▁PLN	-7.629
▁periplasmic	-7.63885
14	-7.6526
▁III	-7.66118
▁ATP	-7.66583
▁involve	-7.66669
▁recombination	-7.66669
▁Phospho	-7.66709
▁c	-7.67171
TPR	-7.67179
ase	-7.67546
▁U	-7.67905
DGC	-7.67943
Second	-7.68299
▁Leucine	-7.68544
▁AAA	-7.69121
g	-7.71121
▁metabolite	-7.71288
▁methyl	-7.71529
us	-7.71847
▁dehydrogenase	-7.7275
▁Homology	-7.72882
▁(3	-7.73513
▁receptors	-7.74233
Function	-7.74407
▁K	-7.74453
X	-7.74582
10	-7.74682
▁PH	-7.75685
h	-7.75981
terminus	-7.76045
ric	-7.76178
domain	-7.76422
▁LIM	-7.77236
▁lectin	-7.77354
▁ribosomal	-7.79022
▁ubiquitin	-7.80221
▁EGF	-7.80773
TZ	-7.80814
▁protease	-7.81432
9	-7.83807
2-	-7.84142
▁control	-7.8507
12	-7.85206
▁motility	-7.85275
▁uncharacterized	-7.85275
▁Helix	-7.85488
▁structure	-7.8617
Translation	-7.86177
▁Adenylyl	-7.86247
▁DEAD	-7.86877
RR	-7.87438
▁HTH	-7.87545
▁b	-7.88202
▁Cadherin	-7.89292
II	-7.89349
▁Superfamily	-7.89415
▁permease	-7.89609
15	-7.89948
▁SAM	-7.90462
th	-7.91043
▁7	-7.91755
3)	-7.91885
▁pseudo	-7.92763
OG	-7.93032
20	-7.93186
ic	-7.93798
di	-7.94181
▁attachment	-7.94458
▁restriction	-7.94737
▁enzyme	-7.95395
Replication	-7.9605
i	-7.96068
11	-7.96181
▁subclass	-7.96451
▁Fibronectin	-7.96601
▁enzymes	-7.98038
modification	-7.98108
▁PHD	-7.98139
▁Acyl	-7.98266
lso	-7.98644
▁Transcription	-7.98761
pantetheine	-7.99042
23	-7.99241
PRR	-7.99985
▁4	-8.00469
▁specificity	-8.0063
▁subgroup	-8.00695
▁V	-8.00975
set	-8.0131
U	-8.01591
▁peptide	-8.01738
▁polymerase	-8.01881
▁oxidase	-8.0189
▁Kelch	-8.01924
17	-8.04139
um	-8.04858
▁tyrosine	-8.04917
▁core	-8.05348
TRD	-8.0638
▁sorting	-8.06419
Complex	-8.06858
▁ligase	-8.07108
Broad	-8.07116
▁lipoprotein	-8.07127
fold	-8.07168
▁serine	-8.07264
43	-8.07272
▁small	-8.07732
organi	-8.07947
CitA	-8.08067
In	-8.08291
▁an	-8.0864
ch	-8.08938
ramtrack	-8.092
▁5	-8.09875
▁Pleckstrin	-8.09884
Carbohydrate	-8.09955
V	-8.10167
▁synthetase	-8.10259
▁putative	-8.10339
PhoQ	-8.10881
▁brac	-8.10959
PKc	-8.11093
▁PDC	-8.11361
DcuS	-8.11418
▁tandem	-8.11418
coupled	-8.12139
▁diguanylate	-8.12139
▁peptidoglycan	-8.1241
W	-8.12498
▁O	-8.12523
▁f	-8.12728
Defens	-8.13412
▁ATPases	-8.13967
phosphate	-8.14632
▁as	-8.15366
v	-8.15807
18	-8.15867
redict	-8.16102
transmembrane	-8.16355
poxvirus	-8.16385
▁polyketide	-8.16778
_1	-8.17369
▁substrate	-8.1758
TM	-8.17611
▁non	-8.17723
ly	-8.18121
CoA	-8.18263
▁transferase	-8.18658
▁sensor	-8.1873
1_	-8.197
loop	-8.19741
ar	-8.19911
▁Ubiquitin	-8.20327
on	-8.21378
▁production	-8.23213
-1	-8.23317
alpha	-8.23864
▁chaperones	-8.24308
J	-8.24824
▁coli	-8.24983
translational	-8.25014
Post	-8.25022
Energy	-8.2515
▁turnover	-8.25253
16	-8.2539
▁conversion	-8.25459
▁SMC	-8.25569
19	-8.25932
hydrolase	-8.25968
▁resistance	-8.25978
▁GTPase	-8.26015
▁Esc	-8.26106
26	-8.26776
f	-8.26833
▁Alpha	-8.27003
▁toxin	-8.27047
▁Target	-8.27125
KR	-8.2741
heri	-8.27615
an	-8.28028
Ig	-8.28106
chia	-8.28117
▁modification	-8.28146
35	-8.2827
60	-8.28332
ved	-8.28513
▁X	-8.28608
4)	-8.28894
▁Smc	-8.29034
24	-8.29277
ORF	-8.30569
▁for	-8.30632
its	-8.31118
PKS	-8.31527
▁Repeat	-8.32407
▁channel	-8.32452
k	-8.32584
▁Cache	-8.32599
▁REC	-8.32774
SH	-8.33525
prok	-8.33819
4-	-8.33985
▁endonuclease	-8.34309
▁peptidase	-8.34996
▁division	-8.35327
34	-8.35689
kinase	-8.35895
ecognition	-8.36172
▁Ma	-8.36301
Conse	-8.36472
;-	-8.36839
▁NAD	-8.36964
ous	-8.37088
37	-8.37347
48	-8.37533
interacting	-8.3766
▁nuclear	-8.3771
27	-8.37817
▁Phosphatase	-8.37823
Z	-8.38181
▁sigma	-8.38451
Amino	-8.38633
41	-8.38891
▁PEP	-8.39161
▁box	-8.39951
30	-8.40202
▁nucleotide	-8.40364
▁oxidoreductase	-8.40591
▁seven	-8.40591
▁AraC	-8.41078
▁metallo	-8.4123
50	-8.41295
▁Kinases	-8.41296
▁inhibitor	-8.41487
▁Periplasmic	-8.41558
42	-8.41656
methyl	-8.42263
22	-8.42472
Q	-8.425
ate	-8.42805
▁RNase	-8.42871
▁Por	-8.43021
rom	-8.43536
le	-8.43685
▁glycosyl	-8.43982
▁FERM	-8.44511
▁sever	-8.44514
▁Receptor	-8.44696
▁signal	-8.4552
leckstrin	-8.45797
KH	-8.45828
▁PknB	-8.45902
▁Phage	-8.46101
▁ligand	-8.46657
▁Factor	-8.46675
13	-8.46855
53	-8.47124
PI	-8.47787
▁assembly	-8.48239
▁chain	-8.48341
helicase	-8.48356
▁Ras	-8.4857
III	-8.48615
Histidine	-8.50089
▁group	-8.50275
▁Glyco	-8.50412
▁eukaryotic	-8.5096
yl	-8.51299
oenzyme	-8.51421
▁UBA	-8.51581
▁cyclases	-8.51746
▁sub	-8.52027
id	-8.52542
▁RHS	-8.52846
omyces	-8.52978
▁BRCT	-8.53388
▁Ion	-8.53461
▁Laminin	-8.53556
▁chromosome	-8.53868
▁HC	-8.53921
HAMP	-8.54029
activated	-8.54299
49	-8.54418
36	-8.54496
IS	-8.5458
▁Integrase	-8.54766
lipo	-8.54845
▁CELF	-8.5504
hand	-8.55099
▁Cytochrome	-8.55214
ation	-8.55365
Lipid	-8.55876
re	-8.56124
▁immunoglobulin	-8.56294
47	-8.56646
▁fungal	-8.56662
▁EF	-8.5721
▁Phosphatases	-8.57261
▁transposons	-8.57888
▁HEAT	-8.58284
25	-8.58297
▁RRM	-8.58347
▁Arabidopsis	-8.58571
▁ion	-8.58603
▁phosphodiester	-8.58782
▁Tyrosine	-8.59293
BP	-8.59559
▁Low	-8.59583
es	-8.59863
▁pair	-8.59937
▁Transposase	-8.60312
GMP	-8.60581
cetyltransferase	-8.60784
▁SNF	-8.61045
▁homologues	-8.61193
thal	-8.61316
family	-8.61419
▁includ	-8.61611
ular	-8.61637
ally	-8.61664
▁growth	-8.62232
▁SDRs	-8.62238
term	-8.62529
▁transporters	-8.62635
Binding	-8.62639
inositol	-8.6298
▁anchor	-8.63224
▁prophage	-8.63282
2,	-8.63552
▁Calcium	-8.63583
FHA	-8.63597
▁partitioning	-8.63597
▁helicases	-8.63638
density	-8.63886
en	-8.63997
39	-8.64063
▁pathway	-8.64097
▁Rab	-8.64544
▁Ca	-8.65218
ol	-8.65218
▁homolog	-8.653
phosphatase	-8.65467
33	-8.65513
iana	-8.65585
NTPase	-8.65984
hydro	-8.66097
ty	-8.66338
6)	-8.66425
▁plant	-8.67182
▁2,	-8.6743
▁Beta	-8.67475
▁Rho	-8.67822
▁trafficking	-8.68066
5)	-8.68352
3-	-8.68398
44	-8.6877
▁two	-8.68998
▁cerevisiae	-8.69019
LRR	-8.69092
▁yeast	-8.695
90	-8.6958
ntracellular	-8.69657
▁IV	-8.69786
▁ca	-8.70377
obilome	-8.70468
receptor	-8.70535
70	-8.70618
▁human	-8.70629
trans	-8.70744
▁sensory	-8.70892
▁outer	-8.71121
▁TMAO	-8.71443
▁transducer	-8.71608
▁dimerization	-8.71609
ple	-8.71693
TF	-8.7179
▁LysM	-8.71936
▁6	-8.72067
torS	-8.72101
▁Nebulin	-8.72429
▁BACK	-8.72606
_4	-8.72684
ribbon	-8.73074
▁Sacchar	-8.73164
▁short	-8.73258
38	-8.73333
▁His	-8.73513
st	-8.74001
▁other	-8.74201
11107	-8.7427
▁motor	-8.74599
GNAT	-8.74938
▁Lysin	-8.75062
▁Motif	-8.75108
third	-8.75154
chemotaxis	-8.77048
▁DnaJ	-8.77172
▁cytochrome	-8.77241
09	-8.77366
▁vesic	-8.77662
ul	-8.7799
▁module	-8.77993
▁tha	-8.78283
CTL	-8.78508
▁CheY	-8.78559
Carboxypeptidase	-8.7909
▁zf	-8.79505
▁tRNA	-8.79548
w	-8.80288
helical	-8.8033
▁Class	-8.8033
Ubox	-8.80351
10060	-8.80522
▁FYVE	-8.80688
▁MSCRAMM	-8.80688
00	-8.8127
▁Herpes	-8.81408
▁cluster	-8.81509
▁Family	-8.81589
56	-8.81757
▁SU	-8.81939
▁cycle	-8.81988
lled	-8.82238
carboxypeptidase	-8.82319
te	-8.82597
arginine	-8.82864
HC	-8.83126
ne	-8.83301
so	-8.83314
se	-8.83415
de	-8.83564
▁TonB	-8.83786
▁GH	-8.83873
21	-8.83918
phosphoinositide	-8.8398
▁factors	-8.84024
▁vertebrate	-8.84155
▁CHASE	-8.84156
▁complement	-8.84528
sp	-8.84545
PLC	-8.8455
▁multidrug	-8.84717
ases	-8.84917
bi	-8.84929
repeat	-8.8497
layer	-8.85088
▁forkhead	-8.85088
ribosomal	-8.85351
any	-8.85765
▁activator	-8.86039
▁Carbohydrate	-8.86111
▁inactive	-8.86421
▁gamma	-8.86503
RBM	-8.86609
known	-8.86991
_3	-8.86992
▁bacteria	-8.87305
▁nuclease	-8.87338
assette	-8.87363
▁whi	-8.87748
Eco	-8.87843
▁1,	-8.87895
z	-8.87987
▁Regulator	-8.88133
▁Col	-8.88403
▁extracellular	-8.88521
AT	-8.88723
ta	-8.88938
▁cysteine	-8.9008
▁Fe	-8.90332
GH	-8.90346
▁calcium	-8.90405
46	-8.9058
▁LPXTG	-8.90775
54	-8.9092
el	-8.91243
Protein	-8.9155
▁initiation	-8.91692
acilitator	-8.91841
▁sporulation	-8.91993
▁HI	-8.92038
Fe	-8.92104
▁Complement	-8.92478
plasmic	-8.92478
ory	-8.9251
▁variants	-8.92599
Vps	-8.92688
▁ribbon	-8.92701
▁chaperone	-8.92744
to	-8.92847
▁amino	-8.92903
▁heavy	-8.93085
lytic	-8.93265
▁Ribosomal	-8.93288
▁RTX	-8.93308
▁secret	-8.93465
03247	-8.93696
▁Will	-8.93698
BTB	-8.93743
▁tail	-8.94191
▁signalling	-8.94314
▁Bacillus	-8.94341
-95	-8.94394
45	-8.94813
▁transmembrane	-8.94921
▁fatty	-8.95116
BLLF	-8.95136
▁middle	-8.95136
Ubl	-8.95136
superfamily	-8.95143
tr	-8.95323
▁PDZ	-8.95422
▁enzymatic	-8.9576
▁phospholipase	-8.95824
▁HK	-8.95938
▁hav	-8.96202
CT	-8.96553
CBM	-8.96988
▁antigen	-8.97077
hosphodiesterase	-8.97193
▁Cell	-8.97295
mo	-8.97615
/8	-8.97681
▁Two	-8.97868
IgSF	-8.97916
▁di	-8.97944
▁gene	-8.98128
▁transposase	-8.98499
▁Shewanella	-8.98723
07	-8.98832
▁leucine	-8.98945
DNA	-8.99142
SHI	-8.99303
▁TSP	-8.99315
▁include	-8.99339
07764	-8.9937
▁homologs	-8.99522
09776	-8.99803
phospho	-8.99821
nknown	-9.00001
▁sequence	-9.0002
group	-9.00034
ight	-9.00234
29	-9.00688
ifi	-9.00865
▁cGMP	-9.0099
ifunctional	-9.01142
▁anti	-9.01264
toxin	-9.0134
55	-9.01417
▁Peptidoglycan	-9.01555
AP	-9.01573
rhizobi	-9.01588
transferases	-9.01764
00121	-9.01777
▁3-	-9.0186
▁exchange	-9.0215
ebra	-9.02179
irst	-9.02209
▁Nucleotidyl	-9.02221
▁phytochrome	-9.02446
03095	-9.02667
▁conse	-9.02922
component	-9.02987
▁are	-9.03065
▁Drosophila	-9.03339
28	-9.03672
inhibitory	-9.03753
▁operon	-9.03791
nsu	-9.03849
▁isomerase	-9.03888
ma	-9.04189
threonine	-9.04243
▁modules	-9.04296
▁SET	-9.04347
▁Replication	-9.04505
von	-9.04619
▁Membrane	-9.04698
97	-9.04732
▁synthetases	-9.04787
▁tri	-9.04882
▁Second	-9.04884
alanine	-9.04927
66	-9.05268
▁m	-9.05511
ig	-9.05521
FAS	-9.05721
om	-9.05824
▁metal	-9.05854
lo	-9.06046
▁exonuclease	-9.0623
▁Ricin	-9.06308
▁contain	-9.06388
▁Out	-9.06582
peptidase	-9.06632
▁interaction	-9.07009
▁Tudor	-9.07239
ur	-9.07339
▁endo	-9.07397
▁PQQ	-9.07473
▁4.1	-9.07733
splicing	-9.07738
▁central	-9.07771
▁methylase	-9.07795
GAP	-9.07798
▁con	-9.08056
ph	-9.0814
▁repressor	-9.08413
▁Xa	-9.0872
▁transfer	-9.08879
31	-9.09113
▁element	-9.09128
NT	-9.09179
03307	-9.09369
trefoil	-9.09372
ap	-9.09385
▁KH	-9.09532
▁Binding	-9.09673
ha	-9.09953
am	-9.10164
cyc	-9.10168
is	-9.1024
▁gliding	-9.10327
▁Ank	-9.10348
▁Coa	-9.10349
TIGR	-9.10387
ad	-9.10504
▁Chitin	-9.10811
▁LysR	-9.10814
▁signaling	-9.10917
gulation	-9.1132
▁transpos	-9.11431
▁ketoreductase	-9.11541
▁stress	-9.11636
▁Lux	-9.11785
▁TPR	-9.11797
rin	-9.11854
12323	-9.12031
▁Vibrio	-9.12032
activating	-9.12114
ir	-9.12185
Rossmann	-9.12522
ot	-9.12526
▁CAP	-9.12861
▁VI	-9.1295
it	-9.12962
▁lyase	-9.12974
of	-9.13027
7)	-9.13035
▁cyclin	-9.13044
ip	-9.13207
▁bi	-9.13352
▁5-	-9.13452
CCP	-9.13826
ARC	-9.13905
▁FAD	-9.13928
aka	-9.13987
rady	-9.14015
ident	-9.14016
▁hand	-9.1435
▁PSD	-9.14525
▁XRE	-9.14646
▁myosin	-9.15019
tage	-9.15257
▁DEXH	-9.15272
propeller	-9.15289
▁poly	-9.15387
▁long	-9.15525
welli	-9.15687
▁Thioredoxin	-9.15781
▁phosphatidyl	-9.15898
lobe	-9.16548
TD	-9.16721
ankyrin	-9.17063
▁adhesion	-9.17063
and	-9.17158
13557	-9.17323
ZO	-9.17373
▁Regulon	-9.1758
65	-9.17808
▁ACT	-9.18151
▁RhsA	-9.18647
▁HATPase	-9.18666
▁PTP	-9.18667
▁carbohydrate	-9.18886
▁carrier	-9.18903
▁RhoGEF	-9.1893
at	-9.18981
▁Big	-9.19324
BAR	-9.19431
_7	-9.19458
ex	-9.19697
NUC	-9.19701
▁zipper	-9.19779
TR	-9.19853
▁adhesin	-9.20208
▁Copper	-9.20475
▁cupredoxin	-9.20742
▁Kinesin	-9.20744
▁Recombinase	-9.20882
RA	-9.20906
CH	-9.20942
li	-9.21014
ro	-9.21144
▁Thi	-9.21147
-2,	-9.21226
metallopeptidase	-9.21287
SS	-9.21436
tRNA	-9.21439
▁DD	-9.2157
et	-9.21747
▁Dlg	-9.21847
▁TRIM	-9.21908
ArfGAP	-9.22123
▁MFS	-9.22365
80	-9.22527
▁OmpA	-9.22547
DC	-9.22582
11360	-9.22635
▁villin	-9.22635
▁rRNA	-9.22638
IV	-9.22696
ded	-9.22893
HMG	-9.22915
1/	-9.22945
hrombospondin	-9.23456
▁four	-9.23461
glycoside	-9.23732
trophin	-9.23806
-1/2	-9.23807
▁GT	-9.24027
▁GTPases	-9.24606
03098	-9.25121
▁activity	-9.25121
▁Ephrin	-9.25124
Cache	-9.25397
▁Double	-9.25401
▁Myosin	-9.25401
RING	-9.2543
▁gelsolin	-9.25506
▁dehydratase	-9.25514
sensor	-9.2555
coil	-9.25863
5401	-9.25902
▁tumor	-9.25966
lactamase	-9.25973
▁phospho	-9.26044
la	-9.26071
▁Na	-9.26074
8)	-9.26311
CP	-9.26372
▁phosphate	-9.26424
il	-9.26444
▁Forkhead	-9.26529
RNF	-9.26558
▁Extracellular	-9.26824
▁3,	-9.26858
51	-9.26962
▁Guanylate	-9.27092
Amphiphysin	-9.27098
TMR	-9.27536
▁PIN	-9.27858
▁Di	-9.27993
synthase	-9.28164
▁HSP	-9.28172
▁cupin	-9.28246
SpoIIE	-9.28246
▁pre	-9.28383
▁divers	-9.28537
▁EAL	-9.29129
elsolin	-9.29362
PTB	-9.29397
KLHL	-9.29407
▁ribonucleo	-9.29407
ra	-9.2941
GTPase	-9.29515
acetyl	-9.29649
▁UPF	-9.30142
32	-9.30564
▁proteases	-9.30743
▁molecule	-9.30784
▁CBM	-9.30966
06	-9.31047
transporting	-9.31057
▁cellulose	-9.31174
▁pepsin	-9.31183
gated	-9.31287
Tnp	-9.31476
CRs	-9.31571
ilin	-9.31658
transglycosylase	-9.3177
▁W	-9.31989
class	-9.32021
LP	-9.32021
RP	-9.32197
uch	-9.32235
▁be	-9.32311
ng	-9.3239
ive	-9.32448
78	-9.32516
▁Activat	-9.32677
AMP	-9.32747
▁integr	-9.32796
00449	-9.32982
▁Sec	-9.33152
acyl	-9.33156
▁Band	-9.33164
▁Fungal	-9.33277
▁PABP	-9.33297
he	-9.333
kin	-9.33372
▁Pre	-9.33578
ZBTB	-9.33615
hydroxy	-9.33616
▁9	-9.33728
▁cyto	-9.34082
▁HAD	-9.34274
EC	-9.34393
-3-	-9.34404
58	-9.34407
6-	-9.34517
▁Function	-9.34676
NRPS	-9.34862
ACP	-9.35087
▁In	-9.35183
chain	-9.354
Cys	-9.35402
motif	-9.35404
▁MBL	-9.35417
▁internalin	-9.35424
▁Homeo	-9.35692
▁Las	-9.36044
▁sugar	-9.36148
-1234	-9.36365
▁DDE	-9.36536
▁SNARE	-9.36554
endopeptidase	-9.36734
nuclear	-9.36777
ose	-9.36831
▁GPCR	-9.36993
een	-9.37077
▁phage	-9.37211
13560	-9.3731
▁Associated	-9.37336
▁effector	-9.37622
basic	-9.37637
ep	-9.37715
rpt	-9.37802
ketoacyl	-9.37943
57	-9.38008
08	-9.38041
▁Bin	-9.38156
▁Z	-9.3816
Rvs	-9.38577
glucanases	-9.38582
▁Med	-9.38706
▁varie	-9.38807
acetylglucosamin	-9.38977
SP	-9.39084
oncanavalin	-9.39151
LBD	-9.39277
IP	-9.39342
12678	-9.39862
amine	-9.39979
NE	-9.40474
yltransferase	-9.40499
▁LamG	-9.40513
Type	-9.40668
ru	-9.41085
▁Collagen	-9.41121
▁gyrase	-9.41167
▁NHL	-9.412
5-	-9.41257
▁EFh	-9.41296
na	-9.4172
98	-9.4188
▁28	-9.4196
450	-9.42006
▁SUF	-9.42009
▁high	-9.42157
▁Abhydrolase	-9.42158
▁Anti	-9.42213
AG	-9.42267
murein	-9.42271
▁Tail	-9.42458
▁heme	-9.42644
Phox	-9.42661
▁AdoMet	-9.42823
bind	-9.42991
64	-9.43186
▁Homeodomain	-9.43203
do	-9.4329
▁WW	-9.43422
erm	-9.43477
AD	-9.43554
▁YW	-9.43762
assoc	-9.43826
▁winged	-9.43829
Transglutaminase	-9.4383
▁Cys	-9.43902
▁amylase	-9.43933
9)	-9.44067
▁polysaccharide	-9.44145
MTases	-9.44181
TH	-9.44189
▁vari	-9.44254
▁Clathrin	-9.44506
12467	-9.44506
HR	-9.44631
tail	-9.44721
▁subtilis	-9.44847
▁decarboxylase	-9.44848
▁acyl	-9.4489
▁export	-9.45055
▁Mitochondrial	-9.45188
3292	-9.45191
sh	-9.45382
bHLH	-9.4553
▁IS	-9.456
Nucleotide	-9.45811
ntimicrobial	-9.45874
▁hydrolases	-9.45894
q	-9.46097
anchor	-9.46127
▁8	-9.4614
fam	-9.46216
MalT	-9.46231
acid	-9.46252
min	-9.46291
cys	-9.46421
▁deacetylase	-9.46569
▁PKD	-9.46827
▁Sorting	-9.46912
▁melanogaster	-9.46912
▁NlpC	-9.46914
▁Large	-9.46918
ac	-9.4694
59	-9.47008
100	-9.4705
▁Fer	-9.47243
3899	-9.47275
▁Trypsin	-9.47289
amino	-9.47536
▁PLD	-9.47618
▁iron	-9.47965
▁NB	-9.48041
▁variant	-9.48109
ci	-9.48229
▁Cupredoxin	-9.48313
▁LRR	-9.4849
▁structural	-9.48586
▁translocation	-9.48666
05	-9.48882
▁Interleukin	-9.49021
ter	-9.49039
▁aminopeptidase	-9.49042
4_	-9.4913
EX	-9.49279
co	-9.49306
▁part	-9.49334
▁interacting	-9.49367
ppel	-9.49381
▁Ty	-9.49479
▁ParB	-9.49521
me	-9.49549
69	-9.49833
▁aspartate	-9.50001
▁TrkA	-9.5003
barrel	-9.50089
cysteine	-9.50099
RF	-9.50218
▁CD	-9.50464
NR	-9.50706
▁vWFA	-9.50883
▁surface	-9.51175
67	-9.51296
▁large	-9.51532
tranf	-9.51539
87	-9.51576
AF	-9.51589
MT	-9.51877
▁Ferlin	-9.51912
▁residues	-9.51919
▁delta	-9.52234
▁translation	-9.52389
lin	-9.52588
▁replication	-9.5264
CC	-9.52866
▁Cas	-9.52884
stranded	-9.53066
▁Omp	-9.53125
tm	-9.53176
▁ma	-9.53181
hionine	-9.53747
▁mitochondrial	-9.53802
PA	-9.53803
▁Cysteine	-9.53856
75	-9.53938
ime	-9.54033
▁10	-9.54064
hird	-9.54085
ce	-9.54149
76	-9.54203
▁Amino	-9.54314
adenylation	-9.54486
▁FHA	-9.54492
▁pilus	-9.54497
RGS	-9.54551
▁UDP	-9.54788
synt	-9.54822
88	-9.55248
▁PI	-9.55524
▁ester	-9.55551
lk	-9.5571
▁La	-9.55888
RI	-9.56197
89	-9.56218
▁NADH	-9.56602
▁retroelements	-9.56774
cellular	-9.56831
lu	-9.57018
▁PPE	-9.57241
▁PTS	-9.57277
elongation	-9.57287
po	-9.57517
▁adaptor	-9.57592
Bacteroides	-9.57932
DISM	-9.57933
99	-9.58046
gene	-9.58193
forming	-9.58227
8_	-9.58237
associating	-9.58344
85	-9.58354
▁Myb	-9.58356
108	-9.58406
▁HD	-9.58552
no	-9.5869
▁autotransporter	-9.58713
lipid	-9.58715
▁Poly	-9.58877
TBC	-9.58893
antitoxin	-9.58932
▁SPRY	-9.58953
▁Mu	-9.58974
▁Guanine	-9.59104
4191	-9.5912
▁TIR	-9.59231
▁arabinose	-9.59386
pr	-9.59498
▁aure	-9.59626
▁Pro	-9.59733
nt	-9.59931
96	-9.59982
▁PA	-9.60268
glucosidase	-9.6029
▁catalyze	-9.6029
GTA	-9.60293
ve	-9.60414
DSP	-9.6055
▁copper	-9.60571
▁transcriptase	-9.60688
twin	-9.60688
▁Cdc	-9.60799
tic	-9.61064
▁Caspase	-9.61088
▁HisKA	-9.6109
GPCRs	-9.61094
▁hetero	-9.61277
▁synthesis	-9.61312
regulated	-9.61382
▁Modul	-9.6149
▁Phospholipase	-9.61516
▁J	-9.61821
CBS	-9.6184
Associated	-9.6185
Helix	-9.6186
pt	-9.62293
▁nitrite	-9.62439
Gly	-9.6247
virus	-9.62539
gr	-9.62563
▁by	-9.62674
▁PR	-9.62761
▁16	-9.62779
▁kDa	-9.62824
▁potassium	-9.63113
-6	-9.63119
rb	-9.63505
07003	-9.63523
▁efflux	-9.63635
copper	-9.63644
▁flagellar	-9.63974
ia	-9.64
ut	-9.64257
▁PPR	-9.64269
▁ser	-9.6434
▁Glutathione	-9.64347
bZIP	-9.6456
▁ribonuclease	-9.64573
cave	-9.648
▁archaeal	-9.65036
▁Ran	-9.65161
▁cystat	-9.65179
Phosphoinositide	-9.65274
rg	-9.65469
▁lipid	-9.65543
GltJ	-9.65597
▁interleukin	-9.65597
EF	-9.65875
uring	-9.65998
ine	-9.66026
▁intracellular	-9.66027
bound	-9.66052
FP	-9.66156
▁exo	-9.66359
bd	-9.66435
thetic	-9.66466
▁RhoGAP	-9.66471
▁regulat	-9.66484
glycerol	-9.6657
ity	-9.6658
▁hook	-9.66863
▁belong	-9.66867
reg	-9.66951
▁fingers	-9.67066
▁Cellulose	-9.67289
▁cleavage	-9.673
▁structures	-9.6733
SET	-9.67642
▁RGS	-9.67664
▁Dynamin	-9.67716
rf	-9.67908
▁Integrin	-9.68039
▁hormone	-9.68269
▁glutamate	-9.68404
CTERM	-9.68576
▁hybrid	-9.68576
▁PspC	-9.68578
sc	-9.68622
CRD	-9.68676
▁Ligand	-9.69011
▁on	-9.6929
RAP	-9.69301
ER	-9.69406
▁Eukaryotic	-9.69444
nger	-9.69456
▁histone	-9.69463
▁4-	-9.69596
▁k	-9.69876
▁CRISPR	-9.6988
ClfB	-9.69881
RVT	-9.69885
im	-9.69954
quo	-9.70292
▁Phosphotyrosine	-9.70341
ox	-9.70391
▁13	-9.70735
▁Substrate	-9.7076
▁utilization	-9.70761
▁Calmodulin	-9.70854
able	-9.70979
▁activation	-9.71112
asic	-9.71182
viral	-9.71204
▁dioxygenase	-9.71365
ct	-9.71413
63	-9.71601
nuclease	-9.71628
▁DEDD	-9.71647
DH	-9.71787
▁Exten	-9.71797
ST	-9.72064
▁Autotransporter	-9.72093
▁RT	-9.72098
Four	-9.72138
lyase	-9.72433
▁NodB	-9.72542
hy	-9.72635
12)	-9.72726
▁molecul	-9.72747
▁syndrome	-9.72992
arly	-9.73121
▁HNH	-9.73268
FixJ	-9.73444
lav	-9.73485
10_	-9.7352
14)	-9.7361
EN	-9.73617
ti	-9.73638
▁FG	-9.73678
20)	-9.73702
ATPase	-9.73852
▁Pseudo	-9.73894
▁Phosphatidyl	-9.73899
▁Nitrate	-9.73899
▁dual	-9.73899
▁rve	-9.73907
5,	-9.74068
▁hydroxylase	-9.74107
ca	-9.74217
▁amine	-9.74242
transf	-9.74325
▁CDC	-9.74411
ED	-9.74413
if	-9.74422
SCR	-9.74694
idase	-9.74976
cyclic	-9.75146
ant	-9.75175
▁hot	-9.75283
▁amidase	-9.75684
▁families	-9.75738
▁pneumo	-9.75738
mycin	-9.75751
▁phosphatases	-9.75796
LT	-9.75817
▁CBS	-9.75881
▁VPS	-9.75979
95	-9.76005
▁OM	-9.76048
▁5,	-9.76311
3/	-9.76387
MO	-9.7639
▁de	-9.76538
▁Plant	-9.76671
03169	-9.76676
▁GAL	-9.76703
▁Tar	-9.76772
GBP	-9.76782
bb	-9.76835
▁Hp	-9.76898
▁Coiled	-9.7714
00113	-9.77141
PspA	-9.77153
-6-	-9.77214
▁co	-9.77343
one	-9.77437
CO	-9.77515
recognition	-9.77527
▁Ezrin	-9.77612
68	-9.77637
serine	-9.77736
▁IF	-9.77903
.1	-9.78046
▁segregation	-9.78089
deoxy	-9.78135
▁MPP	-9.78211
481	-9.78435
vWF	-9.78469
▁guanine	-9.78541
▁IPT	-9.78576
▁sensing	-9.78644
gamma	-9.78802
mid	-9.79013
KI	-9.79079
▁brain	-9.79521
▁Toll	-9.79521
▁barrel	-9.79525
▁formation	-9.79537
▁FtsX	-9.79564
OB	-9.79844
pol	-9.79868
tri	-9.79896
urin	-9.79957
prolyl	-9.80004
▁Region	-9.80004
▁topoisomerase	-9.80007
▁NarL	-9.8001
ecretion	-9.80017
channels	-9.80131
▁FN	-9.80227
loyl	-9.80283
Cdc	-9.80408
▁Ribonuclease	-9.8049
▁NtrY	-9.80491
fusion	-9.80491
ect	-9.80492
4251	-9.80535
▁Fts	-9.80628
▁actin	-9.80693
MYND	-9.80977
methionine	-9.80981
bility	-9.81136
lar	-9.81147
▁glycoprotein	-9.81288
estriction	-9.81397
Radixin	-9.81468
▁Vacuolar	-9.81468
▁Iron	-9.81468
▁YadA	-9.81469
▁Nexin	-9.81469
▁Sigma	-9.8149
peptide	-9.81537
▁bind	-9.81634
▁AMP	-9.81645
▁VII	-9.81649
ATS	-9.81709
▁esterase	-9.81729
▁11	-9.81946
▁dockerin	-9.8196
brac	-9.82026
DP	-9.82139
▁regulation	-9.82188
ated	-9.8223
▁auto	-9.82268
▁CUB	-9.82294
▁mobili	-9.82419
ugat	-9.82637
▁RM	-9.82695
▁target	-9.82804
▁Moesin	-9.82953
▁Sporulation	-9.82953
▁LytR	-9.82953
▁hypo	-9.82953
▁TolA	-9.8296
93	-9.8317
▁mono	-9.8325
▁Pho	-9.83369
▁half	-9.83453
dog	-9.83519
glutamate	-9.8358
▁mRNA	-9.83891
Tsr	-9.83968
carboxylesterase	-9.83972
▁carboxyl	-9.84277
▁43	-9.84525
sensitiv	-9.84734
bacter	-9.84998
▁Nucleoporin	-9.85011
ob	-9.85186
▁NADPH	-9.85195
galactosidase	-9.85478
▁Winged	-9.85479
pi	-9.85494
RNA	-9.85748
gen	-9.85939
retropepsin	-9.85991
▁Growth	-9.85991
▁STKs	-9.85992
▁entero	-9.85993
▁unit	-9.85996
▁AF	-9.86014
ASP	-9.86054
35)	-9.8624
RS	-9.86382
▁Lamin	-9.86399
hnRNP	-9.86447
▁SbcC	-9.86506
catenin	-9.86517
▁coiled	-9.86526
▁Dna	-9.86613
GT	-9.86645
▁coat	-9.86872
▁chromodomain	-9.86998
115	-9.87008
▁NlpD	-9.87026
▁nucleo	-9.87531
amidotransferase	-9.87545
▁Adenylate	-9.87545
▁Kazal	-9.87545
▁fibr	-9.87547
▁Acetyl	-9.8781
mRNA	-9.87835
WD	-9.88065
grasp	-9.88074
cell	-9.88266
▁SANT	-9.88268
▁Glycerophospho	-9.88595
▁pro	-9.8874
ri	-9.88939
-4-	-9.89021
▁Heme	-9.89124
MDR	-9.89164
ae	-9.89299
▁PAN	-9.89511
mp	-9.89567
▁Modifie	-9.89586
keto	-9.89649
▁Death	-9.89656
▁peptidyl	-9.89675
robabl	-9.89718
SO	-9.8974
pair	-9.8997
ransmembrane	-9.90166
▁voltage	-9.90191
mannose	-9.90195
PR	-9.90268
▁glutamine	-9.90307
▁BAR	-9.90319
lp	-9.90358
sulfur	-9.90533
▁Fis	-9.90585
▁Nuclear	-9.90729
▁gag	-9.90883
TP	-9.90916
106	-9.91055
▁Peptide	-9.91269
af	-9.91355
FH	-9.91376
86	-9.91643
pre	-9.91713
▁DENN	-9.91775
▁uptake	-9.91813
▁ribosome	-9.91813
ten	-9.91907
BAB	-9.91944
GG	-9.91977
▁rad	-9.92034
10)	-9.92134
glucan	-9.92231
▁RNF	-9.92317
BE	-9.92333
▁append	-9.92355
ACH	-9.92412
BTA	-9.92449
83	-9.92838
rch	-9.92889
GTB	-9.92921
ways	-9.9346
▁cAMP	-9.93579
▁cis	-9.93692
04	-9.93707
▁shock	-9.9381
▁AcrR	-9.94017
▁Spondin	-9.94017
bI	-9.94033
▁spore	-9.94056
_5	-9.94074
tin	-9.9411
MP	-9.94194
▁mannosyl	-9.94252
Rcat	-9.9433
13)	-9.94839
▁phospholipases	-9.94972
▁Be	-9.95098
15041	-9.95157
ga	-9.95444
19)	-9.95688
▁vacuolar	-9.95698
▁Galactose	-9.95702
rt	-9.95726
▁TM	-9.95786
Ycf	-9.9579
PP	-9.95884
▁Of	-9.95928
glucose	-9.96011
▁PX	-9.96041
▁inhibitors	-9.96083
urein	-9.96202
EcoJA	-9.96271
▁monooxygenase	-9.96272
▁CHU	-9.96313
9,	-9.96314
▁FtsK	-9.96349
▁Mec	-9.96634
FA	-9.96837
oligosaccharide	-9.96843
▁single	-9.96871
▁solute	-9.96873
79	-9.97066
ene	-9.97073
▁cation	-9.97118
▁head	-9.97238
72	-9.97306
olyketide	-9.97322
▁compos	-9.97418
ING	-9.97501
▁glycosylase	-9.97648
ble	-9.97774
▁CU	-9.97779
nucleotide	-9.97872
ATP	-9.98205
up	-9.98381
▁Rad	-9.98394
hexosaminidase	-9.98576
▁Vari	-9.98576
10263	-9.98577
sigma	-9.98581
ribose	-9.98582
▁choice	-9.98583
▁transferases	-9.98664
LO	-9.98712
act	-9.98732
▁subtype	-9.99024
edicat	-9.9911
nstructured	-9.99161
▁Haemolysin	-9.99162
▁Endonuclease	-9.99165
DBD	-9.99479
RBD	-9.99718
induced	-9.99749
wHTH	-9.99761
▁processing	-9.99966
RIM	-9.99991
link	-10.0026
promot	-10.0034
▁fragil	-10.0034
▁MepM	-10.0034
▁Fasciclin	-10.0035
pentapeptide	-10.0037
ribosyl	-10.0087
docking	-10.0094
▁Condensation	-10.0094
5585	-10.0095
▁ANK	-10.0097
▁members	-10.0104
▁Trans	-10.0107
ara	-10.0118
Tur	-10.0122
-2-	-10.0128
74	-10.0128
▁ring	-10.0148
fa	-10.0151
▁Yb	-10.0153
▁Listeria	-10.0153
▁Golgi	-10.0154
nate	-10.0155
At	-10.0165
branch	-10.0171
acetylase	-10.0178
heme	-10.0195
▁ADP	-10.0198
age	-10.0198
UL	-10.0207
5011	-10.0212
00368	-10.0214
inducible	-10.0214
▁Small	-10.0214
▁knuckle	-10.0214
▁revers	-10.0214
nucleotidase	-10.0215
▁ADF	-10.0217
▁virus	-10.0231
420	-10.0237
cl	-10.0244
FOX	-10.0249
ost	-10.0249
zipper	-10.0251
response	-10.0259
RCC	-10.0262
▁CID	-10.0282
function	-10.0313
FG	-10.0321
▁Tat	-10.0324
kDa	-10.0325
▁Retropepsins	-10.0335
▁KRAB	-10.0335
▁tet	-10.0339
▁form	-10.034
Cas	-10.0353
73	-10.0365
149	-10.0374
active	-10.0385
myo	-10.039
ombe	-10.0396
▁Bacilli	-10.0397
▁antiporter	-10.0397
▁Flagellar	-10.0397
▁CUE	-10.0409
lysine	-10.0412
CTD	-10.0413
▁Sensor	-10.0439
haperone	-10.0452
▁Bacteriophage	-10.0458
ogen	-10.0459
▁common	-10.0459
02927	-10.0461
62	-10.0474
16)	-10.0477
IAP	-10.0478
SAM	-10.0479
94	-10.0484
acchar	-10.0493
38)	-10.0509
031	-10.0515
▁Synaptotagmin	-10.052
▁HELP	-10.0521
-3,	-10.0524
▁SRPBCC	-10.0551
▁Rap	-10.0553
27)	-10.0566
▁GTP	-10.0566
▁Trp	-10.0566
▁acetyl	-10.0578
▁Cu	-10.0579
▁UBX	-10.058
EhxA	-10.0583
▁pathogenesis	-10.0583
WalK	-10.0583
▁PleD	-10.0583
▁Multi	-10.0583
anae	-10.0589
pal	-10.0594
▁TAT	-10.0619
BF	-10.063
▁Tra	-10.0632
MBT	-10.0636
080	-10.0636
▁mu	-10.0639
adenylate	-10.0645
▁translocase	-10.0646
SdrC	-10.0646
PGRP	-10.0646
ME	-10.0651
029	-10.0658
▁MCP	-10.066
UB	-10.0662
subgroup	-10.0662
17)	-10.0695
▁Clp	-10.07
▁Flg	-10.0701
▁Pentapeptide	-10.0709
Bact	-10.0709
▁Thioesterase	-10.071
▁chromodomains	-10.0715
▁components	-10.0717
▁Par	-10.0728
▁PP	-10.0761
esponse	-10.0766
▁integrase	-10.0781
▁Tre	-10.0785
▁PPI	-10.0792
▁Four	-10.0793
84	-10.0797
▁Fli	-10.0807
thio	-10.0809
gp	-10.0822
▁adenylyl	-10.0824
cyclo	-10.083
▁Bromodomain	-10.0837
▁SpoVK	-10.0837
GRAM	-10.0837
▁nucleotidyl	-10.0841
31)	-10.0849
ib	-10.0856
carboxy	-10.0863
46/	-10.0869
phosphatidyl	-10.0871
Rim	-10.0894
▁NarQ	-10.0902
bLIM	-10.0903
▁tetra	-10.0925
BRcat	-10.0931
GR	-10.0935
▁Glu	-10.0938
▁SLBB	-10.0966
▁Gram	-10.0966
5001	-10.0967
15347	-10.0968
FbpA	-10.0969
03142	-10.0969
▁Inhibitor	-10.0974
158	-10.0984
ide	-10.0985
▁others	-10.099
YT	-10.099
▁sulfur	-10.0991
PTP	-10.0998
36)	-10.1004
▁eIF	-10.1006
-70	-10.1008
IX	-10.1011
antigen	-10.1015
▁Cyto	-10.102
Dock	-10.1032
▁accessory	-10.1032
▁RcsC	-10.1032
spondin	-10.1032
▁19	-10.1039
Pr	-10.1074
105	-10.1086
▁SPFH	-10.1098
OX	-10.1099
disulfide	-10.1101
▁Lacto	-10.1102
▁GAG	-10.1131
[	-10.1162
hairpin	-10.1164
▁condensation	-10.1164
mental	-10.1177
specificity	-10.1179
unction	-10.1198
SpoIIIE	-10.123
▁Schizos	-10.123
▁activities	-10.123
patch	-10.123
SU	-10.1242
binofuranosidase	-10.1245
CD	-10.1278
▁PPP	-10.1279
▁suppressor	-10.1283
▁chitin	-10.1293
▁metazoa	-10.1298
ure	-10.1304
47)	-10.1306
polysaccharide	-10.1319
Thr	-10.1344
▁GAT	-10.1352
pilW	-10.1365
▁RasGEF	-10.1365
▁homeodomain	-10.1365
▁Patatin	-10.1365
Like	-10.1365
aldehyde	-10.1365
ry	-10.1371
▁KIF	-10.1371
70)	-10.1379
PKD	-10.1383
twee	-10.1392
▁MAP	-10.1426
DO	-10.1428
▁inter	-10.1433
pyruvate	-10.1433
▁retardation	-10.1433
acent	-10.1433
▁PilZ	-10.1433
▁Sugar	-10.1433
RyR	-10.1436
▁fift	-10.1437
rec	-10.144
▁BRCA	-10.1443
Hsp	-10.1446
rue	-10.1479
▁Spo	-10.1493
▁SGNH	-10.1495
▁CHAT	-10.1504
▁AP	-10.1516
UBX	-10.1523
▁Six	-10.1527
dam	-10.1546
▁Apolipoprotein	-10.1571
▁Proline	-10.1571
▁FKBP	-10.1571
▁LacI	-10.1571
HSP	-10.1573
▁systems	-10.1585
▁lys	-10.1608
▁Pur	-10.1627
List	-10.163
eta	-10.163
required	-10.164
sulfate	-10.1641
oxo	-10.1655
▁main	-10.1666
DE	-10.1682
sugar	-10.1687
UBXN	-10.1696
▁Br	-10.1703
HTH	-10.1707
540	-10.1708
DL	-10.1709
ClfA	-10.171
sbW	-10.1711
GATase	-10.1714
▁6-	-10.1722
LPS	-10.1725
81	-10.1726
▁ad	-10.1735
43)	-10.175
IR	-10.1753
▁epsilon	-10.176
150	-10.1763
core	-10.177
HD	-10.177
▁theta	-10.177
▁CH	-10.1774
▁Staphylococcus	-10.178
adenine	-10.178
▁Stealth	-10.178
▁upstream	-10.178
▁Upf	-10.178
▁Co	-10.1782
itis	-10.1782
▁aromatic	-10.179
adenosine	-10.1799
▁multi	-10.181
116	-10.1811
EL	-10.1813
BTBD	-10.1823
actin	-10.1825
RmlC	-10.1851
enolpyruvate	-10.1851
▁inner	-10.1852
RK	-10.1853
NS	-10.1854
▁hydrogenase	-10.1862
lipase	-10.1862
rk	-10.187
iso	-10.1876
▁mutase	-10.1877
TAF	-10.1879
099	-10.1898
hemotaxis	-10.19
mu	-10.1902
Pol	-10.1902
int	-10.1902
180	-10.1903
▁galactose	-10.1911
▁phosphoribosyl	-10.1915
metal	-10.192
ubiquinone	-10.1921
iacylglycerol	-10.1922
▁fibronec	-10.1922
quinone	-10.1923
▁disease	-10.1923
▁lysozyme	-10.1923
alanyl	-10.1923
YIG	-10.1923
▁CheA	-10.1925
▁RecQ	-10.1925
▁glucan	-10.1928
▁FAM	-10.1931
eck	-10.1962
ix	-10.1962
▁carboxylase	-10.1964
some	-10.1975
-4,	-10.1984
strand	-10.1986
cc	-10.199
macroglobulin	-10.1995
▁exten	-10.1995
▁LolE	-10.1995
responsive	-10.1995
Gln	-10.1996
▁Myotubularin	-10.1997
144	-10.1999
integrase	-10.1999
onate	-10.2001
putative	-10.2002
PBP	-10.2002
166	-10.201
28)	-10.2011
mi	-10.2021
UBP	-10.2033
▁flavoprotein	-10.2048
IY	-10.2049
diphosphate	-10.2062
▁Pa	-10.2062
oxide	-10.2064
psy	-10.2064
▁sodium	-10.2067
Hydrolase	-10.2067
▁MarR	-10.2067
02874	-10.2068
▁halo	-10.2073
TNFRSF	-10.214
stomatin	-10.214
▁Calpain	-10.214
▁LabA	-10.214
fused	-10.2141
▁guanylyl	-10.2153
11)	-10.2153
porin	-10.2169
_8	-10.2182
sen	-10.2183
▁FMN	-10.2194
▁Exo	-10.2194
Gy	-10.2202
▁Histone	-10.2214
LPLAT	-10.2214
▁symporter	-10.2214
▁Sorb	-10.2214
▁Transporter	-10.2215
KDM	-10.2215
enoyl	-10.2216
▁DPM	-10.2216
SPRY	-10.2242
▁KA	-10.2251
ii	-10.2255
104	-10.2279
propell	-10.2283
▁Armadillo	-10.2288
▁Mitogen	-10.2288
PEB	-10.2305
-5,	-10.2314
91	-10.2323
signal	-10.2325
UPF	-10.2332
▁ferredoxin	-10.2345
DEAH	-10.2363
▁Polymerase	-10.2366
004	-10.2367
ug	-10.2371
si	-10.2373
▁Ser	-10.2379
▁Activator	-10.2383
▁lip	-10.2385
Ara	-10.24
GP	-10.2404
permease	-10.2408
Met	-10.2411
ADP	-10.2419
TIG	-10.242
▁at	-10.2428
ring	-10.243
▁SAP	-10.2435
acetylmuramoyl	-10.2438
▁Histidinol	-10.2438
orm	-10.2442
▁probabl	-10.2451
▁Yq	-10.2453
-1-	-10.2455
132	-10.2459
▁chitinase	-10.2481
Ala	-10.2502
48)	-10.2507
hydrolases	-10.2509
albumin	-10.2513
hitobiase	-10.2513
locus	-10.2513
bacterium	-10.2514
point	-10.2514
▁oxygenase	-10.2519
▁Single	-10.2534
eno	-10.257
▁Kr	-10.2575
rokaryotic	-10.258
▁SEC	-10.2584
dynein	-10.259
▁radical	-10.259
▁maturation	-10.259
▁classical	-10.259
12316	-10.259
▁ZnMc	-10.259
▁Trm	-10.2595
▁FliK	-10.2598
transpeptidases	-10.2623
▁SP	-10.2625
fB	-10.2625
▁TATA	-10.2635
adenosyl	-10.2659
negative	-10.2667
▁Kunitz	-10.2667
▁YkuD	-10.2667
▁mammalian	-10.2667
▁sialidases	-10.2667
▁YesN	-10.2667
▁HlyD	-10.2667
redox	-10.2667
-1,6-	-10.2668
▁GPS	-10.2671
▁modifier	-10.2672
▁Sh	-10.2698
438	-10.2712
methylase	-10.2713
18)	-10.2742
nickel	-10.2744
▁collagen	-10.2744
▁VapC	-10.2744
OP	-10.2755
▁may	-10.2758
▁aldolase	-10.2759
▁IQ	-10.2763
▁ARID	-10.2766
▁Rec	-10.2804
ivergent	-10.2822
▁BvgS	-10.2822
▁dehalogenase	-10.2822
▁endosialidase	-10.2822
▁GntR	-10.2822
▁necrosis	-10.2822
▁sarcoma	-10.2822
▁KLF	-10.2822
▁cofactor	-10.2823
▁derivatives	-10.2827
delta	-10.2831
Ras	-10.2846
▁My	-10.2859
fi	-10.2876
▁most	-10.2877
_6	-10.2887
roll	-10.2898
▁Voltage	-10.2901
▁pyrophosphatase	-10.2901
▁YesM	-10.2901
Rpb	-10.2903
NEAT	-10.2905
FE	-10.2911
factor	-10.292
▁exporter	-10.2923
▁12	-10.2939
gan	-10.2958
▁kidney	-10.298
capsid	-10.298
▁Prp	-10.2983
ella	-10.2998
▁Helicase	-10.3002
nic	-10.3016
▁lipo	-10.3023
▁Bla	-10.3039
ensis	-10.3047
▁Eps	-10.3054
ige	-10.3055
uridine	-10.306
▁Filamin	-10.306
▁Dynein	-10.306
▁recombinase	-10.306
▁Short	-10.306
06347	-10.306
▁YlqF	-10.306
▁phosphorylase	-10.3061
▁tol	-10.308
PKR	-10.3101
▁multipl	-10.3107
▁PD	-10.3133
lcohol	-10.3141
▁filament	-10.3141
▁plasmid	-10.3141
▁NMDA	-10.3141
▁AtoC	-10.3141
02876	-10.3142
TGF	-10.3145
▁six	-10.3147
▁LisH	-10.3152
Rac	-10.3164
nteracting	-10.3199
PHF	-10.3204
GYP	-10.3222
▁Rhomboid	-10.3222
▁Tri	-10.323
▁Rib	-10.3237
▁4,	-10.3256
comp	-10.327
olycysti	-10.3277
opterin	-10.3278
▁MR	-10.328
zf	-10.3285
coc	-10.3285
gelsolin	-10.3286
BACON	-10.3304
▁attenuator	-10.3304
▁PDDEXK	-10.3304
▁Spc	-10.3307
▁Lin	-10.3307
▁Proteins	-10.332
MerR	-10.3361
trA	-10.3362
▁Endo	-10.3365
gag	-10.337
tion	-10.3373
diester	-10.3381
yz	-10.3382
ni	-10.3386
positive	-10.3387
▁fimbrial	-10.3388
▁Clr	-10.3388
▁SCP	-10.3389
pro	-10.34
▁str	-10.3418
IM	-10.3419
GAPs	-10.3421
▁Cytochrom	-10.3449
▁CG	-10.3453
glycosyl	-10.3457
ating	-10.3459
▁DOMON	-10.347
▁Nuclease	-10.347
▁expression	-10.347
▁Lysophospholip	-10.347
▁polyadenylation	-10.3473
Co	-10.3473
▁Sel	-10.3475
▁proteolysis	-10.3477
▁deaminase	-10.3485
▁Nucleotide	-10.3485
UBR	-10.3499
▁BUB	-10.3529
285	-10.3534
▁MG	-10.3536
▁Yd	-10.3536
▁MAGUK	-10.3554
▁MutS	-10.3556
CHD	-10.3568
pen	-10.3584
▁Receptors	-10.3598
PDO	-10.3604
UT	-10.3629
Secre	-10.3633
carboxylate	-10.3636
MBL	-10.3644
CCN	-10.3649
amide	-10.3653
▁sandwich	-10.3663
dg	-10.367
▁laccases	-10.3671
illin	-10.3673
IL	-10.3676
42-	-10.3685
termination	-10.369
▁MA	-10.3724
typical	-10.3724
▁UvrD	-10.3724
▁Biosynthesis	-10.3725
▁CCDC	-10.3726
▁CHAP	-10.3727
LU	-10.373
▁proline	-10.3731
▁SEA	-10.3734
2_8	-10.3736
▁termination	-10.3738
▁MH	-10.3742
fl	-10.3743
PASTA	-10.3746
▁PT	-10.3787
110	-10.3799
ran	-10.3801
▁Spectrin	-10.3811
Glucosyl	-10.3811
capping	-10.3811
▁VirB	-10.3811
▁SNAP	-10.3811
thermo	-10.3813
yc	-10.3825
▁cyclic	-10.3838
▁propeptide	-10.3842
512	-10.3847
▁glucose	-10.3851
rep	-10.3853
ome	-10.3855
IB	-10.3861
lectin	-10.3874
028	-10.3891
ess	-10.3892
▁pullul	-10.3898
hemolysin	-10.3898
▁Radical	-10.3898
CopZ	-10.3898
▁glycogen	-10.3898
ponin	-10.3898
_4_9	-10.3898
oligopeptide	-10.39
▁TIM	-10.3922
▁oligo	-10.3931
UD	-10.3941
RNAP	-10.397
ense	-10.3976
xylan	-10.3979
ADAMTS	-10.3985
▁Glycine	-10.3985
affinity	-10.3985
▁BREX	-10.3986
▁AbiEii	-10.3986
▁De	-10.3988
▁hnRNP	-10.3995
▁Plectin	-10.4008
PUB	-10.401
107	-10.401
Zn	-10.4015
▁Arf	-10.4021
eve	-10.4023
synthesis	-10.4024
BD	-10.4047
138	-10.4057
▁KOW	-10.4069
body	-10.4074
recruitment	-10.4074
▁PucR	-10.4074
▁drug	-10.4074
▁particle	-10.4074
▁reticulum	-10.4074
▁TolB	-10.4074
▁extension	-10.4075
▁Bacteroidetes	-10.4076
4585	-10.4077
13914	-10.4077
▁xylanase	-10.408
4372	-10.4081
lis	-10.4109
hydroxylase	-10.4122
34)	-10.4132
Auto	-10.4164
CESA	-10.4166
▁MucB	-10.4167
proteo	-10.4167
13108	-10.4168
thiol	-10.4174
osine	-10.4197
▁Ph	-10.42
▁Streptococc	-10.4218
dioxygenase	-10.4223
processing	-10.4226
lid	-10.4243
glucosyl	-10.4253
▁isopeptide	-10.4253
▁pump	-10.4253
▁Biotin	-10.4254
▁precursor	-10.4256
Nterm	-10.4259
XIP	-10.4261
FR	-10.427
MAP	-10.4286
▁bZIP	-10.4307
Gal	-10.4314
Acyltransferase	-10.4314
meric	-10.4316
▁Retrotran	-10.4344
▁duplicat	-10.4344
▁Chromosome	-10.4344
▁6,	-10.4354
uman	-10.4371
Glu	-10.4372
channel	-10.4374
sk	-10.4374
▁antagonist	-10.4383
▁RAD	-10.4392
▁Methylase	-10.4394
▁SCA	-10.4396
▁trypsin	-10.4402
AK	-10.4413
tyrosine	-10.4418
▁HP	-10.4419
▁fructose	-10.4424
▁Cyclic	-10.4436
▁Pectate	-10.4436
tically	-10.4439
MDM	-10.4442
168	-10.4471
poly	-10.4482
▁one	-10.4486
▁Peptidases	-10.45
NRPSs	-10.4513
PLA	-10.4518
▁subunits	-10.4524
Sigma	-10.4524
▁Acyltransferase	-10.4528
▁Middle	-10.4528
▁hydratase	-10.4528
▁VWC	-10.4529
galacturonan	-10.4529
umor	-10.4529
▁Flavin	-10.453
left	-10.4531
▁MCM	-10.4531
25)	-10.4539
▁acyltransferase	-10.4555
choline	-10.4569
LTR	-10.4577
independent	-10.4578
▁modulat	-10.4584
ment	-10.4587
part	-10.4588
▁chromosom	-10.4595
exo	-10.4605
qu	-10.4617
carbon	-10.4622
ethanolamine	-10.4622
08581	-10.4622
▁Cbl	-10.4623
▁Wnt	-10.4625
▁triphosphatase	-10.4629
tu	-10.4631
ator	-10.4638
▁1,4-	-10.4648
▁IIB	-10.4663
▁NK	-10.4677
▁inhibit	-10.4695
▁Cob	-10.4697
RIP	-10.4698
MoxY	-10.4716
▁Sulph	-10.4716
▁LapD	-10.4716
▁phosphorylation	-10.4717
1-4	-10.4718
VOC	-10.4718
▁Elongation	-10.4722
▁primase	-10.4723
▁vesicle	-10.4729
▁Rel	-10.4729
protease	-10.4731
Rho	-10.4733
VC	-10.4744
px	-10.475
▁malignan	-10.4776
▁microtubule	-10.4776
▁Spt	-10.4782
▁archaea	-10.4806
▁Haem	-10.4811
▁Focal	-10.4812
▁mismatch	-10.4812
▁EEP	-10.4812
tetrahydrofolate	-10.4813
▁chromatin	-10.4815
▁NTP	-10.4816
▁Sema	-10.4816
HE	-10.4817
anion	-10.4818
▁Phosphoribosyl	-10.4819
-5-	-10.4832
ABC	-10.4837
▁PRP	-10.484
ctivated	-10.4854
proton	-10.4862
▁ele	-10.4873
FMR	-10.4883
32)	-10.4886
Copi	-10.4901
olysaccharide	-10.4902
stream	-10.4908
01204	-10.4908
PRDM	-10.4908
Gamma	-10.4908
12261	-10.4908
▁Insulin	-10.4908
▁THAP	-10.4908
03378	-10.4908
rhamnosidase	-10.491
ipeptidyl	-10.4911
olute	-10.4912
esolvase	-10.4915
▁DM	-10.4926
57)	-10.4938
▁CE	-10.4941
glycine	-10.4941
CAM	-10.4947
glycoprotein	-10.4948
▁glycine	-10.4971
GDPD	-10.5005
▁Hepat	-10.5005
▁RpfG	-10.5005
▁enhancer	-10.5005
mannosidase	-10.5005
▁FRQ	-10.5005
▁MacB	-10.5005
▁down	-10.5005
▁linker	-10.5006
▁epid	-10.5006
29)	-10.5012
merization	-10.5012
ytokinesis	-10.5034
ribonuclease	-10.5042
▁Tr	-10.5042
lg	-10.5049
XRE	-10.5052
▁cal	-10.5064
▁NBD	-10.5074
▁Ste	-10.5076
130	-10.5078
▁KN	-10.5099
gb	-10.5102
▁Choline	-10.5103
▁Heavy	-10.5103
▁Arm	-10.5103
15370	-10.5104
▁YncE	-10.5106
myc	-10.5121
dB	-10.5157
bacterial	-10.5167
DT	-10.5167
ripartite	-10.518
dh	-10.5181
▁GC	-10.5183
tidyl	-10.5186
ediator	-10.5187
1132	-10.5193
mediat	-10.5199
▁Adaptin	-10.5202
▁CARDB	-10.5202
▁Nucleoside	-10.5202
▁Suppressor	-10.5202
▁cancer	-10.5202
▁neutral	-10.5202
direct	-10.5202
characteris	-10.5202
▁Initiat	-10.5202
13558	-10.5203
▁light	-10.5204
▁RsbU	-10.5204
sis	-10.5212
aminotransferase	-10.5219
ovirus	-10.5222
▁BO	-10.5222
ARP	-10.5232
▁SPO	-10.5241
the	-10.5262
▁Bam	-10.5266
orphan	-10.5268
Asp	-10.5273
▁NAT	-10.5278
REB	-10.5287
nf	-10.529
Rhs	-10.5301
APPLE	-10.5302
citrate	-10.5302
▁proteasome	-10.5302
▁SHPRH	-10.5302
thumb	-10.5302
myb	-10.5302
anti	-10.5303
▁demethylase	-10.5303
▁activators	-10.5303
ile	-10.5309
▁YSIRK	-10.531
Cps	-10.5317
LIN	-10.5323
▁cobalt	-10.5331
ass	-10.5361
▁epimerase	-10.5365
▁polypeptide	-10.5371
▁nexin	-10.5381
dehydrogenase	-10.5383
transfer	-10.5386
lipin	-10.5395
tropic	-10.5395
SIGN	-10.5403
▁Carboxypep	-10.5403
▁Plug	-10.5403
▁proteolytic	-10.5403
▁bundle	-10.5403
▁Metal	-10.5404
▁polyadenylate	-10.5405
Psr	-10.5405
▁Therm	-10.5406
chelat	-10.5407
▁prokaryotic	-10.5415
_11	-10.543
▁MerR	-10.5435
GE	-10.5437
▁DDT	-10.5444
amylase	-10.5454
acillus	-10.5469
HY	-10.5479
▁NR	-10.5498
▁modifie	-10.5498
▁CLECT	-10.5505
trehalose	-10.5505
▁IIA	-10.5507
▁Yeast	-10.5507
synth	-10.5509
▁Pseudomonas	-10.5511
▁ADAM	-10.5512
▁some	-10.5514
▁un	-10.5524
acceptor	-10.5534
▁RPA	-10.5535
LPC	-10.554
red	-10.5546
ingle	-10.5555
▁proto	-10.5559
CdiA	-10.557
ential	-10.5591
157	-10.5602
VP	-10.5607
▁Mplas	-10.5608
Tyr	-10.5618
▁Streptomyc	-10.5619
TK	-10.5624
bisphosphat	-10.5648
▁Plexin	-10.5655
NG	-10.5664
▁Lipo	-10.5705
BRIGHT	-10.5712
▁meprin	-10.5712
▁TMEM	-10.5712
▁species	-10.5712
▁Epid	-10.5713
PAAR	-10.5715
4118)	-10.5716
phosphohydrolase	-10.5718
▁HrpA	-10.5719
ft	-10.5719
vig	-10.5725
long	-10.573
linked	-10.5733
mediator	-10.5736
▁RWD	-10.5737
CIP	-10.5738
39_	-10.5739
lysin	-10.5747
15048	-10.5747
▁glycosidases	-10.5767
▁Eph	-10.5774
alph	-10.5777
GK	-10.5781
PSP	-10.5791
▁SWIM	-10.5793
interact	-10.5796
GATA	-10.5802
succinyl	-10.5802
353	-10.5807
▁Lb	-10.581
esistance	-10.5817
▁Anaphase	-10.5817
▁HflK	-10.5817
▁Lhx	-10.5817
▁CENP	-10.5818
▁RimI	-10.5819
▁metalloprotease	-10.582
▁IBR	-10.5822
SRSF	-10.5826
42)	-10.5831
ZIP	-10.5834
▁col	-10.5845
▁FlgD	-10.585
▁GEF	-10.5852
▁polymer	-10.5863
Myo	-10.5881
con	-10.5895
UP	-10.5897
oxid	-10.5899
153	-10.5915
cytosine	-10.5924
▁CPSase	-10.5924
GAIN	-10.5924
▁Wall	-10.5924
orax	-10.5924
Exonuclease	-10.5928
▁ERM	-10.5928
zip	-10.593
482	-10.5933
▁Archaeal	-10.5936
YK	-10.5944
epsilon	-10.5954
sulf	-10.5954
FMN	-10.5955
Domain	-10.5958
▁DHR	-10.5961
▁LAR	-10.5961
CHR	-10.5966
STE	-10.5967
Su	-10.5968
name	-10.5969
118	-10.5973
▁Mot	-10.5973
▁glycosidase	-10.5975
290	-10.5984
▁SRP	-10.6024
45)	-10.6028
ocyte	-10.6031
penicillin	-10.6031
immunity	-10.6031
▁mltD	-10.6031
▁well	-10.6031
▁CheW	-10.6031
▁prohibitin	-10.6035
BRE	-10.6035
NOT	-10.6041
▁MASE	-10.6043
Ysc	-10.6043
phospholipid	-10.6046
NtrC	-10.6049
acyltransferase	-10.6056
▁Lysine	-10.6061
▁exchanger	-10.6066
oid	-10.6068
epimerase	-10.6072
eIF	-10.6075
185	-10.6075
zinc	-10.6077
▁che	-10.6078
CAP	-10.6079
▁SWI	-10.61
ie	-10.6122
▁EnvC	-10.614
▁Surface	-10.614
03192	-10.614
regulat	-10.6141
▁release	-10.6141
Sau	-10.6141
genital	-10.6141
▁DHHC	-10.6156
peroxidase	-10.6156
▁Anion	-10.6157
034	-10.616
GTPases	-10.6167
rate	-10.6183
cated	-10.6184
chitinase	-10.6193
▁guanosine	-10.6195
includ	-10.6208
Ser	-10.6216
coenzyme	-10.6233
▁mi	-10.6236
erminal	-10.624
▁chromo	-10.6245
▁cycl	-10.625
▁Sortilin	-10.625
▁YgiM	-10.625
▁flotillin	-10.625
DOCK	-10.625
▁Secretin	-10.625
▁degradation	-10.625
▁Formin	-10.625
▁Cupin	-10.625
▁trimeric	-10.6251
TMD	-10.6254
NAD	-10.6256
▁Rich	-10.6259
▁TetR	-10.6262
acidic	-10.6285
▁WWE	-10.6287
▁HB	-10.6313
oligo	-10.6314
stress	-10.6318
▁sulfatase	-10.6327
lan	-10.6331
tc	-10.6332
▁genes	-10.6338
▁nucleoside	-10.634
expressed	-10.6361
▁PWWP	-10.6361
▁hemagglutinin	-10.6361
▁YhgE	-10.6361
▁Polycomb	-10.6361
iota	-10.6362
NusG	-10.6368
▁post	-10.6379
kinases	-10.6383
▁PB	-10.6388
▁IIa	-10.64
modulator	-10.6406
▁Yf	-10.6416
▁32	-10.642
Sec	-10.6443
gu	-10.6444
aminobutyr	-10.6445
rhamnose	-10.6473
ancreatic	-10.6473
glutathione	-10.6473
▁Reprolysin	-10.6473
▁Sodium	-10.6473
▁OTU	-10.6473
Bo	-10.6473
▁organisation	-10.6473
CxxC	-10.6474
▁HDGYP	-10.6474
▁RDD	-10.6475
▁Dicer	-10.6478
▁MBD	-10.6492
▁RNAse	-10.6499
▁FI	-10.65
▁MAM	-10.6501
RAL	-10.6504
FHL	-10.6505
her	-10.6516
▁SdrD	-10.6518
▁Bac	-10.6522
His	-10.6523
-1,4	-10.6536
▁Clostridi	-10.6542
glycop	-10.6554
135	-10.6565
gluc	-10.6584
succ	-10.6587
oncogene	-10.6587
▁Fragile	-10.6587
▁RHOD	-10.6587
▁telluri	-10.6587
▁VicK	-10.6587
▁Prophage	-10.6588
▁Cyclin	-10.6588
ugate	-10.6593
MIF	-10.6595
▁Hint	-10.6599
MHC	-10.66
glucano	-10.6605
AND	-10.6614
Ver	-10.662
MPN	-10.6637
▁sha	-10.665
▁uridylyl	-10.6664
308	-10.6678
▁Mad	-10.6681
ependent	-10.6687
▁photo	-10.6689
psi	-10.6698
▁metabo	-10.6702
03255	-10.6702
▁SOCS	-10.6702
TRIO	-10.6702
▁InlA	-10.6702
FXR	-10.6703
▁insect	-10.6709
HOI	-10.6719
enzymes	-10.672
RO	-10.6721
▁Dic	-10.6726
Erythron	-10.6734
2778	-10.6735
▁WSC	-10.6736
▁dehydrogenases	-10.6741
opine	-10.6746
ANK	-10.675
▁Cation	-10.6763
PAT	-10.6789
Mut	-10.6793
▁calmodulin	-10.68
but	-10.6809
ASE	-10.6817
▁DEXXQ	-10.6818
GltG	-10.6818
▁Argonaut	-10.6818
▁discoid	-10.6818
▁START	-10.6818
▁Agenet	-10.6818
▁Site	-10.6819
▁Gag	-10.6819
io	-10.6819
02875	-10.6819
▁Talin	-10.682
▁Un	-10.6821
olide	-10.6821
▁MIT	-10.6823
SNF	-10.6824
4932	-10.683
TRIM	-10.6838
▁Cyt	-10.6842
triad	-10.6862
ill	-10.6871
olysin	-10.6881
LCP	-10.6886
lut	-10.6889
PRT	-10.6905
SpoT	-10.6909
▁subs	-10.6917
46)	-10.6917
▁Mycoplas	-10.6936
omaltodextrinase	-10.6936
ybgF	-10.6936
▁Tandem	-10.6936
▁Prolyl	-10.6936
▁KIAA	-10.6936
▁integrases	-10.6937
▁Metallo	-10.6937
MATE	-10.6939
▁rne	-10.694
SusE	-10.6941
amidase	-10.695
two	-10.6951
sorting	-10.6952
CCCH	-10.6953
DENN	-10.6961
▁Stre	-10.6963
carbamoyl	-10.6969
ubfamily	-10.6971
sulfatase	-10.6972
amy	-10.6978
000	-10.6978
integrin	-10.698
300	-10.6981
WH	-10.7005
41)	-10.7028
glyc	-10.7033
▁domai	-10.7048
▁TOMM	-10.7055
SMP	-10.7055
spectrin	-10.7055
Sorbs	-10.7055
yanodine	-10.7055
▁Competence	-10.7055
▁phoR	-10.7055
▁ELAV	-10.7055
▁Enoylreductase	-10.7055
▁SMAD	-10.7055
phenyl	-10.7056
_13	-10.7057
24)	-10.706
vine	-10.7063
fe	-10.7078
structural	-10.7082
suppressor	-10.7083
ium	-10.7095
▁Trk	-10.7115
pie	-10.7125
128	-10.7134
OMP	-10.7136
▁NosD	-10.7152
polo	-10.7158
VE	-10.7161
▁SUM	-10.7163
unc	-10.717
65)	-10.7174
▁Bruton	-10.7175
▁Autophagy	-10.7175
GlcNAc	-10.7175
▁Adenine	-10.7175
▁aspartyl	-10.7175
▁nitrilase	-10.7175
▁HRDC	-10.7176
▁Fab	-10.7177
▁CrgA	-10.7178
ntibiotic	-10.7208
LGF	-10.7217
est	-10.7227
BED	-10.7233
▁import	-10.7234
▁ELM	-10.7239
UDP	-10.7248
057	-10.7258
▁Activ	-10.7258
033	-10.7263
▁PAP	-10.7273
▁phages	-10.7277
cf	-10.7281
cyst	-10.7287
formyl	-10.729
▁hist	-10.7296
▁Aspartyl	-10.7297
▁Hemerythrin	-10.7297
▁Possibl	-10.7297
▁Glycoside	-10.7297
▁oligomerization	-10.7298
bund	-10.7298
benz	-10.7298
59)	-10.7299
▁Peri	-10.7311
▁ras	-10.732
ber	-10.7322
▁Mn	-10.7328
cluster	-10.7351
4214	-10.7352
pyrimidine	-10.7357
ling	-10.7357
ocompa	-10.7382
▁nov	-10.7383
▁penta	-10.7415
sulfide	-10.7415
03088	-10.7421
embryo	-10.7421
▁stalk	-10.7421
▁Cellulase	-10.7421
▁pseudopilin	-10.7421
lactate	-10.7421
cellulase	-10.7421
MCTP	-10.7421
aminarinase	-10.7421
▁VHS	-10.7422
ENTH	-10.7423
▁Lipoprotein	-10.7429
dimerisation	-10.7431
elium	-10.7434
add	-10.7435
▁polyphosphate	-10.7435
▁CRP	-10.7448
RhoBTB	-10.7464
APC	-10.7477
system	-10.7489
Fourth	-10.7493
002	-10.7502
idin	-10.7525
eum	-10.7525
iz	-10.753
Di	-10.7539
Transglycosylase	-10.7546
dysplasia	-10.7546
siderophore	-10.7546
tolerance	-10.7546
▁LytS	-10.7546
▁Nudix	-10.7546
▁Sushi	-10.7546
▁Thyroglobulin	-10.7546
▁epitheli	-10.7546
sulphi	-10.7546
02224	-10.7546
▁Mucin	-10.7546
▁bromodomain	-10.7546
▁PulG	-10.7546
▁NACHT	-10.7546
▁haemagglutin	-10.7546
▁dynamins	-10.7547
ank	-10.7547
▁Mei	-10.7547
▁Kef	-10.7553
5025	-10.7569
syn	-10.7569
▁RecD	-10.7578
ization	-10.7588
139	-10.7615
SANT	-10.7627
EGF	-10.7639
ik	-10.7658
residue	-10.7667
▁INduc	-10.7672
▁Rieske	-10.7672
▁cadherin	-10.7672
PriCT	-10.7672
ents	-10.7672
▁Pseudouridine	-10.7673
ANTH	-10.7676
Slt	-10.7676
CSD	-10.7681
nitrog	-10.7691
VAR	-10.7728
▁Micro	-10.7746
▁Bio	-10.7751
CYC	-10.7753
TBP	-10.7763
sandwich	-10.7765
Helicase	-10.7765
ance	-10.7767
▁Chi	-10.7788
▁Cro	-10.7789
MLKL	-10.7801
cephaly	-10.7801
facio	-10.7801
frizzled	-10.7801
▁ELWxxDGT	-10.7801
▁Trehalose	-10.7801
▁enteric	-10.7801
▁kinesin	-10.7801
olybdenum	-10.7801
▁PilF	-10.7801
▁Actin	-10.7801
▁Revers	-10.7801
genesis	-10.7802
▁nif	-10.7803
xylating	-10.7805
dow	-10.7806
▁Lis	-10.7807
▁ZZ	-10.7812
▁five	-10.7815
YG	-10.7822
oxidN	-10.7825
hg	-10.7827
▁Nine	-10.783
14951	-10.7838
glyco	-10.7865
Cterm	-10.7874
Man	-10.7879
2,3,4	-10.7886
para	-10.7894
933	-10.7904
▁Rsb	-10.7906
ococcus	-10.7909
small	-10.7911
wall	-10.7912
coccus	-10.7918
ultidrug	-10.7929
transduc	-10.793
▁Rhodanese	-10.793
▁nitrate	-10.793
▁Ferredoxin	-10.793
▁Salmonella	-10.793
▁excision	-10.793
▁lineage	-10.7931
02153	-10.7932
MRD	-10.7933
127	-10.7933
15319	-10.7934
▁thioesterase	-10.7935
ouse	-10.794
iv	-10.7948
▁Inter	-10.7958
▁EV	-10.796
itol	-10.7967
IRP	-10.797
▁Flp	-10.7973
Mca	-10.7984
▁per	-10.8002
pep	-10.8003
▁convertase	-10.8005
transpeptidase	-10.8015
form	-10.8023
▁PCC	-10.8027
▁deg	-10.8031
his	-10.8042
Rich	-10.8052
proline	-10.8052
proteolysis	-10.8054
Top	-10.8055
Loop	-10.8062
▁Haemag	-10.8062
▁Fatty	-10.8062
▁CAAX	-10.8062
glycerophosphate	-10.8063
▁AsnC	-10.8064
▁brea	-10.8067
Antigen	-10.8067
▁formate	-10.8067
reductase	-10.8069
OmpH	-10.8071
▁nucleases	-10.8072
▁thermophil	-10.8073
go	-10.8073
165	-10.8082
KIP	-10.8085
167	-10.8096
▁rh	-10.8113
▁An	-10.8121
anc	-10.8127
▁WS	-10.8135
▁Est	-10.814
iru	-10.8156
orf	-10.8175
PLP	-10.8183
77)	-10.8187
coupling	-10.8195
maltose	-10.8195
▁synaptotagmin	-10.8195
▁death	-10.8195
▁Rapamycin	-10.8195
11359	-10.8195
▁Annexin	-10.8196
xanthine	-10.8198
NEDD	-10.8199
guanine	-10.8199
120	-10.8205
Aco	-10.8205
amm	-10.8216
SDR	-10.8221
SUF	-10.8225
subunit	-10.8225
rimase	-10.8248
▁CW	-10.8261
198	-10.8261
sidase	-10.8323
FUBP	-10.833
omicro	-10.833
00733	-10.8331
inducer	-10.8331
▁Fusari	-10.8331
▁autoantigen	-10.8332
NHP	-10.8333
▁SMI	-10.8334
1542)	-10.8337
oxygenase	-10.8344
3673	-10.8346
fructose	-10.8349
Alpha	-10.8353
▁betaine	-10.8367
phase	-10.8383
permut	-10.8383
oate	-10.8404
dihydro	-10.841
▁PMT	-10.8415
axillin	-10.8445
etrotransposon	-10.8467
glutamyl	-10.8467
▁Precorrin	-10.8467
▁Doublecortin	-10.8467
▁Helicobacter	-10.8467
▁Palmitoyl	-10.8467
▁myotubularin	-10.8467
▁nucleic	-10.8467
ExbB	-10.8467
▁apoptosis	-10.8467
▁FecR	-10.8468
▁thiamine	-10.8468
11091	-10.8468
ifferentiation	-10.8468
dendr	-10.8468
▁Malt	-10.8469
▁RND	-10.847
STAT	-10.8473
▁contactin	-10.8477
▁Cha	-10.8488
▁Pot	-10.8488
ferredoxin	-10.8491
▁Sir	-10.85
aspartate	-10.8503
histidine	-10.8504
▁Tf	-10.8508
TE	-10.8531
ranched	-10.8548
prB	-10.8559
286	-10.8593
▁Or	-10.8595
▁Carboxyl	-10.8606
▁addition	-10.8606
hikimate	-10.8606
rephenate	-10.8606
▁ArsB	-10.8606
▁Inositol	-10.8606
▁Plasmid	-10.8606
▁RocR	-10.8606
▁Semaphorin	-10.8606
▁Sortase	-10.8606
▁localization	-10.8606
▁macrodomain	-10.8606
▁pathogenicity	-10.8606
▁switch	-10.8606
▁YfgC	-10.8606
lactis	-10.8606
EcoEI	-10.8606
▁ArfGap	-10.8607
▁VWA	-10.8607
zr	-10.8608
▁parA	-10.8608
▁stimulation	-10.8608
▁Chromodomain	-10.8608
Utp	-10.8609
uf	-10.861
▁GBS	-10.8611
LIC	-10.8613
▁SPX	-10.8617
▁aldo	-10.862
▁phosphotransfer	-10.8653
polypeptide	-10.8654
▁Nup	-10.8682
▁Plexins	-10.8683
▁plants	-10.8693
mutase	-10.871
enyl	-10.8714
▁arabinofurano	-10.872
phosphorylat	-10.8745
speckle	-10.8747
ystroglycan	-10.8747
▁AMIN	-10.8747
▁Aspergill	-10.8747
▁Globin	-10.8747
▁biosynthetic	-10.8747
▁AsmA	-10.8747
rotealysin	-10.8747
▁close	-10.8747
▁KilA	-10.8747
▁Mycobacterium	-10.8748
▁glycerophospho	-10.8748
▁MutL	-10.8749
▁DSM	-10.8749
EcoKI	-10.8751
3780	-10.8759
EIIA	-10.8766
fucos	-10.8778
phage	-10.8787
▁Mla	-10.8792
▁RecA	-10.88
oma	-10.8816
▁lac	-10.8838
145	-10.8838
kD	-10.8863
afA	-10.8875
acet	-10.8879
▁Molybdopterin	-10.889
▁Pyruvate	-10.889
▁palmitoyl	-10.889
ubstance	-10.889
▁basal	-10.889
▁SICA	-10.889
▁PWI	-10.8891
▁Nck	-10.8892
1080)	-10.8893
(2)-	-10.8903
osome	-10.8908
cap	-10.8918
170	-10.892
1655	-10.8925
phosphoglycerate	-10.8928
▁phosphoprotein	-10.893
tk	-10.8932
▁Cna	-10.8939
▁Neur	-10.8943
ubiquitination	-10.8949
▁FEN	-10.895
▁transform	-10.8955
UBA	-10.8957
TIA	-10.896
▁Fn	-10.8972
isomerase	-10.8975
630	-10.8985
En	-10.9006
Pro	-10.9029
cohesin	-10.9035
▁bacteriocin	-10.9035
▁reaction	-10.9035
▁Aceto	-10.9035
▁impli	-10.9035
▁UvrA	-10.9035
occur	-10.9035
▁Reduc	-10.9035
NhaD	-10.9036
Lys	-10.9036
▁Propeptide	-10.9037
AKAP	-10.9038
▁Chl	-10.904
▁DnaQ	-10.9041
Interact	-10.9049
▁BAH	-10.9049
▁Vac	-10.9051
▁pore	-10.9057
AAA	-10.9058
▁facilitator	-10.9059
▁subdomain	-10.9082
▁Integrins	-10.9082
ytic	-10.9094
KCTD	-10.9102
LOS	-10.912
CPSF	-10.9122
DMSOR	-10.9124
homolog	-10.9128
propeptide	-10.9131
Rab	-10.9135
▁EPH	-10.9136
polymerase	-10.9138
▁Thermo	-10.9165
nimal	-10.918
tei	-10.9181
varian	-10.9182
▁Ceruloplasmin	-10.9182
▁Enhancer	-10.9182
▁WXG	-10.9182
▁Viral	-10.9182
eukocyte	-10.9182
▁island	-10.9182
▁GIT	-10.9183
13808	-10.9184
5651	-10.9191
ulfotransferase	-10.9191
4283	-10.9192
rmolysin	-10.9192
▁FAT	-10.92
▁repres	-10.921
▁has	-10.9222
▁Cur	-10.923
▁all	-10.9231
▁Van	-10.9234
LZ	-10.9244
▁Pyr	-10.9246
PER	-10.9248
▁pseudouridylat	-10.9266
lipoyl	-10.9273
▁laccase	-10.9275
▁Tad	-10.9289
Bsp	-10.9295
complex	-10.9299
ABTB	-10.9313
TraG	-10.9315
Hrp	-10.9325
▁Cyc	-10.9327
▁hydrogen	-10.9327
choic	-10.9329
romatin	-10.9331
▁spliceosom	-10.9331
encoded	-10.9331
zeste	-10.9331
aaRS	-10.9331
▁insert	-10.9331
▁BaeS	-10.9331
▁Lethal	-10.9331
▁CHROM	-10.9332
▁numb	-10.9332
▁Dual	-10.9332
▁dDENN	-10.9333
▁CwlO	-10.9333
voran	-10.9334
▁Mono	-10.9345
▁ZU	-10.9351
▁PLAT	-10.9355
FGE	-10.9358
amylases	-10.9371
▁Snf	-10.9372
▁methylation	-10.9382
ribo	-10.9388
▁ClpB	-10.9393
mut	-10.9427
oxidiz	-10.9455
BRCA	-10.9462
sortase	-10.9475
▁Enzyme	-10.9483
▁Jacalin	-10.9483
▁Permease	-10.9483
▁entry	-10.9483
cyanin	-10.9483
▁entF	-10.9483
Bruno	-10.9483
▁WYL	-10.9483
▁RmuC	-10.9483
hepta	-10.9483
Chromatin	-10.9483
▁CLIP	-10.9483
▁Myxococc	-10.9483
ENDO	-10.9484
hydroxyacyl	-10.9487
5576	-10.9488
Sox	-10.949
▁Spa	-10.9494
ache	-10.9495
▁Glg	-10.9504
GRF	-10.9505
5635	-10.9505
▁Epsin	-10.9505
▁PRY	-10.9507
omonas	-10.952
iam	-10.9521
▁2,3-	-10.9524
ba	-10.9531
488	-10.9533
haem	-10.9545
▁copi	-10.9593
▁YD	-10.9596
096)	-10.9614
possibl	-10.9637
tribute	-10.9637
▁LIMPETin	-10.9637
▁Telomere	-10.9637
quinol	-10.9637
▁Lipase	-10.9637
▁scaffold	-10.9637
▁SPEC	-10.9639
2071	-10.9641
▁sortases	-10.9642
steroid	-10.9646
OAS	-10.9648
Tim	-10.9648
bdg	-10.9668
▁SWIB	-10.9673
▁compounds	-10.9677
▁2,4-	-10.9679
FGD	-10.9682
▁CCA	-10.9688
▁Constant	-10.9695
▁HNHc	-10.9699
▁por	-10.9706
GPAT	-10.9714
169	-10.9718
▁1,2-	-10.9733
AZA	-10.9746
GTP	-10.9748
hreonylcarbamoyl	-10.9748
Rep	-10.9757
HIP	-10.9757
aminoacyl	-10.9759
▁Tap	-10.9778
xylosidase	-10.9793
02603	-10.9793
03218	-10.9793
degrading	-10.9793
tubulin	-10.9793
▁Importin	-10.9793
▁cyclophilin	-10.9793
▁mTOR	-10.9793
▁Glucose	-10.9793
▁NUDIX	-10.9793
03918	-10.9793
ammonia	-10.9793
estrogen	-10.9793
▁Tryp	-10.9793
TolQ	-10.9793
▁ComEC	-10.9793
cardio	-10.9793
▁utilisation	-10.9793
▁tuberculosis	-10.9793
Cyclase	-10.9793
▁coactivator	-10.9793
▁Oxysterol	-10.9793
▁heat	-10.9793
▁Homo	-10.9794
▁phosphoesterase	-10.9794
▁Nitro	-10.9796
▁Ada	-10.9796
▁PUA	-10.9797
▁PNP	-10.9797
▁Baculovir	-10.9798
▁terB	-10.9804
angi	-10.9804
▁(2-5	-10.9805
▁VCBS	-10.9807
ligase	-10.9808
ombi	-10.9819
ef	-10.9823
teroid	-10.9831
CBD	-10.984
▁FtsH	-10.985
▁Rat	-10.9868
usB	-10.9873
stimulat	-10.9881
PEF	-10.9892
anchored	-10.9895
Fla	-10.9905
▁VIII	-10.9906
glucosamine	-10.991
opB	-10.9914
279	-10.9923
▁Integr	-10.9935
Ster	-10.9939
taining	-10.995
▁Virulence	-10.9952
06060	-10.9952
yridine	-10.9952
AANH	-10.9952
▁sperm	-10.9952
Lyase	-10.9952
zole	-10.9953
▁ROM	-10.9954
▁CBL	-10.9968
▁Hia	-10.9981
RBR	-10.9985
▁Mob	-10.9992
▁Kx	-10.9997
endo	-10.9997
tenin	-11.0003
umon	-11.0004
MTMR	-11.0016
Sk	-11.0016
dom	-11.0045
xW	-11.0068
▁Int	-11.0075
▁Mg	-11.0075
romatic	-11.0091
TraD	-11.0099
Kinesi	-11.0112
crystallin	-11.0113
▁Barrel	-11.0113
▁Phosphate	-11.0113
▁SnoaL	-11.0113
▁ferritin	-11.0113
▁maintenance	-11.0113
03210	-11.0113
▁DUSP	-11.0113
▁HIRAN	-11.0113
▁isoform	-11.0113
Sulfi	-11.0113
connect	-11.0113
▁Aryl	-11.0113
▁polycomb	-11.0113
Xyl	-11.0114
▁spindle	-11.0115
▁Eye	-11.0116
▁break	-11.0116
▁CotA	-11.0118
SSD	-11.0119
▁Mito	-11.0125
397	-11.0127
rSAM	-11.0131
4625	-11.0134
▁animal	-11.0137
FAF	-11.0145
arabinose	-11.0161
metabolite	-11.0161
▁DHHA	-11.0172
MRP	-11.0173
BFD	-11.0176
tinin	-11.0178
sulfo	-11.0212
SETD	-11.0236
▁Archae	-11.0258
NDP	-11.026
onserved	-11.0271
2345	-11.0271
▁Effector	-11.0277
FBXO	-11.0277
LWEQ	-11.0277
derived	-11.0277
spermidine	-11.0277
▁chaperonin	-11.0277
▁germination	-11.0277
▁mechan	-11.0277
▁Disintegrin	-11.0277
▁ionotropic	-11.0277
▁YbbP	-11.0277
▁serpin	-11.0277
TFIIS	-11.0277
▁CASc	-11.0277
TDRD	-11.0277
▁nitrogen	-11.0277
▁guanylate	-11.0277
▁Lrp	-11.0277
▁retrotransposon	-11.0278
▁CotH	-11.0278
Yhb	-11.0278
▁Nrap	-11.0278
maturase	-11.0279
cyano	-11.0281
▁CUT	-11.0285
4131	-11.0295
rel	-11.0306
▁CbpA	-11.0313
hAT	-11.0316
lit	-11.0327
399	-11.0332
malignan	-11.0338
microtubule	-11.0338
WSD	-11.0341
regulatory	-11.0342
cidic	-11.0378
sks	-11.0385
CDI	-11.0389
gra	-11.0402
PIPK	-11.0405
(3)	-11.0427
▁HECT	-11.0428
▁morphogene	-11.0442
onnector	-11.0443
▁pigment	-11.0443
RdRp	-11.0444
▁GluZincin	-11.0444
▁Somatomedin	-11.0444
▁adapter	-11.0444
▁eukaryotes	-11.0444
▁pylori	-11.0444
valine	-11.0444
▁Surp	-11.0444
▁Smg	-11.0444
▁NPCBM	-11.0445
▁PTEN	-11.0445
▁MinD	-11.0445
▁Nuo	-11.0446
ornithine	-11.0446
▁rod	-11.0452
▁neuro	-11.0453
CelA	-11.0459
cytosolic	-11.0463
RanBP	-11.0479
monophosphate	-11.0501
BORF	-11.0505
SPc	-11.0535
349)	-11.0544
fp	-11.0557
SonI	-11.0564
▁Tet	-11.0564
VPS	-11.0569
FIP	-11.0569
monas	-11.0572
PTPN	-11.0573
▁del	-11.0586
VI	-11.0587
▁fn	-11.0592
cobalamin	-11.0598
PAR	-11.0609
opoisomerase	-11.0612
enorhab	-11.0613
precorrin	-11.0613
▁Calcineurin	-11.0613
▁Delta	-11.0613
▁Fungalysin	-11.0613
▁Interferon	-11.0613
▁Planctomycete	-11.0613
▁cytoskeletal	-11.0613
▁Apoptosis	-11.0613
PCGF	-11.0613
dehydroquina	-11.0613
BPTI	-11.0613
▁FIST	-11.0614
▁Casein	-11.0616
euren	-11.0617
▁AIDA	-11.062
HDAC	-11.062
4968	-11.0621
4704	-11.0621
▁ATG	-11.0621
▁RIH	-11.0622
▁Motor	-11.0627
▁Modifier	-11.0636
LARP	-11.0637
▁SPT	-11.0637
CCHC	-11.0638
PAD	-11.0655
qui	-11.0656
▁urea	-11.0666
oblast	-11.0671
▁MTA	-11.0684
uridylate	-11.0688
NGN	-11.0688
▁CAF	-11.069
Gap	-11.0712
dehydratase	-11.0716
SHR	-11.0716
synthetase	-11.0716
DMT	-11.0741
EK	-11.0758
▁out	-11.0784
presumed	-11.0785
synthesiz	-11.0785
▁Enigma	-11.0785
▁hydrophobic	-11.0785
▁relaxase	-11.0785
▁harmonin	-11.0785
▁STAS	-11.0786
02193	-11.0786
12704	-11.0786
sulfonate	-11.0787
6531)	-11.0789
5110)	-11.079
▁mod	-11.0795
▁Coatomer	-11.08
▁SLC	-11.08
▁MlaD	-11.0809
Nei	-11.0819
Rec	-11.082
LYT	-11.0825
▁AIR	-11.0841
▁DAP	-11.0881
▁Ent	-11.0888
esterase	-11.0888
▁SLT	-11.089
assembly	-11.0909
190	-11.092
▁Phosphodiester	-11.0923
sub	-11.0935
▁Tox	-11.0941
▁activate	-11.0942
spora	-11.0955
conventional	-11.0961
▁Adenylation	-11.0961
▁DnrI	-11.0961
rsenical	-11.0961
00376	-11.0961
hmw	-11.0961
▁Cullin	-11.0961
CDGSH	-11.0961
▁Heat	-11.0961
Yrh	-11.0961
isoleucine	-11.0961
▁RILP	-11.0961
4339)	-11.0962
nake	-11.0965
13837	-11.0966
280	-11.0967
▁RelA	-11.0971
tetrahydro	-11.0974
▁Phn	-11.0976
▁Glucan	-11.0979
3403	-11.0979
PurR	-11.0988
▁CwlA	-11.1001
cano	-11.1003
▁SelB	-11.1016
ound	-11.1016
selenocysteine	-11.1021
(6)	-11.1033
four	-11.1034
1,2,3	-11.1048
3_6	-11.1058
▁MRS	-11.1064
Box	-11.107
include	-11.1086
▁TRF	-11.1091
1_2_	-11.1109
subrepeat	-11.1112
▁RAS	-11.1112
daptor	-11.1118
5048	-11.1121
polymer	-11.1125
utilis	-11.1139
▁Microtubule	-11.1139
lysosomal	-11.1139
muramidase	-11.1139
tMGAM	-11.1139
▁GDSL	-11.1139
▁Internalin	-11.1139
▁Starch	-11.1139
▁homeobox	-11.1139
▁reelin	-11.1139
▁remodell	-11.1139
▁syntaxin	-11.1139
otamase	-11.1139
▁DEXQ	-11.1139
▁Lysyl	-11.114
VirD	-11.114
ANTAR	-11.114
▁PadR	-11.114
▁Organiz	-11.114
PCBP	-11.114
ontrol	-11.1147
▁Dihydro	-11.1151
Cold	-11.1154
521-	-11.1174
637)	-11.1175
phi	-11.1206
ENN	-11.1212
▁HIT	-11.1212
ylate	-11.1246
▁cond	-11.1246
▁HII	-11.1254
antiterminat	-11.1285
▁Cox	-11.1294
▁contact	-11.1309
TNF	-11.1312
▁Homolog	-11.1314
arabino	-11.132
RagA	-11.1321
62_32_68_117_130	-11.1321
▁Adhesion	-11.1321
▁Fascin	-11.1321
▁GoLoco	-11.1321
▁PocR	-11.1321
▁Subtilisin	-11.1321
▁patatin	-11.1321
▁XdhC	-11.1321
▁ANAPC	-11.1321
▁lambda	-11.1321
SmeS	-11.1322
▁Stress	-11.1322
▁LEM	-11.1322
Hpy	-11.1322
PYR	-11.1324
cyclosome	-11.1326
phox	-11.1326
▁Ami	-11.1338
dehydro	-11.1341
MMR	-11.1344
▁Mub	-11.1354
▁band	-11.136
▁subset	-11.1369
PPR	-11.1405
021	-11.1407
slipin	-11.1423
oct	-11.1443
▁oxygen	-11.1467
PQ	-11.1476
▁sus	-11.1485
Smp	-11.1498
hemoreceptor	-11.15
rhamnosid	-11.1502
ivers	-11.1505
ompartment	-11.1506
putrescine	-11.1506
virulence	-11.1506
▁DivIVA	-11.1506
▁Mannosyl	-11.1506
▁pasteuri	-11.1506
▁Glutamine	-11.1506
PEST	-11.1507
Synthase	-11.1507
repressor	-11.1507
Oxy	-11.1507
▁Ribosome	-11.1507
golgi	-11.1507
▁High	-11.1507
▁Grp	-11.1507
▁low	-11.1508
intron	-11.1508
▁TNK	-11.1508
▁oligopeptidase	-11.1509
toga	-11.1511
4124)	-11.1511
Hrs	-11.1512
Mcm	-11.1515
SusC	-11.1517
hermolysin	-11.1524
▁Vpr	-11.1524
▁VSP	-11.1529
0182	-11.1531
▁USP	-11.1537
Nop	-11.1546
MBTL	-11.155
Fco	-11.1597
asm	-11.1604
PARP	-11.1633
hexa	-11.1651
STAM	-11.1663
▁partition	-11.1677
▁flagell	-11.1692
pyridoxal	-11.1695
▁Ferritin	-11.1695
DSRM	-11.1695
Paired	-11.1695
LGIC	-11.1695
tudor	-11.1695
▁substr	-11.1695
▁BIRC	-11.1695
inosa	-11.1695
▁TamB	-11.1696
gluconate	-11.1696
▁Yee	-11.1698
acetate	-11.1698
4781	-11.1702
HHH	-11.1711
125	-11.1713
RsmF	-11.172
ky	-11.1747
▁tolA	-11.1747
2615	-11.1765
karyo	-11.1785
TSC	-11.1789
treptococcal	-11.1803
NAC	-11.1804
XK	-11.1818
NTD	-11.1819
flavin	-11.1866
eoxyribonuclease	-11.187
▁Pyro	-11.1887
desaturase	-11.1887
isomaltase	-11.1887
▁ChtBD	-11.1887
▁Dockerin	-11.1887
▁Propeller	-11.1887
▁STXBP	-11.1887
▁cytoskeleton	-11.1887
▁semaphorin	-11.1887
▁sucrose	-11.1887
▁auxili	-11.1887
▁holin	-11.1887
▁Poxvirus	-11.1887
▁aerug	-11.1887
biotin	-11.1888
▁Rev	-11.1888
Robo	-11.1888
▁PglX	-11.1888
▁hydrocarbon	-11.1888
11447	-11.1888
cepti	-11.1889
▁Saposin	-11.1889
13559	-11.1889
▁TipA	-11.1889
base	-11.1891
▁Neuron	-11.1891
▁diacylglycerol	-11.1891
PKC	-11.1891
▁PRMT	-11.1891
hydroxyacid	-11.1892
11633	-11.1893
▁Glycogen	-11.1895
▁cata	-11.1895
HNF	-11.1895
idogen	-11.1896
▁PAZ	-11.1904
▁RasGAP	-11.1905
▁HECTc	-11.1908
568	-11.1916
XylS	-11.1919
▁mutan	-11.1921
DPG	-11.1925
5022	-11.193
periplasmic	-11.1931
▁sex	-11.1933
var	-11.1936
homology	-11.1938
▁GPR	-11.1942
▁TPP	-11.1972
tricopeptide	-11.1973
dimethyl	-11.1981
meas	-11.1994
▁methano	-11.2006
VII	-11.2009
▁hyper	-11.201
▁Bro	-11.2014
RHD	-11.2014
▁viru	-11.2027
ative	-11.2033
nexin	-11.2035
MCP	-11.2037
merisation	-11.2067
Regulated	-11.2084
conduct	-11.2084
oxoglutarate	-11.2084
phenol	-11.2084
respirat	-11.2084
▁Syntaxin	-11.2084
▁bacteriophage	-11.2084
▁cohesion	-11.2084
▁development	-11.2084
chlorophyll	-11.2084
▁maritim	-11.2084
▁GINS	-11.2084
▁GSDH	-11.2084
▁EMI	-11.2085
▁Vitamin	-11.2086
▁Dimerization	-11.2086
▁Scm	-11.2086
sulfit	-11.2086
galactan	-11.2086
▁TAZ	-11.2087
▁Ataxin	-11.2091
3979	-11.2095
859	-11.2097
leu	-11.2099
IMP	-11.2103
▁Replicati	-11.2112
4951	-11.2126
▁Nuc	-11.2132
▁FATC	-11.2136
cyto	-11.2138
3-9	-11.2143
head	-11.2153
Sty	-11.216
otroph	-11.217
restriction	-11.2176
Grb	-11.2186
less	-11.2187
itin	-11.2192
dimer	-11.2207
triphosphate	-11.2212
▁initiat	-11.2265
CXXC	-11.2266
▁Ataxi	-11.2276
▁Flagell	-11.2281
tilization	-11.2283
circle	-11.2284
etroviral	-11.2284
▁Immunity	-11.2284
▁UvrB	-11.2284
▁chloride	-11.2284
▁mitofusin	-11.2284
Tubulin	-11.2284
SPASM	-11.2284
Septin	-11.2284
▁ELAC	-11.2284
▁Rlm	-11.2284
Lipin	-11.2284
asia	-11.2284
▁Mlt	-11.2284
BrkB	-11.2285
5263	-11.2285
▁SurA	-11.2286
▁DinB	-11.2286
morphogenesis	-11.2286
▁Unc	-11.2289
3291	-11.2289
▁chemoreceptor	-11.229
▁viruses	-11.2291
▁GPI	-11.2292
08026	-11.2292
▁WAP	-11.2295
▁Toxin	-11.2297
4646	-11.2301
▁ShK	-11.2302
HET	-11.2304
▁Ald	-11.2304
▁ERCC	-11.2314
2747	-11.2318
GalR	-11.233
▁Nab	-11.234
pterin	-11.2349
oxidase	-11.2354
▁convertases	-11.2371
MHR	-11.2376
CAD	-11.2403
onstant	-11.2412
▁Agr	-11.2437
RBP	-11.2437
yrimidine	-11.2439
▁globin	-11.2442
PIP	-11.2464
ogenic	-11.2471
ransducer	-11.2487
resistant	-11.2488
repressible	-11.2488
▁MoaA	-11.2488
▁tissue	-11.2488
▁alternat	-11.2488
▁CsgD	-11.2488
▁RsuA	-11.2488
▁mutator	-11.2488
▁Zona	-11.2488
00322	-11.2488
geORF	-11.2488
▁caspase	-11.2488
myloid	-11.2488
00341	-11.2488
4749)	-11.2488
▁RUN	-11.2488
▁Yab	-11.2488
ESRP	-11.2488
▁Ntox	-11.2489
▁divalent	-11.2489
▁antirepressor	-11.2489
▁circular	-11.249
recep	-11.249
▁glob	-11.249
5222	-11.2491
rcB	-11.2491
▁test	-11.2493
▁Link	-11.2494
▁Grou	-11.2496
▁SSL	-11.2506
MATH	-11.2511
▁TadD	-11.2515
3456	-11.2515
Apa	-11.2516
▁Collagenase	-11.2517
NSD	-11.2531
baB	-11.2545
▁BMP	-11.2548
erythr	-11.255
TPL	-11.2572
0251	-11.2576
carboxylase	-11.2594
methylene	-11.2597
CNK	-11.2636
els	-11.2639
nitro	-11.2666
BUB	-11.268
haP	-11.2691
manno	-11.2692
▁Amy	-11.2696
MviN	-11.2696
White	-11.2696
kappa	-11.2696
organelle	-11.2696
▁Pyridoxal	-11.2696
▁Reeler	-11.2696
▁transacylase	-11.2696
▁diiron	-11.2696
▁ArsR	-11.2696
▁microcephal	-11.2696
▁DoxX	-11.2696
rrha	-11.2696
▁ccoP	-11.2696
▁intermediate	-11.2696
▁molybdate	-11.2696
▁HicB	-11.2696
▁LbetaH	-11.2697
path	-11.2697
Sterol	-11.2699
methylguanine	-11.2699
▁WGR	-11.27
order	-11.2702
▁PINCH	-11.2704
▁vici	-11.2707
188	-11.271
▁TadE	-11.2712
11100	-11.2719
Whe	-11.2723
NEW	-11.2726
zo	-11.2735
.1.	-11.2735
▁HPr	-11.2737
094)	-11.2748
▁SAB	-11.275
▁lympho	-11.2754
5013	-11.2757
▁far	-11.277
YAP	-11.2771
▁Lig	-11.2791
748)	-11.281
ubiquitin	-11.2828
bact	-11.2833
inositide	-11.2848
NPP	-11.2858
▁HIII	-11.2874
4,5-	-11.2901
ublecortin	-11.2909
▁Creatinase	-11.2909
▁maltase	-11.2909
pyrophosphate	-11.2909
uconolacton	-11.2909
▁Centrosom	-11.2909
▁KdpD	-11.2909
▁Neisseria	-11.2909
▁centrosom	-11.2909
▁pellucida	-11.2909
▁rhombo	-11.2909
▁telomere	-11.2909
▁LytT	-11.2909
▁MazG	-11.2909
▁ZapB	-11.2909
▁pota	-11.291
Alix	-11.291
13435	-11.291
generat	-11.291
mtB	-11.291
▁Spy	-11.2911
▁MBG	-11.2911
▁Tetracyclin	-11.2912
▁Spore	-11.2915
arabinanase	-11.2916
2510)	-11.2918
mfp	-11.2919
CSTF	-11.292
PGF	-11.2921
DHQ	-11.2922
FOXO	-11.2928
▁Vas	-11.2929
▁BRO	-11.2939
nical	-11.2959
butyrate	-11.2964
2070	-11.2972
bru	-11.3002
TIP	-11.3004
oglobu	-11.3043
ARID	-11.3065
efflux	-11.3066
central	-11.3067
▁compound	-11.3069
exporters	-11.3096
098	-11.31
▁gate	-11.3104
▁Methan	-11.3114
▁Tub	-11.3117
▁chromati	-11.3119
▁Nucleo	-11.3124
lectron	-11.3124
▁carcino	-11.3125
▁kana	-11.3126
semialdehyde	-11.3126
▁consist	-11.3126
▁leukemia	-11.3126
▁desuccinylase	-11.3126
▁neural	-11.3126
▁sterol	-11.3126
05691	-11.3126
alized	-11.3126
NAGLU	-11.3126
▁STARD	-11.3126
▁TRPV	-11.3126
▁blue	-11.3126
▁doublecortin	-11.3126
GANP	-11.3126
▁ALDH	-11.3126
CEACAM	-11.3126
▁Sperm	-11.3126
TUS	-11.3127
NifB	-11.3127
MSSP	-11.3128
ntactin	-11.313
▁rab	-11.3131
▁methylesterase	-11.3132
▁Isl	-11.3132
ACK	-11.3132
▁perip	-11.3133
orange	-11.3134
▁Imm	-11.3138
AIG	-11.3142
▁MIR	-11.3168
itive	-11.3168
▁Tripartite	-11.3174
▁Lep	-11.3182
▁Bim	-11.3204
967	-11.3218
▁RAMP	-11.3219
Leu	-11.3222
Neu	-11.3225
DPP	-11.3226
▁mobil	-11.3233
▁epoxid	-11.3253
▁ADA	-11.3262
blast	-11.3273
transport	-11.3288
deaminase	-11.3308
RhoGEF	-11.3311
ficu	-11.3326
▁tel	-11.3331
prot	-11.3334
sensing	-11.3343
hemoglobin	-11.3348
▁Proteasome	-11.3348
Glycerol	-11.3348
PqqD	-11.3348
anthranilate	-11.3348
cuticle	-11.3348
glucoamylase	-11.3348
glucomutase	-11.3348
uracil	-11.3348
uroporphyrinogen	-11.3348
yridoxamine	-11.3348
▁Cluster	-11.3348
▁Glutamate	-11.3348
▁Hormone	-11.3348
▁TOPRIM	-11.3348
▁lactose	-11.3348
▁Filament	-11.3348
▁Hetero	-11.3348
▁Wza	-11.3348
▁HDOD	-11.3348
▁YfaS	-11.3348
▁influenza	-11.3348
ermentation	-11.3348
▁TOBE	-11.3348
▁toxic	-11.3349
▁ADOP	-11.3349
▁steril	-11.3349
▁CheB	-11.335
▁via	-11.335
nectin	-11.335
SPOP	-11.3351
nuc	-11.3352
▁Salt	-11.3353
▁liv	-11.3353
-1,3-	-11.3357
908	-11.3371
▁Alg	-11.3375
CEA	-11.3384
▁stage	-11.3396
▁HPS	-11.3414
MAPK	-11.3418
▁thi	-11.3423
▁Ure	-11.3429
thanogen	-11.345
LCC	-11.3454
▁KAP	-11.3459
cetylcholine	-11.3483
▁Hel	-11.3497
EphA	-11.3523
▁PAX	-11.3552
▁Solu	-11.3553
spore	-11.356
▁extr	-11.356
activator	-11.356
carrier	-11.3561
▁Tau	-11.3565
convert	-11.3575
flavodoxin	-11.3576
serralysin	-11.3576
▁Chorismate	-11.3576
▁Dehydratase	-11.3576
▁amidohydrolase	-11.3576
methanopterin	-11.3576
▁Cobalamin	-11.3576
▁Tropomyosin	-11.3576
▁lipocalin	-11.3576
24377	-11.3576
▁TFIIB	-11.3576
▁Hypo	-11.3576
▁ribonucleoside	-11.3576
Sipho	-11.3576
▁dnaA	-11.3576
▁OCRE	-11.3576
MoxR	-11.3577
2723)	-11.3577
HisCys	-11.3577
▁TIAR	-11.3578
RlpA	-11.358
Glc	-11.358
11198	-11.3582
▁Caps	-11.3583
10856	-11.3585
▁anaerobic	-11.3585
dicarboxylate	-11.3586
▁Methanococc	-11.3588
▁extra	-11.359
uvrC	-11.3591
3585	-11.3591
nner	-11.3602
debranch	-11.3604
▁Cpd	-11.3608
▁occlu	-11.361
PABC	-11.3626
▁globins	-11.364
CorA	-11.364
▁GDP	-11.364
▁MED	-11.3649
PBD	-11.3651
▁TEL	-11.3652
galact	-11.3703
Bsu	-11.3704
▁KU	-11.3719
hydroxymethyl	-11.3728
ensory	-11.3742
1470	-11.3766
ister	-11.3774
dihydroxy	-11.3796
range	-11.38
2/3	-11.3807
uperoxide	-11.3808
▁Respiratory	-11.3808
Acylhydrolase	-11.3808
ascorbate	-11.3808
myelin	-11.3808
segment	-11.3808
translocating	-11.3808
▁Oxidative	-11.3808
▁Peroxisom	-11.3808
▁Repressor	-11.3808
▁asymmetry	-11.3808
yrosyl	-11.3808
▁possess	-11.3808
▁InlJ	-11.3808
▁self	-11.3808
▁CtpA	-11.3808
▁SprT	-11.3808
▁Fkb	-11.3808
4190)	-11.3809
▁FeoA	-11.3809
homocysteine	-11.3809
▁LCCL	-11.381
▁TerD	-11.381
homoserine	-11.381
▁AHH	-11.3814
leucine	-11.3817
10537	-11.3817
vel	-11.382
ophilus	-11.3823
attac	-11.3828
new	-11.3828
very	-11.3829
▁TPM	-11.3834
iens	-11.3834
▁Lim	-11.385
lium	-11.3857
VASP	-11.3892
osis	-11.3975
THE	-11.3982
reduct	-11.4011
xide	-11.4028
olog	-11.403
ORC	-11.4038
▁Myotubulari	-11.4039
▁Thioester	-11.4042
plasm	-11.4044
peron	-11.4046
Cytoskeleton	-11.4046
imkain	-11.4046
infection	-11.4046
▁Flavodoxin	-11.4046
▁LAGLIDADG	-11.4046
▁Malonyl	-11.4046
▁centromere	-11.4046
▁mannitol	-11.4046
▁peroxisom	-11.4046
▁nitroreductase	-11.4046
Esterase	-11.4046
▁SpoIID	-11.4046
4430)	-11.4047
▁Bud	-11.4047
NifU	-11.4047
▁Finger	-11.4048
GABA	-11.4048
▁Hydro	-11.4048
▁metalloenzyme	-11.4048
▁endolysin	-11.4049
face	-11.4049
▁DDHD	-11.405
3857)	-11.4051
asmic	-11.4051
▁TLD	-11.4052
antifungal	-11.4052
▁Thiamine	-11.4054
LYR	-11.4056
▁peroxidases	-11.4059
ART	-11.4059
▁RsmB	-11.4064
PPase	-11.4068
5141	-11.4071
▁Macro	-11.408
▁Vip	-11.4082
phosphoribosyl	-11.4083
Kinase	-11.4088
RepB	-11.4088
KBTBD	-11.41
phosphoserine	-11.4103
▁HAT	-11.4145
phan	-11.416
heterocycl	-11.4175
▁Dac	-11.4187
olar	-11.4188
ati	-11.4189
elated	-11.4203
▁Aero	-11.4227
▁Inactivat	-11.4229
KIFC	-11.4252
cystin	-11.4256
▁transposon	-11.4261
leavage	-11.4284
▁xanth	-11.4285
valent	-11.4289
277	-11.429
▁Pericentri	-11.429
▁Shufflon	-11.429
PqqE	-11.429
deaminat	-11.429
starvation	-11.429
▁Hemocyanin	-11.429
▁TUDOR	-11.429
▁leader	-11.429
▁medium	-11.429
▁pheromone	-11.429
▁three	-11.429
matrix	-11.429
▁YbgF	-11.429
▁CdaR	-11.429
▁EEXX	-11.429
▁META	-11.429
▁HNOBA	-11.429
HupR	-11.429
3298)	-11.429
▁calpain	-11.429
▁Notch	-11.429
▁RPEL	-11.4291
teichu	-11.4291
altoporin	-11.4291
LlaA	-11.4291
▁fibronectin	-11.4292
4440)	-11.4292
3365)	-11.4294
▁CzcO	-11.4295
▁neuron	-11.4301
▁COR	-11.4306
AID	-11.431
▁NPL	-11.431
1579	-11.432
1829	-11.4321
6445	-11.4323
IND	-11.4336
4,6-	-11.4339
▁concanavalin	-11.434
13800	-11.4347
VED	-11.4348
export	-11.435
▁Tec	-11.4375
aminomethyl	-11.4376
NOB	-11.4377
LIM	-11.4392
▁ASC	-11.4422
▁Strepto	-11.4472
enzyme	-11.448
802)	-11.4485
3800	-11.4509
oglycan	-11.4521
▁Transform	-11.4528
▁thioester	-11.4532
▁Transport	-11.4535
inhib	-11.4539
▁chaper	-11.454
▁Retinoblastoma	-11.454
▁clathrin	-11.454
mitotic	-11.454
repetitive	-11.454
▁Excalibur	-11.454
▁FhlA	-11.454
▁Plasmodium	-11.454
▁castaneum	-11.454
YfiO	-11.454
rhodo	-11.454
▁TrwC	-11.454
▁dTDP	-11.454
▁AcrA	-11.454
▁FrsA	-11.454
▁Inver	-11.454
▁PINIT	-11.454
▁Dehydrogenase	-11.454
▁Mov	-11.454
Intein	-11.454
▁CLASP	-11.4541
ssRNA	-11.4542
▁PET	-11.4542
raf	-11.4542
▁promoter	-11.4542
oxoacid	-11.4543
vinyl	-11.4543
hydroperoxidase	-11.4544
ARFs	-11.4545
SonIV	-11.4545
▁cargo	-11.4546
▁autopeptidase	-11.4546
phos	-11.4549
▁Formylglycin	-11.455
hro	-11.4555
Dsr	-11.4564
1595	-11.4565
▁Surfact	-11.4565
2605	-11.4567
Ligase	-11.4568
reduc	-11.4571
TFPI	-11.4575
▁Paxillin	-11.4582
▁Eut	-11.4596
autotrans	-11.4599
rigin	-11.4616
uridylyl	-11.4624
most	-11.4629
exonuclease	-11.463
Prol	-11.4716
saccharide	-11.4746
▁Maf	-11.478
lactone	-11.4797
▁TrwB	-11.4797
Ethanolamine	-11.4797
mltA	-11.4797
▁Alanine	-11.4797
▁Amelogenin	-11.4797
▁FLYWCH	-11.4797
▁Fimbrillin	-11.4797
▁flippase	-11.4797
▁homodimeric	-11.4797
▁sheath	-11.4797
▁ortholog	-11.4797
▁dismutase	-11.4797
▁encoding	-11.4797
3369)	-11.4797
15426	-11.4797
▁SASA	-11.4797
FAAL	-11.4797
ulgari	-11.4798
5301	-11.4799
▁RFX	-11.48
NrfG	-11.48
▁integrity	-11.4802
▁sister	-11.4803
▁DEP	-11.4804
ternal	-11.4805
▁BBS	-11.4806
4071	-11.4813
▁KIFI	-11.4819
▁diphosphatase	-11.4824
4255	-11.4831
Asn	-11.4839
▁dif	-11.4844
▁PIK	-11.4857
▁coagula	-11.4864
VIIa	-11.4864
ANI	-11.4892
Trp	-11.4913
aste	-11.4913
erine	-11.4917
NIM	-11.4926
1268	-11.4958
▁Insect	-11.502
ucosidase	-11.5035
▁Wi	-11.5039
POL	-11.5044
releas	-11.5059
plexins	-11.506
LytB	-11.506
hydrate	-11.506
immune	-11.506
▁Dishevelled	-11.506
▁IgGFc	-11.506
▁Kalirin	-11.506
▁Pyocin	-11.506
▁network	-11.506
▁racemase	-11.506
▁FimV	-11.506
▁UBCc	-11.506
▁FGGY	-11.506
▁Pilus	-11.506
02952	-11.506
▁CYTH	-11.5061
PgrA	-11.5061
▁talin	-11.5061
omologues	-11.5061
▁WHG	-11.5062
5236	-11.5062
ThrRS	-11.5062
▁SusD	-11.5062
▁met	-11.5065
▁Cilia	-11.5066
SNX	-11.5067
▁Longin	-11.507
772)	-11.5071
xxW	-11.5071
4414)	-11.5072
▁VWD	-11.5078
rile	-11.5083
derma	-11.5086
eptidyl	-11.5087
viridae	-11.5094
ULE	-11.5111
▁ful	-11.512
▁Serp	-11.5123
▁YTH	-11.5125
554	-11.5173
cytochrome	-11.5208
Ydc	-11.5261
nia	-11.5271
▁Surf	-11.5278
ulinase	-11.5288
TraA	-11.5302
morphi	-11.5319
▁Fibro	-11.533
▁BcsQ	-11.533
▁PepSY	-11.533
▁YwqK	-11.533
▁apparatus	-11.533
▁aspartic	-11.533
▁pyocins	-11.533
09793	-11.533
▁synapt	-11.533
▁SWIRM	-11.533
knob	-11.533
▁Testin	-11.533
4782)	-11.533
▁YdiL	-11.533
MurJ	-11.533
WNK	-11.533
▁Nqr	-11.533
1592)	-11.5331
4082)	-11.5331
Srx	-11.5332
Passenger	-11.5332
▁prenyl	-11.5333
▁thym	-11.5333
▁Dys	-11.5337
15098	-11.5338
Suv	-11.5342
▁Phyt	-11.5344
▁BBC	-11.5345
role	-11.5353
4163	-11.5353
3655	-11.5356
▁Tuba	-11.5368
uccinylglutamate	-11.537
▁insulin	-11.5372
argo	-11.5397
ustri	-11.541
AmiR	-11.5434
883	-11.5448
5-6	-11.5455
▁DHH	-11.5482
nitrite	-11.551
PDZ	-11.5513
transporter	-11.5518
▁Erythro	-11.5531
3459	-11.5539
FCP	-11.5557
ppGpp	-11.5608
▁AbrB	-11.5608
▁Arabinose	-11.5608
▁Arginine	-11.5608
▁HEPN	-11.5608
▁Holliday	-11.5608
▁Recombination	-11.5608
▁Sulfate	-11.5608
▁UvrC	-11.5608
▁capsule	-11.5608
▁transaminase	-11.5608
Exchange	-11.5608
▁catalase	-11.5608
▁Synapt	-11.5608
FRMD	-11.5608
▁TilS	-11.5608
Mtase	-11.5609
1566)	-11.5609
ntire	-11.5609
MARCH	-11.5609
4062)	-11.5609
▁SusF	-11.5609
1553)	-11.561
▁Axin	-11.561
▁Yaa	-11.561
▁sucrase	-11.561
▁TerB	-11.5611
▁SIT	-11.5611
▁UNC	-11.5612
1588)	-11.5613
5113)	-11.5614
1983)	-11.5617
DYN	-11.5619
ovar	-11.5619
TCF	-11.5619
4219)	-11.5621
▁TauE	-11.5622
▁HAS	-11.5628
▁Brl	-11.5632
CXXCH	-11.5633
▁Photo	-11.5641
▁SUZ	-11.5645
mov	-11.5645
NFX	-11.5651
▁RsbR	-11.5654
▁APG	-11.566
ecA	-11.5678
Proto	-11.568
ComA	-11.5704
RASSF	-11.5709
yrophosphokinase	-11.5711
FIX	-11.5725
itic	-11.5775
osmo	-11.5809
similar	-11.5825
468	-11.5842
▁Threonyl	-11.5875
Bacteri	-11.5892
▁granule	-11.5893
▁FlhF	-11.5893
▁Prickle	-11.5893
▁RodZ	-11.5893
▁Transglut	-11.5893
▁Treacle	-11.5893
▁arylsulfatase	-11.5893
▁attractin	-11.5893
▁chorismate	-11.5893
▁crotonase	-11.5893
▁disintegrins	-11.5893
▁drebrin	-11.5893
▁killer	-11.5893
▁selenium	-11.5893
▁septum	-11.5893
ncoordinated	-11.5893
xylose	-11.5893
▁echino	-11.5893
▁unkn	-11.5893
00395	-11.5894
▁YceG	-11.5894
▁Oxygen	-11.5894
▁PNGase	-11.5894
scent	-11.5894
▁MiaB	-11.5894
glucuronidase	-11.5894
▁ribokinase	-11.5894
▁riboflavin	-11.5894
13335	-11.5894
▁HipA	-11.5894
▁macrolide	-11.5894
ndophilin	-11.5895
▁EamA	-11.5895
▁GPHH	-11.5895
▁exosortase	-11.5895
▁Cauli	-11.5895
1549)	-11.5895
▁SLX	-11.5895
▁Ldc	-11.5896
DAGK	-11.5896
▁DBL	-11.5897
ribonucleotide	-11.5897
annas	-11.5898
▁intra	-11.5898
4388)	-11.5898
▁retinoid	-11.5899
▁FNIP	-11.5899
modif	-11.5899
parB	-11.59
▁Transferase	-11.59
TRAF	-11.5906
SPIC	-11.5909
▁not	-11.5909
SURF	-11.5912
methylpyrimidine	-11.5933
1904	-11.5943
▁Halo	-11.6018
Hydroxy	-11.6101
chloro	-11.6114
▁erythro	-11.6141
molecul	-11.6146
Factor	-11.6147
metallo	-11.6152
▁mitochondri	-11.6169
plastic	-11.6174
▁Long	-11.6176
recursor	-11.6178
▁Czc	-11.6184
▁Que	-11.6187
▁Anticodon	-11.6188
02682	-11.6188
FRMPD	-11.6188
catechol	-11.6188
invasin	-11.6188
tryptophan	-11.6188
xylulose	-11.6188
▁Crystall	-11.6188
▁Piwi	-11.6188
▁THUMP	-11.6188
▁competence	-11.6188
▁fragment	-11.6188
▁histidinol	-11.6188
▁retinoblastoma	-11.6188
▁tricorn	-11.6188
neurotransmitter	-11.6188
▁UnbV	-11.6188
▁Citrate	-11.6188
ectodomain	-11.6188
▁Oligonucleotide	-11.6188
▁invasion	-11.6188
▁MMPL	-11.6188
▁Extensin	-11.6188
adaptin	-11.6188
ntermediate	-11.6188
▁zeta	-11.6188
▁Arrestin	-11.6188
free	-11.6189
▁BRX	-11.6189
OapA	-11.6189
malate	-11.6189
abp	-11.619
▁Numb	-11.619
Pgl	-11.6191
▁Purine	-11.6191
▁Glyoxalase	-11.6191
RCBTB	-11.6191
▁HerA	-11.6192
oides	-11.6195
▁dinucleotide	-11.6196
EPS	-11.6197
14949	-11.6198
carnitine	-11.62
APLT	-11.62
▁prodomain	-11.6213
oside	-11.6223
polyprotein	-11.6226
▁MOR	-11.6239
▁rim	-11.6287
▁CXC	-11.63
GCS	-11.6305
▁DMSO	-11.6307
ropionate	-11.6322
xtradiol	-11.6326
BCL	-11.6344
ACE	-11.6381
methylthio	-11.6386
▁FAR	-11.6388
ymphoma	-11.6407
▁leucin	-11.6469
▁Elongat	-11.6473
Sema	-11.6477
histone	-11.6479
Extracellular	-11.6479
relate	-11.648
Peptidase	-11.6481
▁biogenes	-11.649
▁Melanoc	-11.6491
EbpS	-11.6491
RalGDS	-11.6491
hondroitin	-11.6491
inetochore	-11.6491
▁Bravo	-11.6491
▁ErfK	-11.6491
▁Tensin	-11.6491
▁Transferrin	-11.6491
▁YtxH	-11.6491
methylglutaryl	-11.6491
Nitrite	-11.6491
▁synaps	-11.6491
05035	-11.6491
09039	-11.6491
▁elast	-11.6491
▁Colicin	-11.6491
▁tape	-11.6491
inducing	-11.6491
▁czt	-11.6491
▁mucin	-11.6491
▁Rhodop	-11.6491
12495	-11.6491
13561	-11.6491
aminoimidazole	-11.6491
PulE	-11.6491
▁ImpA	-11.6492
proteobacterial	-11.6492
▁resolvase	-11.6493
LRE	-11.6494
▁phosphotyrosine	-11.6494
▁TenA	-11.6495
▁paralog	-11.6495
Arl	-11.6499
Spec	-11.6502
Icm	-11.6502
cytidine	-11.6506
▁SpoU	-11.6506
10819	-11.6512
▁dipeptidase	-11.6512
▁polymy	-11.6513
3675	-11.6514
▁HPT	-11.6519
PITP	-11.6528
associat	-11.6551
carr	-11.6587
istin	-11.6652
Xaa	-11.6699
Ect	-11.6703
▁prote	-11.6711
▁aceto	-11.6746
▁heptos	-11.6766
▁Ync	-11.6793
rohibitin	-11.6794
asparaginase	-11.6803
diaminopimelate	-11.6803
ferrochelatase	-11.6803
requiring	-11.6803
rokaryotes	-11.6803
▁Fusilli	-11.6803
▁Keratin	-11.6803
▁Rubredoxin	-11.6803
▁Uracil	-11.6803
▁desulfurase	-11.6803
▁invertase	-11.6803
▁multifunctional	-11.6803
▁succinogenes	-11.6803
▁Alanyl	-11.6803
▁Arginase	-11.6803
▁Carbamoyl	-11.6803
▁terminase	-11.6803
▁cross	-11.6803
▁folate	-11.6803
▁albomyces	-11.6803
▁Alkyl	-11.6803
▁kgd	-11.6803
▁LprI	-11.6803
▁JNK	-11.6803
10935	-11.6803
▁CopC	-11.6803
▁Evf	-11.6804
▁cotransporter	-11.6804
▁Anillin	-11.6804
▁exci	-11.6804
vWA	-11.6804
▁root	-11.6804
▁SQR	-11.6804
▁TolC	-11.6805
▁RGL	-11.6805
▁DedD	-11.6806
▁electron	-11.6806
ABRA	-11.6807
hydroxyiso	-11.6807
epsin	-11.6807
▁nucleolin	-11.6808
▁transcr	-11.681
4129)	-11.6812
Mrp	-11.6814
gest	-11.6814
3584	-11.6817
KOW	-11.6821
nospora	-11.6834
▁stimulator	-11.6942
FeFe	-11.6986
RNaseH	-11.7026
activation	-11.7069
clusion	-11.7078
TAR	-11.7125
characterized	-11.7125
▁neighbor	-11.7126
anticodon	-11.7126
aspartoacylase	-11.7126
opullul	-11.7126
porphyrin	-11.7126
ribulose	-11.7126
▁Oryza	-11.7126
▁Pumilio	-11.7126
▁Telomerase	-11.7126
▁cleave	-11.7126
▁contexts	-11.7126
▁deiminase	-11.7126
MICU	-11.7126
orticotropin	-11.7126
thiazole	-11.7126
▁Protease	-11.7126
▁affect	-11.7126
dipicolin	-11.7126
sclero	-11.7126
▁RsiW	-11.7126
viol	-11.7126
▁ferro	-11.7126
▁NosR	-11.7126
alkalin	-11.7126
PgdA	-11.7126
▁MAGI	-11.7126
Induc	-11.7126
▁GspE	-11.7126
▁PgaB	-11.7126
▁ssDNA	-11.7126
▁MTABC	-11.7126
dnl	-11.7126
▁SATB	-11.7127
▁marine	-11.7127
Yhf	-11.7128
00169	-11.7129
pyrrol	-11.7129
proposed	-11.713
Hrc	-11.713
▁TorS	-11.7131
tRNase	-11.7135
1524)	-11.7139
▁PCI	-11.714
▁MON	-11.7141
PDI	-11.7151
BMC	-11.7165
CpG	-11.7167
calmodulin	-11.7177
auto	-11.7179
galactose	-11.718
▁Geobac	-11.7191
secretin	-11.72
BCS	-11.7263
▁chol	-11.7285
▁Cho	-11.7295
biotic	-11.7364
TraB	-11.7389
uba	-11.7441
Adenosyl	-11.7458
▁Penta	-11.7459
Oligo	-11.7459
apopto	-11.7459
isopropylmalate	-11.7459
sparaginyl	-11.7459
transglutaminase	-11.7459
▁APOBEC	-11.7459
▁Aldehyde	-11.7459
▁Anthranilate	-11.7459
▁Auxin	-11.7459
▁Cathepsin	-11.7459
▁HemX	-11.7459
▁KCNQ	-11.7459
▁NUMOD	-11.7459
▁YdfJ	-11.7459
▁ephrin	-11.7459
▁Intron	-11.7459
▁Trypanosom	-11.7459
02228	-11.7459
▁protoglobin	-11.7459
raver	-11.7459
▁Patz	-11.7459
▁dsRNA	-11.7459
▁TcdB	-11.7459
▁WxL	-11.7459
▁Head	-11.7459
UUR	-11.7459
▁MscS	-11.7459
▁Brain	-11.7459
▁IcaB	-11.7459
▁AMOP	-11.7459
▁PilB	-11.746
▁neuropeptide	-11.746
Fcgamma	-11.746
transhydrogenase	-11.746
▁Smr	-11.7461
lantibiotic	-11.7462
7,8-	-11.7462
▁exosome	-11.7462
Bard	-11.7463
▁transformation	-11.7464
▁NXF	-11.7464
▁SRCR	-11.7465
02844	-11.7466
AIRE	-11.7467
▁nex	-11.7468
10549	-11.747
Tag	-11.7471
SPARC	-11.7471
▁ASD	-11.7473
▁chloroplast	-11.7475
3887	-11.7476
LHP	-11.7495
AlgR	-11.7499
flavoprotein	-11.7549
Src	-11.7557
coat	-11.7664
▁pyrophospho	-11.7677
xtension	-11.7684
hosphoglycerate	-11.7712
▁cytokine	-11.7719
bpA	-11.7729
▁Rsm	-11.774
ctivating	-11.7759
pyrimidin	-11.7762
ophil	-11.7772
Anks	-11.7781
▁nicotin	-11.7787
erminus	-11.7794
east	-11.7794
suppress	-11.7795
▁homo	-11.78
▁AbiEi	-11.78
oglobin	-11.7804
03077	-11.7804
Hedgehog	-11.7804
aseplate	-11.7804
cleaning	-11.7804
yristoyl	-11.7804
▁Aspartate	-11.7804
▁Chorein	-11.7804
▁OsmC	-11.7804
▁YgiQ	-11.7804
▁fungi	-11.7804
▁heterochromatin	-11.7804
▁opacity	-11.7804
▁phytase	-11.7804
hemoprotein	-11.7804
▁Alginate	-11.7804
▁Chromate	-11.7804
▁Molecul	-11.7804
▁SkgA	-11.7804
▁FUSC	-11.7804
▁incorporat	-11.7804
▁mycofact	-11.7804
▁Flavo	-11.7804
00184	-11.7804
5776)	-11.7804
▁Wbp	-11.7804
gland	-11.7804
copS	-11.7804
purinic	-11.7805
TnsA	-11.7805
▁Fyn	-11.7805
▁recQ	-11.7805
▁deform	-11.7806
▁carcinoma	-11.7806
▁plasma	-11.7806
IGF	-11.7806
09959	-11.7808
Gsm	-11.7808
▁LCL	-11.7809
glycohydrolase	-11.7811
SIZ	-11.7812
15313	-11.7812
▁tit	-11.7813
▁Wca	-11.7813
4157)	-11.7814
aurine	-11.7814
▁cytotoxin	-11.7818
3471	-11.7846
▁siali	-11.7855
ntitoxin	-11.7856
pain	-11.7866
▁Kai	-11.7872
osens	-11.7916
SWIM	-11.7933
trypsin	-11.7933
shock	-11.7935
SNARE	-11.7936
calcium	-11.7937
Phage	-11.7937
transpos	-11.7938
euk	-11.8001
Prim	-11.8034
ubunit	-11.8103
ospori	-11.8112
oson	-11.8136
Specific	-11.8139
▁Siroh	-11.8139
process	-11.8143
dens	-11.8156
itamin	-11.8157
riad	-11.8159
change	-11.8161
automerase	-11.8161
naphthalene	-11.8161
pfkB	-11.8161
yrophosphorylase	-11.8161
▁Glutaredoxin	-11.8161
▁LMWP	-11.8161
▁Latrophilin	-11.8161
▁RICIN	-11.8161
▁Rhamno	-11.8161
▁Rubrerythrin	-11.8161
▁decahem	-11.8161
▁deubiquitinase	-11.8161
▁machinery	-11.8161
▁Formate	-11.8161
▁MlrA	-11.8161
hexose	-11.8161
▁Borrelia	-11.8161
▁MgtE	-11.8161
oundabout	-11.8161
▁Adenovir	-11.8161
▁PilJ	-11.8161
Fruct	-11.8161
starch	-11.8161
▁Helitron	-11.8161
knot	-11.8161
26695	-11.8161
metallochaperone	-11.8161
GABAAR	-11.8161
FReD	-11.8161
THOC	-11.8161
▁Jag	-11.8161
11466	-11.8162
▁remodeling	-11.8162
ethenyl	-11.8162
▁house	-11.8162
▁Yeb	-11.8162
▁KNOX	-11.8163
▁GumC	-11.8163
aquat	-11.8163
▁Nucleoid	-11.8164
Emr	-11.8166
3824)	-11.8167
▁sho	-11.8169
Abl	-11.817
Rsf	-11.8172
photoreceptor	-11.8181
microcin	-11.8251
imidazole	-11.8273
▁nodul	-11.8277
alactoside	-11.8319
YDR	-11.8323
determin	-11.8324
Recombinase	-11.8336
SAPK	-11.839
seudomonas	-11.8509
peri	-11.851
comb	-11.8521
pindle	-11.8526
▁Chromo	-11.8527
▁different	-11.8529
propanediol	-11.8531
silencing	-11.8531
▁Cystatin	-11.8531
▁Glucodextran	-11.8531
▁Gluconate	-11.8531
▁Granulin	-11.8531
▁Syndecan	-11.8531
▁Toprim	-11.8531
▁YARHG	-11.8531
▁adheren	-11.8531
▁ascorbase	-11.8531
▁microbial	-11.8531
▁typhimurium	-11.8531
manganese	-11.8531
▁Penicillin	-11.8531
▁dextrinase	-11.8531
▁kindlin	-11.8531
hydroxyglutar	-11.8531
▁HsdR	-11.8531
▁cobyri	-11.8531
▁YEATS	-11.8531
▁play	-11.8531
EcoRII	-11.8532
(561)	-11.8532
▁YbbR	-11.8532
▁repression	-11.8532
▁Rfb	-11.8532
XVIII	-11.8532
▁WASH	-11.8532
▁LamB	-11.8532
▁emer	-11.8532
14971	-11.8532
▁Yhc	-11.8532
ethylphosphonate	-11.8532
propep	-11.8532
▁gall	-11.8533
AtARP	-11.8534
ARNT	-11.8534
▁appendage	-11.8535
▁TroA	-11.8535
▁capsula	-11.8535
▁exoribonuclease	-11.8536
▁FDF	-11.8537
largest	-11.8539
RQC	-11.8542
▁monocyt	-11.8552
▁mari	-11.8556
Dcp	-11.8558
TAM	-11.8576
medin	-11.8616
sativ	-11.8661
ensing	-11.8732
propion	-11.8743
antagonist	-11.875
mannosyl	-11.8756
RNase	-11.8762
▁Triphosphat	-11.8781
▁chi	-11.8804
▁Polymer	-11.8898
▁Uroporphyrin	-11.8911
dehyd	-11.8914
matur	-11.8915
xclu	-11.8915
Kappa	-11.8916
PACSIN	-11.8916
angiotensin	-11.8916
▁Down	-11.8916
▁Isoprenoid	-11.8916
▁Rubisco	-11.8916
▁Terminase	-11.8916
▁YwqJ	-11.8916
▁argonaute	-11.8916
▁eumetazoa	-11.8916
▁ponsin	-11.8916
▁viroplasmin	-11.8916
Cortactin	-11.8916
glutamic	-11.8916
polyprenyl	-11.8916
▁hepat	-11.8916
▁nitric	-11.8916
▁MARTX	-11.8916
▁YddW	-11.8916
▁Sulfatase	-11.8916
▁YafY	-11.8916
09706	-11.8916
09737	-11.8916
stability	-11.8916
05901	-11.8916
09419	-11.8916
DAZAP	-11.8916
over	-11.8916
▁YccC	-11.8916
▁valS	-11.8916
00183	-11.8916
▁Htaa	-11.8916
▁defens	-11.8916
▁split	-11.8916
trisphosphate	-11.8916
4178)	-11.8917
UHRF	-11.8917
otonin	-11.8917
▁MISS	-11.8917
4200)	-11.8917
▁XRN	-11.8918
▁Lpp	-11.8919
natur	-11.8919
9.2	-11.8919
TLN	-11.8919
▁KSR	-11.8919
▁prosta	-11.8926
porter	-11.8928
SIK	-11.8944
colla	-11.8945
SRY	-11.8946
▁feli	-11.895
0129	-11.8952
PRES	-11.8955
ihydroxyaceto	-11.8988
EndoU	-11.9068
▁proliferat	-11.9132
antothenate	-11.9181
dihydropyrimidin	-11.9209
philus	-11.9262
itron	-11.9309
▁replicati	-11.9313
entine	-11.9313
ssenger	-11.9314
seleno	-11.9315
▁Folliculin	-11.9316
bridg	-11.9316
eficiency	-11.9316
eukaryota	-11.9316
flower	-11.9316
hosphoglycolate	-11.9316
malonyl	-11.9316
odextrin	-11.9316
oxoprolinase	-11.9316
retinol	-11.9316
▁Fimbrial	-11.9316
▁KhtT	-11.9316
▁LytD	-11.9316
▁Oxidoreductase	-11.9316
▁Retinal	-11.9316
▁TaqI	-11.9316
▁Ubiquinol	-11.9316
▁dermokine	-11.9316
▁hemerythrin	-11.9316
▁myxo	-11.9316
▁neuralized	-11.9316
▁rubredoxin	-11.9316
▁tyrosinase	-11.9316
07994	-11.9316
▁YHYH	-11.9316
etaxin	-11.9316
henylpropionate	-11.9316
▁MOSC	-11.9316
▁ArsA	-11.9316
▁Alkali	-11.9316
barl	-11.9316
▁ZapA	-11.9316
▁ESCO	-11.9316
malonate	-11.9316
Elongin	-11.9316
DmeF	-11.9316
Tgl	-11.9316
driv	-11.9316
▁YigB	-11.9316
▁Zonula	-11.9316
phenylacetate	-11.9316
▁Papain	-11.9316
MyoVII	-11.9317
▁temperature	-11.9317
▁GsiA	-11.9317
▁Bub	-11.9317
12370	-11.9317
MmaC	-11.9317
▁SulP	-11.9317
▁nucleosidase	-11.9318
euosine	-11.9318
▁Rnc	-11.9318
▁tether	-11.9319
endothelial	-11.9322
UbiA	-11.9324
NOPS	-11.9327
cataly	-11.9327
ineage	-11.9329
▁Swi	-11.9334
fumarate	-11.9335
holo	-11.9336
4352	-11.9344
andidat	-11.935
heptose	-11.9363
TTC	-11.937
▁Xylos	-11.9399
ExoIII	-11.9407
0266	-11.9475
glucuron	-11.9533
Oxa	-11.9583
glutamine	-11.9641
Calmodulin	-11.9642
chromosome	-11.9643
ytosolic	-11.9683
▁Nepo	-11.9685
mmonium	-11.9699
▁Pkn	-11.9708
ommon	-11.9726
posed	-11.9728
▁Glyoxal	-11.9728
orphogene	-11.9731
emodeling	-11.9732
anscription	-11.9732
▁Enoyl	-11.9732
Struct	-11.9733
▁Dimer	-11.9733
▁azoospermia	-11.9733
▁Angio	-11.9733
▁Plasma	-11.9733
pyruvyl	-11.9733
utilizing	-11.9733
▁GyrI	-11.9733
▁Lymphocyte	-11.9733
▁Neuregulin	-11.9733
▁POTRA	-11.9733
▁Pectinesterase	-11.9733
▁Tricorn	-11.9733
▁energy	-11.9733
▁glycans	-11.9733
▁quorum	-11.9733
FBXL	-11.9733
pantoate	-11.9733
▁nfrB	-11.9733
03209	-11.9733
protection	-11.9733
▁glucocorticoid	-11.9733
▁lasso	-11.9733
frame	-11.9733
▁ScpB	-11.9733
▁tube	-11.9733
▁ATRX	-11.9733
▁IclR	-11.9733
▁Mutated	-11.9733
▁ErbB	-11.9733
▁Amidase	-11.9733
Miro	-11.9733
▁Cancer	-11.9733
▁LETM	-11.9733
▁Cytidyl	-11.9733
CpaB	-11.9733
▁NIDO	-11.9733
crine	-11.9734
▁YidC	-11.9734
▁rps	-11.9734
phosphofructo	-11.9734
▁ASAP	-11.9734
LSMT	-11.9734
Lgl	-11.9735
▁SlpA	-11.9735
▁Gld	-11.9735
▁Yea	-11.9735
Dioxygenase	-11.9737
▁Atg	-11.9737
rized	-11.9742
nicotinate	-11.975
▁MerT	-11.9759
759	-11.9774
xoribonuclease	-11.9802
potentia	-11.9803
anell	-11.9811
0252	-11.9814
▁Syn	-11.983
FtsJ	-11.9857
NIK	-11.9862
stasi	-12.0002
ssociat	-12.0044
▁Cwl	-12.0063
plicing	-12.0111
hydrogenase	-12.0112
▁mannan	-12.0133
monoox	-12.0163
ocorticoid	-12.0167
Biosyn	-12.0167
decarboxylating	-12.0167
hydrolyzing	-12.0167
lactonase	-12.0167
ubblegum	-12.0167
▁ARGLU	-12.0167
▁ARHGAP	-12.0167
▁BglG	-12.0167
▁Centromere	-12.0167
▁CollagenBindB	-12.0167
▁CwfJ	-12.0167
▁Exostosin	-12.0167
▁Farnesoi	-12.0167
▁Lysozyme	-12.0167
▁OsmY	-12.0167
▁Septum	-12.0167
▁YkwD	-12.0167
▁magnesium	-12.0167
▁meningitid	-12.0167
▁nucleus	-12.0167
▁rhodanese	-12.0167
▁sphingomyelin	-12.0167
▁topology	-12.0167
GfcC	-12.0167
elanoma	-12.0167
nitrile	-12.0167
▁Secreted	-12.0167
▁makorin	-12.0167
YfgL	-12.0167
hydroxyalkano	-12.0167
revis	-12.0167
▁Carbon	-12.0167
▁DksA	-12.0167
▁Luminal	-12.0167
▁center	-12.0167
▁artemis	-12.0167
▁CcmH	-12.0167
▁Period	-12.0167
▁tensin	-12.0167
eurotensin	-12.0168
▁RpoE	-12.0168
SafE	-12.0168
allev	-12.0168
▁Thermophilus	-12.0168
▁Agg	-12.0168
metalloreg	-12.0168
▁Yeg	-12.0169
pRha	-12.0169
▁pirin	-12.0169
5283	-12.0169
▁CheR	-12.017
▁LolA	-12.017
ordin	-12.017
LptA	-12.0171
subtil	-12.0171
_013	-12.0175
restr	-12.0196
0381	-12.0207
iboflavin	-12.0217
▁Bili	-12.0227
HINT	-12.0242
▁dihydrolipo	-12.0264
reactiv	-12.029
Yfh	-12.0315
Pyrin	-12.0454
▁agg	-12.0512
ostero	-12.0514
ChiA	-12.0517
aculovir	-12.0607
acuni	-12.0609
ontains	-12.0616
Golgi	-12.0617
double	-12.062
esicle	-12.0622
▁allergen	-12.0622
▁immuno	-12.0622
Adhesin	-12.0622
LPXTH	-12.0622
Sfmbt	-12.0622
deoxychorismate	-12.0622
parvin	-12.0622
▁ARHGEF	-12.0622
▁Actinobacterial	-12.0622
▁Aldolase	-12.0622
▁Arginyl	-12.0622
▁AvrRpt	-12.0622
▁Fibrinogen	-12.0622
▁Flotillin	-12.0622
▁PSCyt	-12.0622
▁Transketolase	-12.0622
▁abort	-12.0622
▁description	-12.0622
▁enhancin	-12.0622
▁peroxin	-12.0622
▁prefix	-12.0622
CFIm	-12.0622
▁GlxA	-12.0622
▁Olfacto	-12.0622
▁QLQ	-12.0622
▁SrmB	-12.0622
▁meiotic	-12.0622
▁protiens	-12.0622
▁Gemini	-12.0622
▁TFSII	-12.0622
▁CpaE	-12.0622
▁MraZ	-12.0622
▁determinant	-12.0622
▁DeoR	-12.0622
▁UbiG	-12.0622
▁YraI	-12.0622
aconita	-12.0622
▁Yih	-12.0622
olisin	-12.0622
10927	-12.0622
4179)	-12.0622
3699)	-12.0622
SppA	-12.0622
13355	-12.0623
▁PNPLA	-12.0623
▁RssA	-12.0623
...	-12.0623
▁Mrr	-12.0623
CopD	-12.0623
coding	-12.0624
▁Nfu	-12.0624
MKRN	-12.0624
▁CLTH	-12.0625
abphilin	-12.0625
selective	-12.0626
araslipin	-12.0626
CTNN	-12.0629
Ygd	-12.063
▁sarco	-12.0657
▁Ammoni	-12.0658
acetoin	-12.0743
▁glucuroni	-12.0845
isomer	-12.0962
thioadenosine	-12.0969
▁Flavi	-12.1008
Hop	-12.1031
uction	-12.107
▁cyan	-12.1086
refoil	-12.1088
Deoxy	-12.1091
etoacyl	-12.1096
▁lamina	-12.1097
Arrest	-12.1097
bacterioferritin	-12.1098
▁Opacity	-12.1098
▁glyoxalase	-12.1098
▁mycofactocin	-12.1098
DMRTA	-12.1098
Neurotransmitter	-12.1098
aminobenzoate	-12.1098
eroxiredoxin	-12.1098
rmylmethanofuran	-12.1098
▁Anthrax	-12.1098
▁Condensin	-12.1098
▁Dehydroquina	-12.1098
▁HxlR	-12.1098
▁Potassium	-12.1098
▁Retinoi	-12.1098
▁Sucrose	-12.1098
▁YoaR	-12.1098
▁YvrE	-12.1098
▁absent	-12.1098
▁chlorophenolicu	-12.1098
▁luciferase	-12.1098
▁signature	-12.1098
▁twinfilin	-12.1098
defect	-12.1098
▁Hexokinase	-12.1098
StySPI	-12.1098
stitut	-12.1098
▁Zfx	-12.1098
▁fibrinogen	-12.1098
▁DsbC	-12.1098
▁KCNC	-12.1098
▁Hepar	-12.1098
04195	-12.1098
Moco	-12.1098
▁PilX	-12.1098
FilE	-12.1098
TFIIH	-12.1098
Zfy	-12.1098
▁legume	-12.1098
▁HERC	-12.1099
4974)	-12.1099
▁CysPc	-12.1099
▁agrin	-12.1099
oxidative	-12.1099
▁FadR	-12.1099
bromo	-12.1099
4369)	-12.1099
▁TruB	-12.1099
▁SLAP	-12.1099
_2159	-12.1099
BRPF	-12.1099
VPLPA	-12.11
phexin	-12.1103
Uroporphyrinogen	-12.1104
SGNH	-12.1143
Tail	-12.1145
fatty	-12.1145
MLX	-12.1257
odulin	-12.1438
▁microc	-12.1473
resent	-12.1493
mylase	-12.1512
▁Organi	-12.1567
naerobic	-12.1576
thelial	-12.159
obinamide	-12.1595
nfluenza	-12.1598
FBXW	-12.1598
carboxamide	-12.1598
ectoine	-12.1598
ematode	-12.1598
latelet	-12.1598
llophanate	-12.1598
lysidine	-12.1598
methoxy	-12.1598
recognin	-12.1598
▁Astacin	-12.1598
▁Burkholderia	-12.1598
▁Deltex	-12.1598
▁Dolich	-12.1598
▁Exportin	-12.1598
▁Rickettsia	-12.1598
▁XkdP	-12.1598
▁alginate	-12.1598
▁fumigatus	-12.1598
▁isozyme	-12.1598
▁latrophilin	-12.1598
▁lymphocyte	-12.1598
▁mutarotase	-12.1598
▁subfamilies	-12.1598
ethionyl	-12.1598
▁Tetrahydro	-12.1598
▁Alternat	-12.1598
▁Indole	-12.1598
▁sbcc	-12.1598
▁stationary	-12.1598
04537	-12.1598
▁Raptor	-12.1598
Oxidase	-12.1598
▁YceI	-12.1598
08317	-12.1598
08154	-12.1598
accases	-12.1599
▁REJ	-12.1599
phosphotriester	-12.1599
3591)	-12.1599
1752)	-12.16
EccC	-12.16
ducin	-12.16
▁Meiotic	-12.1601
nicotinamide	-12.1602
galactosamine	-12.1604
inace	-12.1611
MSAP	-12.1621
gingi	-12.1632
unin	-12.1642
ClpP	-12.1693
NosD	-12.1696
nucleoside	-12.1696
adenylyl	-12.1699
oplast	-12.1702
ergi	-12.1746
▁osmoregulat	-12.1751
▁Hydroxymethyl	-12.1752
condens	-12.1779
proliferation	-12.1834
ositi	-12.185
importin	-12.1867
ydro	-12.2015
▁Cytokine	-12.2095
rnithine	-12.2116
▁vacuola	-12.2117
ibrio	-12.2121
ecrosis	-12.2124
▁necro	-12.2124
holesterol	-12.2124
isopentenyl	-12.2124
opyranos	-12.2124
03269	-12.2125
Hemolysin	-12.2125
YrdC	-12.2125
block	-12.2125
cryptic	-12.2125
deazaguanine	-12.2125
geranylgeranyl	-12.2125
mercury	-12.2125
monoxygenases	-12.2125
otaxis	-12.2125
sorbose	-12.2125
xaloacetate	-12.2125
▁Intersectin	-12.2125
▁LLGL	-12.2125
▁Leupaxin	-12.2125
▁LsmAD	-12.2125
▁Metazoa	-12.2125
▁SYLF	-12.2125
▁Tellurite	-12.2125
▁Tetraspan	-12.2125
▁Thymosin	-12.2125
▁blood	-12.2125
▁interferon	-12.2125
▁midleg	-12.2125
▁mitogen	-12.2125
▁participate	-12.2125
hydroxybenzoate	-12.2125
oxazole	-12.2125
▁Paramyxovir	-12.2125
▁phyco	-12.2125
03200	-12.2125
