<unk>	0
<s>	0
</s>	0
▁	-2.72921
-	-3.08006
|	-3.30174
▁domain	-3.61393
▁(	-3.65917
,	-3.69779
▁and	-4.01474
)	-4.04474
▁of	-4.13222
▁protein	-4.24523
/	-4.27753
]	-4.41859
▁[	-4.42485
like	-4.69095
_	-4.72004
A	-4.83457
▁family	-4.83697
▁N	-4.88578
▁in	-4.90703
s	-4.93399
▁proteins	-5.00356
▁C	-5.00678
▁function	-5.14673
▁unknown	-5.1722
▁transport	-5.22046
binding	-5.33084
nd	-5.33712
DUF	-5.33982
▁fou	-5.38571
2	-5.39814
▁the	-5.43908
terminal	-5.44435
▁similar	-5.44507
1	-5.50959
▁a	-5.62538
C	-5.66713
e	-5.70689
▁metabolism	-5.7899
c	-5.79895
▁kinase	-5.80703
▁Protein	-5.86702
al	-5.89276
▁DNA	-5.92724
▁synthase	-5.94021
▁P	-5.9418
▁M	-5.99706
ing	-6.04894
▁subunit	-6.05392
▁1	-6.06394
type	-6.07007
d	-6.07077
B	-6.08057
▁finger	-6.09854
▁Domain	-6.10774
transferase	-6.13475
ion	-6.1573
▁RNA	-6.20218
▁A	-6.22134
ed	-6.22209
▁F	-6.24107
▁Uncharacterized	-6.26971
D	-6.28205
▁repeat	-6.28759
3	-6.30736
▁2	-6.32989
▁related	-6.37219
▁biosynthesis	-6.39812
▁type	-6.39841
▁BTB	-6.40288
▁predict	-6.40522
▁motif	-6.42849
▁acid	-6.43278
ral	-6.43477
▁S	-6.43569
▁only	-6.44718
▁binding	-6.4487
S	-6.46692
▁system	-6.46934
P	-6.48559
;	-6.49718
H	-6.50983
▁response	-6.52193
▁factor	-6.52338
R	-6.53461
▁zinc	-6.537
1)	-6.54561
▁mechanisms	-6.55534
▁regulators	-6.55882
Function	-6.56083
Gene	-6.56568
▁biogenesis	-6.58204
▁component	-6.59396
▁transcription	-6.59587
▁transduction	-6.62232
▁Phospho	-6.63684
▁membrane	-6.64012
▁complex	-6.64647
POZ	-6.65819
containing	-6.66014
atalytic	-6.66519
▁or	-6.67444
▁superfamily	-6.68969
N	-6.70053
),	-6.70099
Cell	-6.70827
E	-6.71117
4	-6.72699
▁catabolism	-6.72749
Second	-6.73403
▁Kinase	-6.7354
▁subgroup	-6.73798
▁G	-6.74127
▁beta	-6.74362
ary	-6.74629
▁to	-6.75377
turn	-6.75531
▁transporter	-6.75916
a	-6.76164
x	-6.76308
▁metabolite	-6.78485
▁regulator	-6.7911
L	-6.79176
▁site	-6.80056
▁reductase	-6.8031
dependent	-6.80725
▁poly	-6.81039
▁domains	-6.82307
▁D	-6.8279
ke	-6.82825
membrane	-6.83042
▁recognition	-6.83756
▁Histidin	-6.83849
▁homology	-6.84331
tide	-6.84577
▁PRK	-6.84656
▁ABC	-6.84869
▁dehydrogenase	-6.85494
p	-6.85687
▁R	-6.85851
▁Serine	-6.86091
ttachment	-6.86445
pantetheine	-6.86883
▁enzymes	-6.87012
in	-6.88111
▁Acyl	-6.88312
:	-6.89466
▁ATPase	-6.90241
RRM	-6.90478
r	-6.90624
▁p	-6.90629
Threonine	-6.92917
▁3	-6.93525
▁transferase	-6.93554
▁Peptidase	-6.94148
phosphoacceptor	-6.947
t	-6.94994
Signal	-6.95019
M	-6.95261
I	-6.98827
▁Methyl	-6.99511
▁I	-7.00033
▁DUF	-7.01318
▁RING	-7.01974
catalytic	-7.0268
▁subfamily	-7.02814
5	-7.03745
▁wall	-7.03927
PKS	-7.04233
KR	-7.04437
▁regulatory	-7.04914
F	-7.05238
Transcription	-7.05289
receiver	-7.05306
6	-7.05647
helix	-7.05876
2)	-7.0656
finger	-7.06856
▁II	-7.07604
y	-7.09589
ic	-7.10425
▁conserve	-7.1088
associated	-7.1334
▁contains	-7.14345
redict	-7.14666
SF	-7.15752
G	-7.16393
▁kinases	-7.16416
▁B	-7.17629
▁f	-7.181
▁Superfamily	-7.18827
box	-7.18906
specific	-7.1893
envelope	-7.19364
▁Zinc	-7.19866
▁bacterial	-7.20081
▁Kelch	-7.20706
REC	-7.20725
▁periplasmic	-7.2206
▁uncharacterized	-7.22192
▁Putative	-7.22836
▁SDRs	-7.23033
apos	-7.2417
▁hydrolase	-7.2418
40	-7.26083
phosphate	-7.28151
▁ribosomal	-7.28596
ajor	-7.29042
(	-7.29891
organi	-7.29975
ck	-7.31097
tra	-7.31311
▁Bacterial	-7.32826
▁repeats	-7.32925
Amino	-7.33921
▁secretion	-7.34656
▁alpha	-7.35821
RR	-7.35883
▁The	-7.36173
▁region	-7.36176
▁Tram	-7.36437
▁ATP	-7.36532
▁PHA	-7.3667
▁enzyme	-7.36757
▁repair	-7.36814
acilitator	-7.36835
Complex	-7.36918
PH	-7.37794
protein	-7.37884
Carbohydrate	-7.37885
related	-7.3791
T	-7.37916
▁structure	-7.38079
▁fold	-7.38332
▁pseudo	-7.38349
▁brac	-7.38572
▁Bri	-7.39009
▁ATPases	-7.40872
▁L	-7.41703
PRR	-7.42449
▁ubiquitin	-7.43898
▁oxidoreductase	-7.44134
▁H	-7.44496
▁modification	-7.44643
▁E	-7.45269
translation	-7.45703
Translation	-7.46234
▁Zn	-7.46369
▁permease	-7.47476
In	-7.4781
▁NAD	-7.49407
▁an	-7.50253
▁synthetase	-7.50381
14	-7.51781
▁c	-7.51898
▁O	-7.51984
▁chaperones	-7.52373
▁protease	-7.5272
over	-7.52723
O	-7.53132
▁helix	-7.53262
▁4	-7.53301
▁ion	-7.53357
▁recombination	-7.54196
▁Rho	-7.54268
▁conversion	-7.55072
▁production	-7.55973
▁transporters	-7.57282
K	-7.57406
Energy	-7.57783
▁III	-7.57823
▁cell	-7.59333
▁HTH	-7.60684
n	-7.60956
▁ligase	-7.61771
or	-7.61819
▁WD	-7.61996
▁fatty	-7.62324
Broad	-7.62329
CoA	-7.64528
oenzyme	-7.6459
Post	-7.6473
HAMP	-7.66616
▁chemotaxis	-7.67093
beta	-7.67255
▁helicase	-7.67434
▁receptor	-7.67473
FAS	-7.68102
poxvirus	-7.68744
rich	-7.69967
Y	-7.70019
te	-7.70148
▁Type	-7.70563
fold	-7.71133
8	-7.7154
▁2,	-7.71975
domain	-7.72037
▁PAS	-7.72484
▁associated	-7.74102
▁putative	-7.74304
▁subclass	-7.74355
▁with	-7.74711
▁5	-7.74781
▁T	-7.76123
▁ketoreductase	-7.76168
▁polymerase	-7.76543
Replication	-7.78197
▁Signal	-7.78758
▁metallo	-7.78849
g	-7.78866
▁class	-7.7902
▁involve	-7.79527
ketoacyl	-7.79911
▁member	-7.80716
▁double	-7.81564
▁UBA	-7.81814
present	-7.81896
▁is	-7.82725
accept	-7.82952
▁Y	-7.83011
▁Ankyrin	-7.83396
▁methyl	-7.83456
▁copies	-7.83791
leckstrin	-7.84312
1,	-7.85003
▁phosphatase	-7.8576
12	-7.86934
7	-7.87091
cetyltransferase	-7.87423
▁PHD	-7.87633
▁tRNA	-7.8777
▁3-	-7.87912
peptide	-7.88049
▁substrate	-7.88462
▁resistance	-7.8852
▁transposons	-7.88704
48	-7.88834
▁motility	-7.89077
l	-7.89699
▁His	-7.89722
▁assembly	-7.89798
▁Esc	-7.89919
▁non	-7.90763
▁Helix	-7.91308
▁sensor	-7.91417
▁Glycosyl	-7.91619
▁COG	-7.9162
▁peptide	-7.92458
▁coli	-7.9334
terminus	-7.93342
ase	-7.93379
)/	-7.93733
m	-7.9484
GNAT	-7.951
GEF	-7.95557
▁PH	-7.95586
ch	-7.95861
X	-7.95975
3)	-7.96906
▁Ubiquitin	-7.96938
▁BACK	-7.9735
b	-7.97759
ity	-7.98011
▁cytochrome	-7.98953
Lipid	-7.98985
th	-7.99084
ly	-7.99547
heri	-8.00107
us	-8.00114
man	-8.00813
▁oxidase	-8.01188
▁GTPase	-8.01307
▁prophage	-8.01661
f	-8.0193
▁FYVE	-8.01983
▁second	-8.01983
hia	-8.02205
methyl	-8.02348
rom	-8.02463
▁histidine	-8.02688
▁Kinases	-8.0269
irst	-8.02944
16	-8.03496
o	-8.03609
▁Pleckstrin	-8.03751
▁7	-8.03754
▁amino	-8.03935
20	-8.03977
▁2-	-8.04149
ae	-8.04214
▁SAM	-8.0437
▁3,	-8.0651
di	-8.06605
BTB	-8.06812
PKc	-8.08409
▁v	-8.08434
▁channel	-8.08654
▁group	-8.09198
ate	-8.09734
▁Src	-8.09997
Q	-8.10173
hydrolase	-8.10254
▁Homology	-8.10406
+	-8.11133
gelsolin	-8.11618
▁small	-8.11974
▁for	-8.12102
ome	-8.12109
▁peptidase	-8.12376
10	-8.12694
trico	-8.13553
▁PIN	-8.13613
kinase	-8.1376
ense	-8.13814
▁U	-8.14154
▁ligand	-8.14627
Mobil	-8.14644
omyces	-8.14644
▁Tetra	-8.15161
▁Phage	-8.15225
▁serine	-8.1546
ular	-8.15794
18	-8.16182
▁K	-8.1627
▁PLN	-8.16808
ntracellular	-8.17917
▁GAF	-8.18489
9	-8.18867
▁trafficking	-8.19035
▁Sacchar	-8.19618
▁cere	-8.19619
▁lectin	-8.19796
i	-8.20608
▁RRM	-8.20661
▁bi	-8.20678
▁bacteria	-8.20706
visi	-8.21894
▁sub	-8.22261
▁toxin	-8.22579
;-	-8.22772
Def	-8.23092
illin	-8.23779
▁Alpha	-8.2455
carboxypeptidase	-8.24836
▁1,	-8.25068
ous	-8.25293
▁vesic	-8.2542
ebra	-8.25443
tRNA	-8.25547
▁AAA	-8.26096
ble	-8.26176
▁signal	-8.26211
▁containing	-8.26442
03247	-8.26641
450	-8.26661
ory	-8.26677
ar	-8.27185
▁Ribosomal	-8.27251
▁sever	-8.27253
70	-8.27667
▁eukaryotic	-8.27864
▁division	-8.27865
▁X	-8.28561
W	-8.28573
h	-8.29689
▁CheY	-8.29733
▁integr	-8.29779
▁interaction	-8.30429
15	-8.31556
ation	-8.31597
▁pathway	-8.31626
U	-8.31987
▁Receptor	-8.32934
ribosomal	-8.3356
▁cyclase	-8.33799
▁REC	-8.34875
▁5-	-8.35224
yl	-8.35443
▁vert	-8.35542
Fe	-8.35877
19	-8.36106
▁Family	-8.36202
▁AraC	-8.36202
13	-8.36217
▁MFS	-8.36875
▁rRNA	-8.36875
4)	-8.37033
▁repressor	-8.37075
V	-8.37603
▁control	-8.37828
_2	-8.38019
▁HC	-8.38238
cyclase	-8.38548
MBL	-8.39185
so	-8.39226
▁6	-8.39425
▁tyrosine	-8.39566
inositol	-8.39604
▁Transcription	-8.39669
OG	-8.39785
-3-	-8.40613
▁outer	-8.41
▁core	-8.41255
ast	-8.41337
▁specific	-8.4135
▁synthetases	-8.41382
▁Adenylyl	-8.41702
led	-8.42329
▁includ	-8.425
1-	-8.42514
▁(3	-8.42951
assette	-8.43125
elsolin	-8.43603
▁homologs	-8.43761
Nucleotide	-8.43788
53	-8.447
▁dehydratase	-8.44885
▁nucleotide	-8.45036
▁Leucine	-8.45299
▁Phosphatase	-8.45299
▁PknB	-8.45314
▁UPF	-8.45486
▁tha	-8.4553
TZ	-8.45722
24	-8.45918
▁nuclear	-8.45962
▁FERM	-8.46035
interact	-8.4611
▁ye	-8.46129
▁chain	-8.46156
▁endonuclease	-8.46159
▁V	-8.46229
▁Cadherin	-8.46775
28	-8.46796
▁IV	-8.46894
▁multidrug	-8.47523
▁Cytochrom	-8.47527
on	-8.47632
Rossmann	-8.47675
▁Class	-8.47686
▁lipoprotein	-8.48275
▁LytR	-8.4828
▁cal	-8.48522
TM	-8.48579
11	-8.48643
▁tandem	-8.49031
▁Transposase	-8.49031
▁integrase	-8.49074
▁GGDEF	-8.49112
▁flagella	-8.49401
▁th	-8.49769
▁phospho	-8.50064
RBM	-8.50569
Ubl	-8.5057
um	-8.50584
41	-8.50635
▁Gene	-8.51111
ine	-8.51325
▁plant	-8.51368
lso	-8.51435
▁CELF	-8.5212
▁SDR	-8.52191
-1	-8.52196
50	-8.52502
▁phosphate	-8.52754
38	-8.52841
acetyl	-8.53803
▁as	-8.54005
activat	-8.54222
phospho	-8.54306
u	-8.54688
▁carrier	-8.54795
▁efflux	-8.54811
▁Poly	-8.54957
▁transfer	-8.55455
▁gamma	-8.55546
▁two	-8.55563
▁Sigma	-8.55734
▁secret	-8.55853
▁dimerization	-8.56121
helical	-8.56158
▁sigma	-8.56304
k	-8.56331
▁homolog	-8.56792
47	-8.569
II	-8.57005
▁Na	-8.57402
functional	-8.57598
25	-8.57605
Binding	-8.5777
loop	-8.57771
▁hu	-8.58014
▁inhibitor	-8.58032
▁cluster	-8.58284
phosphatase	-8.58755
42	-8.59109
▁fungal	-8.59531
Z	-8.59604
22	-8.59787
▁chromosome	-8.59829
trans	-8.60174
▁Diguanylate	-8.60288
es	-8.60324
45	-8.60485
st	-8.60577
37	-8.60936
▁VI	-8.61026
▁NADH	-8.61071
known	-8.61139
alpha	-8.61524
▁box	-8.61593
▁isomerase	-8.61639
▁contain	-8.61914
hosphodiesterase	-8.62727
DGC	-8.62932
▁receptors	-8.63017
4-	-8.63093
90	-8.63537
23	-8.63691
56	-8.63897
▁metal	-8.64044
▁iron	-8.64455
▁other	-8.6478
▁DEAD	-8.65537
43	-8.65771
▁4-	-8.66368
DNA	-8.66508
26	-8.66532
▁acyl	-8.66571
▁chaperone	-8.66907
27	-8.67154
▁nuclease	-8.67168
family	-8.67185
▁SH	-8.67188
chain	-8.67204
▁Tyrosine	-8.6734
▁classical	-8.6734
hydroxy	-8.67659
3-	-8.67662
34	-8.67668
17	-8.67839
ded	-8.68467
er	-8.6865
21	-8.68805
ive	-8.70017
▁bas	-8.70058
5)	-8.70082
head	-8.70099
▁partitioning	-8.70132
its	-8.70461
▁FAD	-8.70563
alanine	-8.70725
▁UDP	-8.70755
▁gene	-8.71912
PTB	-8.71993
▁g	-8.72403
46	-8.72486
Cache	-8.72492
peptidase	-8.7261
transferases	-8.72688
▁Sugar	-8.72974
ribbon	-8.73189
metallopeptidase	-8.7363
▁Periplasmic	-8.73945
▁Glutathione	-8.73945
▁motor	-8.73945
▁Myb	-8.73973
▁glycosyl	-8.74086
-54	-8.74367
30	-8.74976
se	-8.75047
zation	-8.75308
HSP	-8.75437
▁de	-8.75766
▁tet	-8.75846
12467	-8.75916
+/	-8.76114
arginine	-8.763
IP	-8.76862
▁Integrase	-8.76924
▁cyclin	-8.7693
▁decarboxylase	-8.77234
35	-8.7745
1_	-8.77528
yltransferase	-8.778
▁dehydrogenases	-8.77815
▁Rab	-8.77879
▁Ion	-8.78059
▁high	-8.78461
tetrahydrofolate	-8.78947
▁BRCT	-8.79212
▁cyclases	-8.80159
▁Broad	-8.80441
49	-8.80774
54	-8.8098
▁conjugat	-8.81308
▁In	-8.81329
ACP	-8.81651
▁methylase	-8.81725
▁pilus	-8.82071
▁transposase	-8.82074
ZBTB	-8.82111
▁Clp	-8.82709
▁phage	-8.83018
chemotaxis	-8.83092
▁Arabidopsis	-8.83177
▁Ras	-8.83314
▁TrkA	-8.8341
▁di	-8.83471
central	-8.83485
ide	-8.83531
antitoxin	-8.84102
▁transducer	-8.84214
SH	-8.84357
31	-8.84486
▁sugar	-8.84509
_1	-8.84575
60	-8.8472
29	-8.84829
▁Drosophila	-8.85298
▁tail	-8.85391
▁splic	-8.85465
▁cycle	-8.85542
CTL	-8.85661
▁Cell	-8.86123
lactamase	-8.86401
▁sporulation	-8.86405
alian	-8.87198
▁Substrate	-8.87508
▁whi	-8.87508
BAR	-8.87611
▁mobil	-8.87639
▁ribonucleo	-8.87661
acid	-8.87689
▁W	-8.87698
reductase	-8.87709
▁trans	-8.87987
▁deacetylase	-8.88339
plasmic	-8.88674
Cdc	-8.90078
0	-8.90246
▁Fe	-8.90427
▁ACT	-8.9103
▁Carbohydrate	-8.91035
▁SET	-8.91331
Histidin	-8.9137
▁Z	-8.91675
▁HSP	-8.9196
▁lyase	-8.91962
▁Membrane	-8.9208
▁module	-8.9208
▁antiporter	-8.92081
carboxylate	-8.92091
▁initiation	-8.92099
am	-8.92196
▁NBD	-8.92306
HMG	-8.92493
▁anti	-8.9257
▁b	-8.93192
bHLH	-8.93256
▁catalyze	-8.93256
acyl	-8.93435
7)	-8.93438
▁Fts	-8.93444
dle	-8.93478
en	-8.93648
33	-8.93752
44	-8.9377
▁exonuclease	-8.94049
▁leucine	-8.94215
▁Thioredoxin	-8.94447
ne	-8.94549
hol	-8.94685
re	-8.94791
▁PTS	-8.94996
amino	-8.95025
▁TRIM	-8.95173
Carboxypeptidase	-8.95652
▁Beta	-8.95704
BP	-8.96137
HC	-8.96339
▁Two	-8.96871
▁VapC	-8.96874
▁Bacillus	-8.96875
39	-8.96885
Amphiphysin	-8.97674
v	-8.97919
keto	-8.98073
KLHL	-8.98106
▁Fungal	-8.98106
▁attenuator	-8.98107
▁Phosphotyrosine	-8.9813
ple	-8.98275
synthase	-8.99125
▁carbohydrate	-8.99356
▁large	-8.99356
▁operon	-8.99356
▁FtsK	-8.9941
▁gyrase	-8.99579
▁TonB	-9.00622
▁element	-9.00623
▁may	-9.00625
▁LacI	-9.00627
Rvs	-9.00696
▁Regulator	-9.00733
▁GTPases	-9.00875
▁peptidoglycan	-9.01025
2,	-9.01219
-4	-9.01533
threonine	-9.01615
-1-	-9.0172
▁Extracellular	-9.01865
▁Fasciclin	-9.01921
12)	-9.02012
cysteine	-9.02088
32	-9.02288
▁pair	-9.02354
▁are	-9.02357
36	-9.02478
▁Bin	-9.02496
UBX	-9.02885
roba	-9.03143
deoxy	-9.03236
▁RNase	-9.0336
reg	-9.03666
5-	-9.03678
▁13	-9.0389
IS	-9.03971
▁Dna	-9.04173
MDR	-9.04468
▁exten	-9.04516
12316	-9.04525
uter	-9.04531
an	-9.04558
component	-9.04641
TPR	-9.05052
▁include	-9.05536
-6-	-9.05575
ose	-9.05814
TIGR	-9.05852
▁Thioesterase	-9.05854
▁DDE	-9.05901
regulat	-9.0601
AMP	-9.06014
-2-	-9.06029
le	-9.06334
▁glycosylase	-9.06826
▁Un	-9.06968
▁IS	-9.07128
SpoIIIE	-9.07203
▁AcrR	-9.07203
glucosidase	-9.07209
amine	-9.07228
▁helicases	-9.07422
sulfur	-9.07515
▁Factor	-9.07921
ol	-9.08339
thetic	-9.08574
enital	-9.08584
denylation	-9.08906
ster	-9.08987
▁EF	-9.09291
gene	-9.09364
-4-	-9.09439
▁structures	-9.09817
coupled	-9.10028
ha	-9.10274
NT	-9.10344
hionine	-9.10434
▁Ca	-9.10523
dysplasia	-9.1137
▁SRPBCC	-9.1137
▁cupin	-9.1137
▁CoA	-9.11816
methylase	-9.12153
w	-9.12578
facio	-9.12799
ner	-9.12799
id	-9.13037
pt	-9.13049
▁SANT	-9.13054
▁carboxylase	-9.13276
▁LIM	-9.13287
oyl	-9.13621
▁Trans	-9.13979
LBD	-9.14289
1/	-9.14353
▁Nucleotide	-9.14374
amidotransferase	-9.14453
III	-9.15049
▁CAAX	-9.15877
▁antigen	-9.16057
quinone	-9.17208
▁Synaptotagmin	-9.17211
▁hypo	-9.17211
▁LabA	-9.17211
▁elongat	-9.17211
▁belong	-9.17211
▁hot	-9.17215
▁11	-9.17321
tic	-9.17508
HP	-9.17585
▁envelope	-9.17828
NRPS	-9.17987
▁zipper	-9.18165
alco	-9.18352
▁activator	-9.18404
▁12	-9.18431
▁members	-9.18551
▁exchange	-9.18622
03098	-9.18727
▁Acetyl	-9.18987
▁Rec	-9.19573
▁Glycero	-9.20226
▁Glyco	-9.20243
row	-9.20272
dog	-9.20306
▁HAD	-9.20423
▁Fis	-9.20428
▁aldolase	-9.20539
02	-9.20597
▁PQQ	-9.20648
▁tri	-9.21424
itochondrial	-9.21816
▁translocase	-9.21827
▁subtilis	-9.21832
▁Mitogen	-9.21834
▁mitochondrial	-9.2184
▁regulation	-9.2193
Ubox	-9.22014
▁XRE	-9.22244
▁GTP	-9.22407
▁structural	-9.22438
▁6-	-9.22737
▁export	-9.22753
01	-9.23043
mycin	-9.23171
▁ester	-9.23404
▁hook	-9.23415
ophage	-9.23445
▁solute	-9.23446
▁systems	-9.23716
CP	-9.23722
▁Flagella	-9.23778
▁cystat	-9.23956
ASP	-9.24042
▁SNF	-9.24413
11)	-9.24672
small	-9.25004
▁Peptidoglycan	-9.25027
docking	-9.25027
SPOP	-9.25046
zf	-9.25059
▁polysaccharide	-9.2507
▁ADF	-9.25079
▁spe	-9.25101
ckle	-9.25109
oligopeptide	-9.25123
▁Associated	-9.254
-1)	-9.25405
SAM	-9.2602
▁synthesis	-9.26063
▁molecul	-9.26667
ubiquinone	-9.26668
▁Anion	-9.26669
▁potassium	-9.26731
RNF	-9.26749
▁Recombinase	-9.27075
▁PDZ	-9.27088
6)	-9.27172
▁Sec	-9.27332
glutamate	-9.28191
▁activity	-9.28333
shock	-9.28333
noga	-9.28334
mela	-9.28334
▁exporter	-9.28351
Cps	-9.28362
third	-9.28365
lyase	-9.28368
▁Tar	-9.28487
z	-9.28639
▁lipid	-9.28722
ty	-9.29001
ally	-9.29177
om	-9.29477
▁Bacteri	-9.29785
▁form	-9.29941
bi	-9.29954
▁su	-9.29987
▁uptake	-9.30028
▁PEP	-9.30034
▁Modifie	-9.30037
methionine	-9.30179
ork	-9.30291
tage	-9.30327
▁phosphatidyl	-9.3065
▁stress	-9.30663
▁UBX	-9.30882
▁mutase	-9.3131
lp	-9.31745
▁utili	-9.3175
▁maturation	-9.31752
▁symporter	-9.31752
▁signalling	-9.31752
▁Bla	-9.31787
▁inactive	-9.31818
▁Sh	-9.32173
95	-9.32678
▁dioxygenase	-9.32733
▁aminopeptidase	-9.32773
▁Rim	-9.32968
ca	-9.32969
▁cyclohydrolase	-9.33173
TLD	-9.33288
19)	-9.33432
▁hydratase	-9.33506
▁Fibronectin	-9.33507
Psr	-9.33519
phosphodiester	-9.33526
and	-9.33748
▁ribosome	-9.3382
class	-9.34077
transport	-9.34099
PHF	-9.344
51	-9.34626
▁16	-9.34768
ment	-9.3513
▁mid	-9.35147
▁AdoMet	-9.35293
▁NlpC	-9.35295
▁pathogenicity	-9.35295
MTases	-9.35297
imel	-9.35321
Tnp	-9.35325
▁Nucleotidyl	-9.35363
LCP	-9.35445
▁polymer	-9.35682
▁acyltransferase	-9.35768
ibonuclease	-9.35771
FP	-9.35904
CBS	-9.35987
3,	-9.36008
▁10	-9.36403
ur	-9.36951
synt	-9.3709
▁Kinesin	-9.37111
▁Ligand	-9.37113
▁Phosphatidyl	-9.37113
▁Di	-9.37134
▁Iron	-9.3714
66	-9.37576
acetylglucosamin	-9.37591
serine	-9.3761
▁m	-9.37887
barrel	-9.37895
ATPase	-9.37957
▁archaeal	-9.37994
AT	-9.38098
▁WW	-9.38222
▁phosphoribosyl	-9.38234
arboxylesterase	-9.3827
▁Ig	-9.38288
ATP	-9.38538
▁factors	-9.38634
▁Pseudo	-9.38931
▁RNF	-9.38938
▁island	-9.38962
typical	-9.38963
▁Galactose	-9.38963
-1,6-	-9.38972
acetylase	-9.39178
97	-9.39265
▁active	-9.39585
▁Thi	-9.39765
▁hetero	-9.39847
glucose	-9.39943
▁glutamine	-9.39954
▁ribonuclease	-9.40017
oxo	-9.40289
-2,	-9.40401
int	-9.4081
Tsr	-9.40857
▁oligo	-9.40941
▁Hp	-9.41036
▁ribbon	-9.4235
▁8	-9.42628
▁Interleukin	-9.42772
lactate	-9.42893
▁Smc	-9.42899
▁EV	-9.42963
▁sorting	-9.43085
▁polyadenylat	-9.43247
▁Pho	-9.43425
ma	-9.4373
it	-9.4377
Co	-9.4396
14)	-9.43971
▁Ser	-9.44151
co	-9.44157
ir	-9.44184
ependent	-9.445
induci	-9.4456
▁HD	-9.44685
ad	-9.44722
▁recombinase	-9.44733
▁sequence	-9.44733
▁RelA	-9.44734
▁Enoyl	-9.4474
▁Arm	-9.44795
▁kDa	-9.45503
AG	-9.45606
bZIP	-9.46037
▁fingers	-9.46054
GAP	-9.46152
XRE	-9.46202
UPF	-9.46238
▁17	-9.46252
▁CAP	-9.46275
RING	-9.46276
▁Fli	-9.46449
▁GH	-9.46508
06060	-9.46733
▁Histone	-9.46733
▁cyto	-9.46733
▁myosin	-9.46734
arabinose	-9.46734
▁SPFH	-9.46736
00121	-9.46737
GalR	-9.46747
▁Endo	-9.4681
▁Bas	-9.46814
▁t	-9.47089
is	-9.48218
Activat	-9.483
▁mono	-9.48486
▁amylase	-9.48576
▁Eukaryotic	-9.48774
▁Double	-9.48774
▁seven	-9.48774
▁Vari	-9.48775
▁Abhydrolase	-9.48784
gated	-9.48842
▁cysteine	-9.48947
glycerol	-9.48947
▁SMC	-9.48998
term	-9.49035
▁epimerase	-9.49045
TH	-9.49226
▁be	-9.49616
lytic	-9.50066
▁CBS	-9.50101
▁pre	-9.50174
forming	-9.50469
epimerase	-9.50581
SD	-9.50638
▁delta	-9.50753
uanine	-9.50798
▁CRISPR	-9.50857
▁GINS	-9.50877
▁cellulose	-9.50879
ng	-9.50891
stranded	-9.50991
▁endo	-9.51021
▁replication	-9.51085
▁SpoT	-9.51339
ecR	-9.51402
▁mRNA	-9.51468
CH	-9.51505
independent	-9.51608
▁23	-9.51937
function	-9.52629
▁5,	-9.52729
po	-9.52879
ance	-9.52915
hnRNP	-9.52985
ortin	-9.52992
prohibitin	-9.53065
▁heme	-9.53194
PIP	-9.53777
_5	-9.53781
HS	-9.53873
17)	-9.53989
▁formation	-9.5416
10)	-9.54551
▁histone	-9.54712
▁interact	-9.54868
16)	-9.549
▁9	-9.55075
▁STKs	-9.55159
tically	-9.55167
GATase	-9.552
phages	-9.55243
wee	-9.55293
ative	-9.55394
▁Large	-9.55408
▁cation	-9.55427
▁Condensation	-9.55492
set	-9.55887
▁HflK	-9.56015
bd	-9.56046
hand	-9.56387
TR	-9.5642
▁phosphorylase	-9.56624
lipo	-9.56857
18)	-9.56911
ribose	-9.57113
▁TPR	-9.5736
grasp	-9.57381
▁close	-9.57381
▁Ephrin	-9.57382
▁seg	-9.57414
SRSF	-9.57435
2+	-9.57583
recognition	-9.57639
07	-9.57654
nuclear	-9.57667
▁varie	-9.57716
phospholipid	-9.57753
▁GC	-9.5776
lo	-9.57796
one	-9.57831
ro	-9.57919
ag	-9.58329
LRR	-9.58517
▁Lis	-9.5856
-5-	-9.59162
▁sulfur	-9.59243
▁FG	-9.59454
▁Competence	-9.59654
▁Cyclin	-9.59654
▁homologues	-9.59654
alanyl	-9.59654
▁DEDD	-9.59654
▁dehalogenase	-9.59654
▁Motif	-9.59654
Phosphoinositide	-9.59769
stomatin	-9.59841
de	-9.59886
ferredoxin	-9.59948
▁TM	-9.5997
lg	-9.59978
▁lys	-9.60029
branch	-9.60179
SS	-9.60263
13)	-9.60385
FHA	-9.60495
▁nickel	-9.60518
-6	-9.60678
▁flavoprotein	-9.61044
ene	-9.61607
▁acetyl	-9.61768
▁19	-9.618
ankyrin	-9.61979
transglycosylase	-9.62
PEB	-9.62035
adenosyl	-9.62286
▁deaminase	-9.62563
▁fructose	-9.62833
▁vacuolar	-9.62897
SP	-9.62986
▁Replication	-9.63227
00	-9.6348
olute	-9.63659
EF	-9.63808
-1,	-9.64101
▁folding	-9.64349
▁topoisomerase	-9.64363
sulfide	-9.6437
▁IIA	-9.64387
▁PD	-9.64622
38)	-9.64843
▁short	-9.64959
Cys	-9.6502
▁processing	-9.65133
DH	-9.65168
GH	-9.65226
▁carboxyl	-9.65227
GBP	-9.6523
UBXN	-9.65239
▁adenylyl	-9.65313
47)	-9.65375
▁esterase	-9.65637
AP	-9.65693
42-	-9.65919
GMP	-9.65963
▁methylene	-9.66204
ra	-9.66396
▁phosphatases	-9.66448
lotillin	-9.66592
xtracellular	-9.66636
▁heavy	-9.66799
▁cleavage	-9.66806
▁halo	-9.66933
DP	-9.67392
▁guanylyl	-9.67413
RNA	-9.67444
Acyltransferase	-9.67513
zipper	-9.67714
cluster	-9.67736
nucleotide	-9.67741
brac	-9.67758
dehydrogenase	-9.67761
20)	-9.67793
▁Prp	-9.67943
ep	-9.68194
34)	-9.6821
to	-9.68386
LC	-9.68462
do	-9.68693
▁Cdc	-9.6873
SM	-9.68817
PI	-9.68914
PR	-9.69019
▁archaea	-9.69269
▁dual	-9.69299
egulon	-9.69301
stre	-9.69322
▁IBR	-9.69371
prolyl	-9.69376
▁Plk	-9.69394
▁Heme	-9.694
ED	-9.69433
▁fork	-9.6951
▁Ydi	-9.69518
▁thiamine	-9.69596
43)	-9.69682
▁br	-9.69724
24)	-9.69738
HR	-9.70034
▁GI	-9.70204
hydro	-9.70606
na	-9.7066
ip	-9.70834
▁PP	-9.70847
55	-9.70998
NE	-9.71139
AB	-9.71325
▁proline	-9.71346
▁vari	-9.71506
SpoII	-9.71667
▁GAT	-9.71816
assoc	-9.71862
▁expression	-9.71863
03307	-9.71864
▁Pseudomonas	-9.71866
▁Cas	-9.71873
hydroxyacid	-9.71903
▁CUE	-9.71965
CRD	-9.72078
▁Post	-9.72126
2345	-9.72245
prok	-9.72382
NUC	-9.72468
_4	-9.72633
▁restriction	-9.72693
Erythron	-9.72812
immunity	-9.72945
SET	-9.73032
histidine	-9.73229
superfamily	-9.7324
▁monooxygenase	-9.73251
▁Vgr	-9.7326
▁import	-9.73324
▁re	-9.73353
▁aromatic	-9.73387
▁body	-9.73435
▁hydroxylase	-9.73439
ator	-9.73997
▁HP	-9.74153
-3,	-9.74247
mediat	-9.74469
adenosine	-9.74493
▁characteri	-9.74495
LPLAT	-9.74495
direct	-9.74495
lobe	-9.74495
▁HEAT	-9.74495
▁diguanylate	-9.74496
▁serpin	-9.74496
enolpyruvate	-9.74497
▁HicB	-9.74497
▁phospholipase	-9.7451
▁aldo	-9.74558
ial	-9.74597
▁addition	-9.746
CT	-9.74667
cyclic	-9.74746
BAB	-9.74807
▁variants	-9.74838
▁termination	-9.75086
her	-9.75187
PLP	-9.75201
▁TG	-9.75233
RNAP	-9.75304
▁hydrolases	-9.75354
▁PPI	-9.75406
GT	-9.75436
25)	-9.75628
cGMP	-9.75744
9)	-9.75826
as	-9.75961
mannose	-9.75985
receptor	-9.76073
▁Ste	-9.76075
▁SWI	-9.76132
GY	-9.76482
sis	-9.76685
▁Threonyl	-9.77044
▁Bet	-9.77167
▁Insulin	-9.77198
▁voltage	-9.77198
▁Myosin	-9.77198
YIG	-9.77198
▁effector	-9.77199
▁cofactor	-9.77201
▁vWFA	-9.77211
▁Kef	-9.7722
olide	-9.77226
▁endopeptidase	-9.77286
lav	-9.77297
70)	-9.77328
▁aure	-9.77332
viral	-9.77391
14_	-9.77445
diesterases	-9.7765
▁DENN	-9.77653
glycine	-9.77798
pr	-9.77816
▁Multi	-9.77885
MT	-9.78041
▁pro	-9.78707
CR	-9.78718
35)	-9.78894
8)	-9.78908
fructose	-9.78964
phosphatidyl	-9.78984
pair	-9.78999
HTH	-9.79242
▁TA	-9.7937
induc	-9.79418
▁hydrogenase	-9.79468
of	-9.79609
▁chromosom	-9.79688
WD	-9.79702
▁Amino	-9.79724
ia	-9.79889
ian	-9.79932
▁self	-9.79975
▁Repeat	-9.79975
▁TFIIIB	-9.79975
▁pyrophosphatase	-9.79975
▁Plant	-9.79976
way	-9.79976
▁single	-9.79976
▁MarR	-9.79977
▁Biotin	-9.79978
▁rad	-9.80011
▁head	-9.80036
▁hal	-9.80057
inged	-9.80174
PDO	-9.80316
65	-9.80604
phosphoglycerate	-9.80684
tin	-9.80745
ob	-9.80933
TF	-9.81064
actin	-9.81082
▁FGD	-9.81085
NK	-9.81282
▁acids	-9.81456
▁amidase	-9.8148
15)	-9.81483
▁14	-9.81668
sugar	-9.82037
q	-9.82041
Helix	-9.82059
ci	-9.82112
mRNA	-9.82127
Rho	-9.82129
j	-9.82135
factor	-9.82143
ul	-9.82285
amide	-9.82437
▁fibr	-9.82579
li	-9.82596
dg	-9.82691
▁tetrameri	-9.82693
07764	-9.82833
bound	-9.82833
virulence	-9.82833
capping	-9.82833
▁excision	-9.82833
▁Glycine	-9.82836
▁CheW	-9.82846
myb	-9.8285
phosphoinositide	-9.82858
▁proteasome	-9.82862
▁TIM	-9.82863
some	-9.82875
murein	-9.82887
▁uridylyl	-9.83317
▁families	-9.83349
▁glycerol	-9.83438
hreonylcarbamoyl	-9.83447
▁facilitator	-9.8377
45)	-9.83822
STE	-9.83872
em	-9.83919
obic	-9.8396
▁components	-9.84019
▁affinity	-9.84175
ta	-9.84326
lipid	-9.84355
▁Arf	-9.84631
▁En	-9.84764
Cas	-9.85031
SpoT	-9.85127
▁AD	-9.85176
Protein	-9.85195
respons	-9.85431
▁aspartate	-9.85437
▁PA	-9.85553
Gln	-9.8558
▁Alanyl	-9.85774
▁Chitin	-9.85774
▁phytochrome	-9.85774
▁hydroph	-9.85774
▁radical	-9.85774
▁Cupin	-9.85775
03095	-9.85777
hydroxyacyl	-9.85817
▁LytT	-9.8588
▁DHHA	-9.85908
▁Glucose	-9.86096
uring	-9.86182
▁ADP	-9.86224
▁OmpA	-9.86369
▁Pro	-9.86519
▁actin	-9.8674
▁cobalt	-9.8695
▁oxygenase	-9.86952
ac	-9.8784
28)	-9.87926
os	-9.88028
RF	-9.8813
▁RGS	-9.88205
usion	-9.88213
enoyl	-9.88324
▁Mg	-9.88338
tranf	-9.88423
antigen	-9.88461
▁Nucleoside	-9.88804
▁Pyruvate	-9.88804
▁Guanylate	-9.88804
▁winged	-9.88805
gluconate	-9.88806
ThrRS	-9.88807
opterin	-9.88812
dehydro	-9.88828
▁peptidyl	-9.88853
▁modifier	-9.88894
-1/2	-9.88897
ococcus	-9.88909
▁basal	-9.88931
lpB	-9.89053
GAL	-9.89122
▁multi	-9.89137
057	-9.89369
▁Lux	-9.89446
▁aceto	-9.89914
[	-9.9002
ter	-9.90052
ST	-9.90232
76	-9.90638
▁phosphotransfer	-9.90855
et	-9.90924
+-	-9.90941
▁Trk	-9.9114
▁GT	-9.91244
▁Rossmann	-9.9128
ethenyl	-9.91381
▁cis	-9.9143
lysine	-9.91581
▁IIC	-9.91677
repeat	-9.91754
strand	-9.91781
▁Co	-9.91903
▁Immunoglobulin	-9.91929
▁desuccinylase	-9.91929
▁Region	-9.91929
▁glycogen	-9.91929
▁Biosynthesis	-9.9193
▁Lysophospholip	-9.9193
▁Metal	-9.91934
▁LysR	-9.91937
▁Sortase	-9.91962
▁Elongation	-9.91974
▁translation	-9.92094
▁PI	-9.92296
▁betaine	-9.92439
NOB	-9.92466
LPS	-9.92844
▁FMN	-9.92922
he	-9.92992
BTBD	-9.93014
ring	-9.93117
▁acce	-9.93132
GTA	-9.93247
pa	-9.93285
▁Rsb	-9.93335
ction	-9.93451
09	-9.93676
9,	-9.93699
▁barrel	-9.93768
▁PR	-9.93898
▁NADPH	-9.9402
6-	-9.94318
▁Tra	-9.94421
im	-9.94556
IN	-9.94953
Vps	-9.94977
anchor	-9.95001
virus	-9.95033
-4,	-9.95033
osine	-9.95149
dioxygenase	-9.95152
galactosidase	-9.95155
hairpin	-9.95155
▁Dehydratase	-9.95155
▁VirB	-9.95155
▁auto	-9.95156
DEAH	-9.95178
▁FliK	-9.9524
transf	-9.95265
el	-9.95326
TDP	-9.95351
▁repressors	-9.95434
glucan	-9.9548
ADP	-9.95507
enzymes	-9.95673
▁ring	-9.95701
acetate	-9.95706
FD	-9.95721
AKR	-9.95913
eno	-9.95968
▁CU	-9.95989
▁inactivat	-9.96081
06	-9.96205
▁28	-9.9627
37)	-9.96404
▁2,3-	-9.96531
GR	-9.96567
▁AKR	-9.96586
05	-9.96854
▁IF	-9.96871
▁bind	-9.96876
▁SGNH	-9.96914
▁arginine	-9.97192
▁mammal	-9.97295
ated	-9.97493
ich	-9.98044
36)	-9.98258
▁Flg	-9.98333
esponse	-9.98385
succinyl	-9.98422
▁BO	-9.98429
glycoside	-9.98478
▁Heat	-9.98488
▁calcium	-9.98488
▁nitrilase	-9.98488
Helicase	-9.98489
03169	-9.9849
▁Glutamine	-9.98491
▁Pseudouridine	-9.98493
Transglutaminase	-9.98497
wit	-9.98529
recorrin	-9.98532
PhoQ	-9.98543
GATA	-9.98543
Like	-9.98586
▁branched	-9.98682
21-	-9.98685
olysin	-9.98731
03	-9.98843
Rab	-9.98874
▁by	-9.98876
▁Streptomyc	-9.9903
▁adapt	-9.99095
mo	-9.9928
acyltransferase	-9.99364
42)	-9.99578
aldehyde	-9.9969
▁Ti	-9.99836
33)	-10.0017
ja	-10.0018
GC	-10.0044
ot	-10.0052
98	-10.0057
▁Anti	-10.0073
26)	-10.0087
▁neu	-10.0105
hydrolases	-10.0108
ap	-10.0132
▁Pre	-10.0136
UK	-10.0147
▁FHA	-10.0154
▁light	-10.0154
58	-10.0175
▁modifie	-10.0184
▁Radical	-10.0194
quo	-10.0194
▁translocation	-10.0194
▁CHASE	-10.0194
nucleotidase	-10.0194
▁Transporter	-10.0194
▁lactose	-10.0194
CitA	-10.0195
▁Rhomboid	-10.0197
▁Sort	-10.0198
▁Rap	-10.0207
nate	-10.0209
ig	-10.021
acceptor	-10.0214
▁Cbl	-10.0217
▁KA	-10.0219
▁MRS	-10.0219
ox	-10.0222
FH	-10.0226
▁Tf	-10.0228
▁junction	-10.0232
Rac	-10.0238
▁cond	-10.0255
▁SNARE	-10.0256
▁cytidyl	-10.0256
Fix	-10.0265
▁Exten	-10.0302
▁glycoprotein	-10.0308
78)	-10.0309
32)	-10.031
▁glucose	-10.0373
▁Par	-10.0375
96)	-10.0391
▁IIB	-10.0392
HY	-10.0413
86	-10.0422
yc	-10.0479
upredoxin	-10.0479
able	-10.0483
FE	-10.0484
ab	-10.0485
nuclease	-10.0489
▁ferredoxin	-10.0504
carboxy	-10.0516
yridoxal	-10.0529
phosphohydrolase	-10.0539
99)	-10.054
▁porin	-10.0545
expressed	-10.0551
mannosidase	-10.0551
▁sortases	-10.0551
▁tube	-10.0551
▁MSCRAMM	-10.0551
▁pump	-10.0551
▁Calcium	-10.0551
Dcu	-10.0551
▁PASTA	-10.0551
▁LysM	-10.0551
▁pathogenesis	-10.0551
▁Mla	-10.0552
▁Hsp	-10.0552
uvr	-10.0552
▁thioesterase	-10.0552
popolysaccharide	-10.0553
ting	-10.0573
MATE	-10.058
RA	-10.0583
zole	-10.0589
59)	-10.0608
steroid	-10.0613
▁degradation	-10.0616
pyruvate	-10.0617
▁Tri	-10.0623
RGS	-10.0623
proline	-10.0624
histone	-10.0625
MCP	-10.0642
30)	-10.0658
ut	-10.0685
▁copper	-10.0691
cat	-10.0733
ATS	-10.0733
▁MAP	-10.0736
ant	-10.0742
▁urea	-10.0745
itive	-10.0746
TP	-10.0754
pent	-10.0768
formyl	-10.0787
39)	-10.0788
90)	-10.0804
97)	-10.0808
-5,	-10.0809
▁Yea	-10.0819
31)	-10.0833
77)	-10.0835
▁dipeptide	-10.0837
▁po	-10.0841
▁UBXN	-10.0848
63)	-10.0889
cent	-10.0895
isomer	-10.0897
▁glutamate	-10.0901
40)	-10.0904
▁h	-10.0904
lipase	-10.0905
microb	-10.0921
glutamyl	-10.0921
▁UvrA	-10.0921
▁Vacuolar	-10.0921
▁XdhC	-10.0921
▁chaperonin	-10.0921
▁Dynamin	-10.0921
▁UvrB	-10.0921
▁ComEC	-10.0921
philin	-10.0922
▁Casein	-10.0922
▁CID	-10.0925
▁prokaryotic	-10.0927
▁Tad	-10.0931
▁CalC	-10.0937
▁Band	-10.0943
FOX	-10.0958
zing	-10.0963
▁VII	-10.0963
▁50	-10.0971
72	-10.0972
heme	-10.0986
▁antitoxin	-10.1004
69)	-10.1024
RBD	-10.1028
assembly	-10.1033
▁surface	-10.1043
dipeptide	-10.105
▁con	-10.1059
SRP	-10.106
diphosphate	-10.1064
lS	-10.1068
114	-10.1071
▁Mu	-10.1078
RS	-10.108
bind	-10.1106
MCT	-10.1126
SU	-10.1135
98)	-10.1142
▁up	-10.1145
bisphosphat	-10.1158
ce	-10.1165
▁HSPA	-10.1207
▁link	-10.1209
poly	-10.1214
▁Cys	-10.1214
ite	-10.1226
60)	-10.1243
tral	-10.1255
LZ	-10.1261
▁BAR	-10.1278
Eut	-10.1281
ect	-10.1283
▁main	-10.1284
sk	-10.1295
hi	-10.1299
▁Small	-10.1306
▁AsmA	-10.1306
▁Hexokinase	-10.1306
▁GPCR	-10.1306
Interact	-10.1306
▁HipA	-10.1306
▁divers	-10.1306
▁common	-10.1307
afA	-10.1307
trophin	-10.1308
PUB	-10.1309
Yrh	-10.1309
▁conse	-10.1312
▁vesicle	-10.1314
Lys	-10.1321
▁glycosidases	-10.1322
polo	-10.1322
▁Activat	-10.1322
▁one	-10.1327
zr	-10.133
▁ParB	-10.1332
▁Lysine	-10.1337
▁Ran	-10.134
▁Translation	-10.1343
BR	-10.1344
▁Musashi	-10.1348
icin	-10.1353
▁Fol	-10.1363
lon	-10.1368
▁regulat	-10.1377
▁PPE	-10.1396
▁exo	-10.1403
tri	-10.1417
89	-10.1419
NAD	-10.1427
guanine	-10.1432
idase	-10.1438
▁Thermo	-10.145
▁AF	-10.145
Rim	-10.1457
RIL	-10.1459
▁NAT	-10.1482
VT	-10.1489
ning	-10.1521
▁Pil	-10.1529
cephal	-10.1531
80)	-10.1542
PG	-10.155
▁deacetylases	-10.1565
ph	-10.1587
NR	-10.1596
nsu	-10.1609
▁branch	-10.1631
29)	-10.1638
eg	-10.1639
FA	-10.1646
op	-10.1648
osis	-10.1667
▁oxygen	-10.1702
▁aldehyde	-10.1704
sulfonate	-10.1706
▁nitrate	-10.1706
Ethanolamine	-10.1706
▁CLECT	-10.1706
▁drug	-10.1706
▁epsilon	-10.1706
▁fluor	-10.1706
▁TamB	-10.1706
▁Dual	-10.1706
▁YjgF	-10.1706
▁SusD	-10.1706
▁AIDA	-10.1707
▁Cyto	-10.1709
▁nucleotidyl	-10.171
▁hav	-10.1711
MPN	-10.1721
▁cAMP	-10.1729
68)	-10.1733
ru	-10.1744
YE	-10.1747
slipin	-10.1749
▁biosynthe	-10.1749
▁sodium	-10.175
▁eukaryotes	-10.175
▁aspartyl	-10.1751
uclear	-10.1762
nt	-10.1767
▁Golgi	-10.1779
▁Cysteine	-10.1779
27)	-10.1782
▁Omp	-10.1787
-(	-10.1796
▁gp	-10.1811
▁li	-10.182
▁Rhs	-10.1843
00)	-10.1846
▁long	-10.1857
adenine	-10.1863
▁en	-10.1865
▁siderophore	-10.1867
Asp	-10.1878
structure	-10.1883
isomerase	-10.1885
▁mannose	-10.1893
65)	-10.1893
hosphoglycerate	-10.1896
▁maltose	-10.1956
Ig	-10.1965
MMR	-10.1967
cy	-10.1976
ram	-10.2007
idine	-10.2008
▁nucleoside	-10.2016
54)	-10.2033
oxide	-10.2038
cellular	-10.2052
ans	-10.2053
ntigen	-10.2074
55)	-10.2075
▁Ubi	-10.208
▁Mono	-10.2082
▁Lysin	-10.2094
coupl	-10.2102
▁Four	-10.2107
67)	-10.2108
ribosyl	-10.2108
age	-10.2111
▁43	-10.2113
▁Integr	-10.2119
hydrate	-10.2122
▁Herpes	-10.2122
▁Nitrate	-10.2122
▁immunoglobulin	-10.2122
▁racemase	-10.2122
acetylmuramoyl	-10.2123
▁Archaeal	-10.2124
▁holin	-10.2125
▁Will	-10.2126
pol	-10.2127
▁Eph	-10.2129
▁formate	-10.213
chi	-10.2139
MP	-10.216
benzoate	-10.2161
▁eIF	-10.2167
▁Ex	-10.2182
59	-10.222
▁KIF	-10.2221
▁CrcB	-10.2229
22)	-10.2233
▁Amphiphysin	-10.2283
▁NU	-10.2291
▁Mec	-10.2304
Thr	-10.2307
21)	-10.2345
MAP	-10.2381
85)	-10.2383
▁Ph	-10.2393
sen	-10.2397
ric	-10.2402
▁HMG	-10.2402
EL	-10.2404
87)	-10.2443
23)	-10.2449
▁NADP	-10.2451
HE	-10.2454
▁genes	-10.2471
▁sulfate	-10.2473
▁peptides	-10.2476
▁KH	-10.2477
▁Dehydrogenase	-10.2482
▁compound	-10.2483
KH	-10.249
glucosamine	-10.2496
▁Hol	-10.2503
▁Mid	-10.2505
▁Adenylat	-10.2513
Regulat	-10.2519
▁che	-10.2537
▁TRAP	-10.2544
ll	-10.2554
anthranilate	-10.2557
▁Bacteroides	-10.2557
▁reaction	-10.2557
▁plasmid	-10.2557
▁homodimeric	-10.2557
ormone	-10.2557
▁Cobalamin	-10.2557
acrolide	-10.2557
▁VPS	-10.2558
▁fimbrial	-10.2558
oxoacid	-10.2561
▁Smg	-10.2561
5401	-10.2562
▁Ricin	-10.2571
▁SelB	-10.2575
▁Targets	-10.2582
▁Surface	-10.2582
▁Phosphoribosyl	-10.2587
urn	-10.2589
BD	-10.2614
▁enoyl	-10.2636
▁phosphoesterase	-10.2638
ntitoxin	-10.2656
44)	-10.2657
▁Spc	-10.2671
▁polypeptide	-10.2679
▁chelat	-10.2728
▁97	-10.2754
▁No	-10.2758
▁TetR	-10.2771
▁Mal	-10.2779
VOC	-10.2795
▁proteases	-10.2797
▁molybdenum	-10.2798
▁SP	-10.2801
dehydratase	-10.281
pyrimidine	-10.2817
ABC	-10.2818
system	-10.282
permease	-10.2821
▁Therm	-10.2852
la	-10.2853
▁AP	-10.2856
ER	-10.2862
▁photo	-10.2864
▁Retro	-10.2866
▁ol	-10.2871
▁damage	-10.2896
(+)	-10.2899
▁SPRY	-10.2901
▁pyruvate	-10.2928
idA	-10.2941
▁un	-10.2948
At	-10.2959
ka	-10.2963
ondensation	-10.2987
ility	-10.2991
degrading	-10.3012
▁Pectate	-10.3012
▁reticulum	-10.3012
▁Copper	-10.3012
▁Mycobacterium	-10.3012
▁toxic	-10.3012
▁FEN	-10.3014
dynein	-10.3015
▁nucleic	-10.3015
▁YhgE	-10.3018
SEP	-10.3025
▁TadE	-10.3027
▁derivatives	-10.3027
▁HRDC	-10.3034
▁major	-10.3034
▁virus	-10.3036
esolvase	-10.3037
IM	-10.3042
85	-10.3048
RCC	-10.3051
ey	-10.3052
CCN	-10.3054
MAPK	-10.3072
uccinylglutamate	-10.3076
▁compounds	-10.309
▁proton	-10.3139
ti	-10.3147
FAF	-10.3148
triphosphate	-10.315
03)	-10.3154
BFD	-10.317
▁pyridoxal	-10.321
_8	-10.323
SMP	-10.3232
sensitiv	-10.3236
46)	-10.3258
93)	-10.3264
has	-10.3264
▁6,	-10.3278
glutathione	-10.3284
propeller	-10.3289
76)	-10.3293
copper	-10.3302
nickel	-10.3307
stress	-10.331
ella	-10.3312
kDa	-10.3313
carrier	-10.3317
core	-10.3317
metal	-10.332
▁nitrite	-10.3335
Zn	-10.3343
▁part	-10.3343
▁Pur	-10.3346
EG	-10.3346
▁co	-10.336
ME	-10.3365
▁on	-10.3377
78	-10.3401
92)	-10.345
hemotaxis	-10.3452
49)	-10.3458
▁ethanolamine	-10.3471
▁extr	-10.3476
420-	-10.3476
▁Actin	-10.3488
promot	-10.3488
isomaltase	-10.3488
uff	-10.3488
▁Cyclase	-10.3488
▁UvrC	-10.3488
▁homeo	-10.3488
▁house	-10.3488
▁entF	-10.3488
rotealysin	-10.3488
▁Calcineurin	-10.3488
▁NodB	-10.3488
▁Ribosome	-10.3488
▁riboflavin	-10.3488
▁amidohydrolase	-10.3489
homoserine	-10.3489
lida	-10.3489
▁Micro	-10.3489
▁particle	-10.3489
▁phosphotyrosine	-10.349
▁metalloprotease	-10.349
▁primase	-10.349
▁Haem	-10.3491
▁PABP	-10.3491
▁Activator	-10.3496
▁dipeptidase	-10.3497
▁TolB	-10.3499
▁Clathrin	-10.35
▁fusion	-10.3501
▁bet	-10.3502
75)	-10.3504
▁GDP	-10.3514
▁Rad	-10.3518
CBM	-10.3521
▁Sm	-10.3538
▁insert	-10.3542
▁Cation	-10.3542
▁adhesin	-10.3544
ASE	-10.3572
▁Activ	-10.3573
Ala	-10.3574
▁pseudouridine	-10.3581
▁coat	-10.3591
88	-10.36
▁Tandem	-10.3611
▁Spore	-10.3612
2+-	-10.3625
FY	-10.3637
▁HI	-10.3642
753)	-10.3656
pi	-10.3658
▁at	-10.3666
LP	-10.3669
▁activat	-10.3671
SWIM	-10.3681
▁Ycf	-10.3682
tog	-10.3685
06)	-10.3688
3/	-10.3694
▁glycero	-10.3715
420	-10.3726
NRPSs	-10.3728
165	-10.3787
RT	-10.3788
▁twin	-10.3789
▁OM	-10.3789
▁Tr	-10.3805
100	-10.381
HDAC	-10.3812
Glu	-10.3815
linked	-10.3821
microtubule	-10.3821
180	-10.3824
▁ammonia	-10.3825
86)	-10.383
FMN	-10.3831
FGD	-10.3832
▁phosphonate	-10.3834
processing	-10.3834
gamma	-10.3838
▁transduc	-10.3839
signal	-10.3839
helicase	-10.384
Type	-10.3853
Met	-10.3855
▁Br	-10.387
Ile	-10.3874
GE	-10.3879
56)	-10.3902
ldehyde	-10.3902
ry	-10.3905
99	-10.3918
▁Eps	-10.3921
inosa	-10.3924
▁Ma	-10.3933
enzyme	-10.3941
▁Cop	-10.3943
PK	-10.395
▁BRC	-10.3953
transpeptidase	-10.3974
hromosome	-10.3979
ix	-10.3985
utilis	-10.3988
penicillin	-10.3988
trefoil	-10.3988
▁Ferredoxin	-10.3988
▁ferritin	-10.3988
oblast	-10.3988
10263	-10.3988
ExbB	-10.3988
▁Anticodon	-10.3988
oxoglutarate	-10.3988
▁TIR	-10.3988
acetylmuramate	-10.3988
RagA	-10.3988
▁Aspartyl	-10.3988
▁Flavin	-10.3989
▁chemoreceptor	-10.3989
cytosolic	-10.399
LIC	-10.3991
Hrc	-10.3991
▁NHL	-10.3992
▁TNK	-10.3997
sulph	-10.3997
kinases	-10.4002
homocystein	-10.4008
▁TATA	-10.4011
io	-10.4017
▁Glycerol	-10.4021
▁TP	-10.4032
66)	-10.4032
IB	-10.4033
▁Ear	-10.4044
NIM	-10.4062
unc	-10.4074
BLL	-10.4078
▁Gamma	-10.4081
▁Ank	-10.4081
hy	-10.4101
TBP	-10.4106
▁Wi	-10.4125
MC	-10.4136
▁spore	-10.4155
48)	-10.4161
▁UB	-10.4161
VP	-10.4176
88)	-10.4195
dihydroxy	-10.42
IX	-10.422
rmolysin	-10.4221
▁galactose	-10.423
▁sarcoma	-10.423
▁NTPase	-10.4233
manno	-10.4234
ug	-10.4247
▁trehalose	-10.4267
▁Com	-10.4268
105	-10.428
▁Yj	-10.4303
69	-10.4314
ABTB	-10.4318
part	-10.4348
pilin	-10.4366
▁Tat	-10.4367
transfer	-10.4376
proton	-10.4389
Associated	-10.4391
regulatory	-10.4392
sigma	-10.4394
metallo	-10.4397
subunit	-10.4419
84)	-10.4419
▁GlnD	-10.4419
synthesi	-10.4439
tamin	-10.4465
dio	-10.4475
ight	-10.4475
citrate	-10.4493
acchar	-10.4497
gr	-10.4498
atty	-10.4503
estriction	-10.4503
▁15	-10.4504
▁Collagen	-10.4511
cytosine	-10.4511
ultidrug	-10.4513
▁Arginine	-10.4514
▁ArsB	-10.4514
▁Immunity	-10.4514
▁catalase	-10.4514
▁fungi	-10.4514
▁require	-10.4514
▁synaptotagmin	-10.4514
▁SPASM	-10.4514
locus	-10.4514
isopropylmalate	-10.4514
07003	-10.4514
▁Choline	-10.4514
termination	-10.4515
aspartoacylase	-10.4515
▁Rrp	-10.4515
▁Bacilli	-10.4515
▁MutS	-10.4515
00449	-10.4515
▁Glycogen	-10.4516
PAAR	-10.4516
▁extension	-10.4516
▁PUA	-10.4516
carnitine	-10.4518
▁MPP	-10.4518
SusC	-10.4518
▁Nitri	-10.4519
▁Argonaut	-10.4528
4,6-	-10.4536
▁MDR	-10.4538
04)	-10.4541
▁steril	-10.4541
aver	-10.4542
GLUTs	-10.4544
AF	-10.4546
▁Trp	-10.4546
▁Fus	-10.4547
▁Sl	-10.4548
ost	-10.4549
▁Est	-10.4558
_3	-10.4561
Nha	-10.4564
▁CDC	-10.4564
▁laccase	-10.4573
▁Phosphate	-10.4574
67	-10.4575
▁Che	-10.4578
KI	-10.4582
plicat	-10.4584
UR	-10.4595
phosphoserine	-10.461
▁Oligo	-10.4613
cyc	-10.4632
Gly	-10.4633
▁Cob	-10.4636
PTP	-10.4642
▁Acyltransferase	-10.4645
▁TR	-10.4658
▁carbamoyl	-10.4659
includ	-10.4671
57	-10.4672
aminomethyl	-10.4676
(+)/	-10.4685
TMR	-10.4685
▁SM	-10.4732
olysaccharide	-10.4736
TAF	-10.4737
BC	-10.4739
▁linke	-10.474
79)	-10.4752
▁flavin	-10.4761
▁nitro	-10.4769
toxin	-10.4781
70_	-10.4784
-[	-10.4797
▁AMP	-10.4801
no	-10.4843
von	-10.4884
coenzyme	-10.4884
09)	-10.4907
OP	-10.4915
HH	-10.492
▁Form	-10.4937
▁Arg	-10.4939
▁Spo	-10.4939
94)	-10.494
ef	-10.4943
▁RBD	-10.4947
uracil	-10.4949
BRE	-10.4957
allo	-10.496
rb	-10.4964
Ank	-10.4968
DENN	-10.4974
uridylyl	-10.4975
sorting	-10.4979
▁per	-10.499
splic	-10.4992
▁Enzyme	-10.4995
itis	-10.5003
Ras	-10.5017
determin	-10.5022
pin	-10.5035
▁Trm	-10.5041
uble	-10.5046
SR	-10.5046
rcul	-10.5047
lyoxalase	-10.5057
▁Like	-10.5062
AK	-10.5063
ACK	-10.5066
ropionate	-10.5068
Plasmid	-10.507
▁GDSL	-10.507
▁aerug	-10.507
▁bundle	-10.507
▁contexts	-10.507
▁duplicat	-10.507
▁interleukin	-10.507
▁maritim	-10.507
▁Sulfo	-10.507
▁RHOD	-10.507
03212	-10.507
▁FKBP	-10.507
xylulose	-10.507
▁selenium	-10.507
▁Arginase	-10.507
▁Single	-10.507
▁Sensor	-10.507
▁Creatinase	-10.507
▁Oxidative	-10.507
▁HNH	-10.507
▁Polymerase	-10.507
▁Fusari	-10.5071
xanthine	-10.5071
▁ECF	-10.5071
▁most	-10.5071
-1234	-10.5072
12323	-10.5072
▁DPM	-10.5072
Hrp	-10.5072
permut	-10.5073
▁sucrose	-10.5073
diaminopimel	-10.5073
▁Collagenase	-10.5074
▁Tripartite	-10.5074
▁pepsin	-10.5077
▁diphosphatase	-10.5082
3899	-10.5084
▁RsmB	-10.5087
NtrC	-10.5087
▁glucan	-10.5088
(+)-	-10.5088
RIM	-10.509
RsmF	-10.5092
▁Mito	-10.51
semia	-10.5106
▁residues	-10.5115
▁MotA	-10.5124
rod	-10.5129
Sm	-10.5132
▁infe	-10.5134
▁variant	-10.5142
ysin	-10.5147
▁Receptors	-10.5152
arF	-10.5152
▁Ydc	-10.5172
▁Mo	-10.5174
▁Toll	-10.5176
GTP	-10.5179
▁ne	-10.5183
▁RhsA	-10.5186
▁reactiv	-10.5192
▁NTP	-10.5196
▁nucleol	-10.52
AS	-10.5215
TRD	-10.5223
▁Hu	-10.5235
selenocysteine	-10.5237
▁CE	-10.5251
▁antiterminat	-10.5266
haP	-10.5267
▁AT	-10.5275
53)	-10.5282
57)	-10.53
▁Ferr	-10.5304
eoxyribonuclease	-10.5334
▁VOC	-10.5343
-7-	-10.5374
▁u	-10.5374
▁shikimate	-10.5382
▁dihydro	-10.5394
theli	-10.5397
▁Sel	-10.5413
EC	-10.5422
SLC	-10.5424
▁SRP	-10.5461
il	-10.548
4131	-10.5488
▁tetra	-10.5512
▁EFh	-10.5532
HAD	-10.5536
GTPase	-10.5536
Di	-10.5546
AN	-10.5554
HO	-10.5563
choline	-10.558
tetrahydro	-10.5582
07)	-10.5589
04	-10.5591
Su	-10.5594
Rec	-10.5595
▁CD	-10.5598
tail	-10.5608
▁NSF	-10.5621
▁Surfac	-10.5624
eIF	-10.5627
methan	-10.5628
▁SUF	-10.5649
73)	-10.565
roporphyrinogen	-10.5655
erminal	-10.5655
▁Mei	-10.5657
▁Carboxypep	-10.5658
GlcNAc	-10.5658
MARCH	-10.5658
myelin	-10.5658
putrescine	-10.5658
▁Adenine	-10.5658
▁Nitrogen	-10.5658
▁Schizos	-10.5658
▁asymmetry	-10.5658
▁consist	-10.5658
▁cytoskeleton	-10.5658
▁mannitol	-10.5658
▁transaminase	-10.5658
▁transcriptase	-10.5658
otamase	-10.5658
▁Arabinose	-10.5658
▁Calmodulin	-10.5658
▁Short	-10.5658
▁GntR	-10.5658
▁Telomere	-10.5658
▁ALDH	-10.5658
GRAM	-10.5658
5236	-10.5658
03378	-10.5658
AlgR	-10.5658
GPAT	-10.5659
coil	-10.5659
▁phase	-10.5659
▁resolvase	-10.5659
▁Ada	-10.5659
▁down	-10.5659
fused	-10.5661
▁Psf	-10.5661
▁YwqK	-10.5661
TolQ	-10.5661
▁Formate	-10.5661
UL	-10.5663
▁Bio	-10.5666
▁HECTc	-10.5667
▁Thiamine	-10.5667
/8	-10.5668
Dcp	-10.5668
mbe	-10.5672
rmB	-10.5674
diacylglycerol	-10.5676
▁CAM	-10.5679
▁hand	-10.5681
▁anchor	-10.5687
▁1,2-	-10.5687
rolyl	-10.5689
▁1,4-	-10.5691
response	-10.5698
yp	-10.5702
58)	-10.5708
OB	-10.571
IAP	-10.571
ho	-10.5719
vi	-10.5725
IL	-10.5725
▁SCP	-10.5728
PF	-10.574
late	-10.5748
nam	-10.5755
▁HDc	-10.5757
▁im	-10.5761
▁inter	-10.5762
tripeptide	-10.5772
SETD	-10.5783
HD	-10.5788
gan	-10.579
▁LRR	-10.58
3420	-10.5803
▁nucleo	-10.5811
▁START	-10.5812
▁Unc	-10.5823
psA	-10.5832
car	-10.5842
nove	-10.5852
▁suppress	-10.5856
▁Med	-10.586
▁microtubule	-10.586
if	-10.5864
MR	-10.5868
gen	-10.5885
Ks	-10.5886
HSD	-10.594
trin	-10.5942
▁Bac	-10.5953
IgSF	-10.5957
08)	-10.5978
epA	-10.5989
77	-10.5989
uridine	-10.5997
▁DD	-10.6032
▁adenine	-10.604
PSP	-10.6049
▁IIa	-10.6067
▁Ab	-10.608
quinol	-10.6081
▁guanine	-10.6091
osens	-10.6093
GG	-10.6122
lay	-10.6129
cess	-10.6133
▁min	-10.6165
si	-10.618
olate	-10.6181
/2-	-10.6209
▁sensing	-10.6219
967	-10.6222
▁methionine	-10.6232
11-	-10.6237
fucos	-10.6248
Ysc	-10.6251
cin	-10.626
IV	-10.6262
rth	-10.6264
endopeptidase	-10.6268
modification	-10.6276
porulation	-10.6278
ubfamily	-10.6278
ripartite	-10.6279
▁ribose	-10.6279
▁frag	-10.628
▁affect	-10.6283
▁compo	-10.6283
▁energy	-10.6283
▁enzymatic	-10.6283
05691	-10.6283
CTERM	-10.6283
Glucosyl	-10.6283
calmodulin	-10.6283
▁Apolipoprotein	-10.6283
▁Chorismate	-10.6283
▁Coatomer	-10.6283
▁Inhibitor	-10.6283
▁bacteriocin	-10.6283
▁hybrid	-10.6283
pyrrol	-10.6283
loride	-10.6283
▁TOBE	-10.6283
▁mechan	-10.6283
▁TenA	-10.6283
▁ROM	-10.6283
▁cyclophilin	-10.6283
▁SprT	-10.6283
▁Staphylococcus	-10.6284
▁MutL	-10.6284
comb	-10.6284
▁Yjj	-10.6284
▁Czc	-10.6284
▁Glutamate	-10.6284
▁NarL	-10.6284
▁Lipase	-10.6284
▁RND	-10.6284
oligosaccharide	-10.6284
▁RDD	-10.6285
▁electron	-10.6285
▁YjbI	-10.6286
▁circular	-10.6287
▁gag	-10.6289
synth	-10.6289
▁Streptococc	-10.6289
4118)	-10.629
taining	-10.629
onco	-10.6293
▁intermediates	-10.6295
Chromatin	-10.6296
UT	-10.6297
▁PadR	-10.6303
▁RasGEF	-10.6305
▁Fructose	-10.6309
▁Fab	-10.631
pantothenate	-10.6311
ov	-10.6312
pentapeptide	-10.6314
glycinamid	-10.6315
▁activation	-10.6323
▁FliN	-10.6324
▁Fim	-10.6324
RAL	-10.6333
▁2,4-	-10.6333
▁ThiS	-10.6338
MS	-10.6341
▁TAB	-10.6353
cys	-10.636
TAZ	-10.6376
▁Fo	-10.6378
▁threonine	-10.6419
ornithine	-10.6422
116	-10.6427
▁Proteins	-10.6434
▁Ni	-10.6435
▁CO	-10.644
▁VC	-10.6442
62	-10.6443
px	-10.6444
▁biotin	-10.6448
123	-10.6485
binofuranosidase	-10.6491
▁bZIP	-10.6509
aminotransferase	-10.6529
753	-10.6559
▁glycine	-10.6569
▁associat	-10.6574
PBP	-10.6586
-70	-10.6589
▁sp	-10.6589
▁pyrimidine	-10.6604
031	-10.664
erse	-10.6644
erythr	-10.6646
▁Dihydro	-10.6654
ining	-10.6663
noa	-10.6687
add	-10.6693
▁Ta	-10.6698
▁Asp	-10.6699
porin	-10.6702
REB	-10.6715
aquat	-10.6729
▁TIA	-10.6737
▁mi	-10.6754
▁tr	-10.6755
▁Ammoni	-10.6778
OX	-10.6829
lR	-10.6835
▁diphosphate	-10.6835
PTR	-10.6848
IF	-10.6863
ri	-10.6873
▁integrat	-10.6878
ARP	-10.688
ara	-10.6886
▁stomatin	-10.6894
IT	-10.6895
BT	-10.6902
KP	-10.6919
roton	-10.6929
eptidyl	-10.6935
▁Heli	-10.6938
▁nu	-10.6942
▁SRSF	-10.6944
ron	-10.6946
PLEKH	-10.695
conduct	-10.695
▁crotonase	-10.695
ppGpp	-10.695
▁arginyl	-10.695
etraspanin	-10.695
hexose	-10.695
▁CPSase	-10.695
▁Globin	-10.695
▁Hemerythrin	-10.695
▁TOPRIM	-10.695
▁flavodoxin	-10.695
▁tissue	-10.695
▁Cyclic	-10.695
▁Ezrin	-10.695
▁MraZ	-10.695
▁Nudix	-10.695
▁Carbon	-10.695
▁DoxX	-10.695
▁RcsC	-10.695
▁WYL	-10.695
hydrofolate	-10.695
▁macrodomain	-10.695
▁LbetaH	-10.695
▁High	-10.695
▁CYTH	-10.695
adixin	-10.695
glucuron	-10.695
▁SurA	-10.695
sucrase	-10.695
▁Proline	-10.695
HUMP	-10.695
▁break	-10.6951
Raf	-10.6951
▁Homeodomain	-10.6952
▁EAL	-10.6952
psr	-10.6953
▁EDD	-10.6954
TRIO	-10.6955
3447)	-10.6955
KCTD	-10.6955
FB	-10.6958
▁folate	-10.6959
▁Peptide	-10.6959
▁EGF	-10.6959
bacterial	-10.696
oesin	-10.696
mber	-10.6963
BUB	-10.6963
thiol	-10.6965
Endonuclease	-10.6972
tyrosine	-10.6973
ethanolamine	-10.6975
nose	-10.6975
▁HATPase	-10.6976
Four	-10.6977
Top	-10.6984
delta	-10.6984
fucose	-10.6987
rokaryotic	-10.6988
▁Vps	-10.6989
▁Yes	-10.699
▁maint	-10.6991
BPL	-10.6994
▁PPP	-10.6995
▁CheC	-10.6996
pie	-10.6997
abled	-10.7
▁Nei	-10.7002
▁Flotillin	-10.7008
Ag	-10.7018
Extracellular	-10.7022
EIIA	-10.7023
2_8	-10.7026
407	-10.7029
dimethyl	-10.7046
Box	-10.7052
un	-10.7053
▁Mac	-10.7053
▁FAT	-10.7058
LT	-10.7058
mental	-10.7065
022	-10.7077
▁epi	-10.7079
▁4,	-10.7083
CD	-10.7086
integrin	-10.7098
▁HR	-10.712
para	-10.7121
▁LON	-10.7126
teichu	-10.7147
▁Solu	-10.7157
▁GATA	-10.7159
4131)	-10.7166
79	-10.7173
pho	-10.7177
RAP	-10.7181
ium	-10.7188
▁30	-10.7189
▁Vi	-10.7195
▁forming	-10.7196
▁transposon	-10.7206
▁PII	-10.7213
lim	-10.7223
▁succinate	-10.723
▁Lipid	-10.7234
TraD	-10.724
▁Secret	-10.724
▁cycl	-10.7248
▁linked	-10.7252
▁Glu	-10.7266
NF	-10.7271
▁clea	-10.728
▁myo	-10.7286
_11	-10.7295
▁tumor	-10.7331
▁peroxidase	-10.7331
73	-10.7337
HPr	-10.7339
ospora	-10.7346
galact	-10.7356
▁phosphorylat	-10.7359
line	-10.7362
▁modulator	-10.737
▁car	-10.7407
onic	-10.7419
AAT	-10.7421
act	-10.7446
mon	-10.7448
▁PPR	-10.7453
uridylate	-10.7467
inhibit	-10.7548
teroid	-10.7557
DT	-10.756
115	-10.7571
▁Por	-10.7581
cell	-10.7597
▁Nexin	-10.7603
▁Fer	-10.7603
sulfatase	-10.7604
lanine	-10.7605
romatic	-10.7615
ethylphosphonate	-10.7618
Prol	-10.7622
yrimidine	-10.7641
ermease	-10.7643
esistance	-10.7653
▁HRD	-10.7654
▁18	-10.766
▁prim	-10.7661
▁Trypsin	-10.7664
▁Molybdopterin	-10.7664
▁Sodium	-10.7664
00733	-10.7664
FBXO	-10.7664
pantoate	-10.7664
recognin	-10.7664
▁Bruton	-10.7664
▁Xanthine	-10.7664
▁blue	-10.7664
▁desulfurase	-10.7664
▁mismatch	-10.7664
▁syndrome	-10.7664
Loop	-10.7664
▁terminase	-10.7664
thumb	-10.7664
▁ribonucleoside	-10.7664
▁LamB	-10.7664
phosphotriester	-10.7664
▁CcdA	-10.7664
▁Yeb	-10.7664
▁Lysyl	-10.7664
omaltodextrinase	-10.7664
AtARP	-10.7664
▁RTX	-10.7664
▁RCBTB	-10.7665
▁rve	-10.7665
Glycoside	-10.7665
▁glycans	-10.7665
▁EXS	-10.7665
▁utilisation	-10.7665
▁Myotubularin	-10.7665
▁photolyase	-10.7666
▁divalent	-10.7666
ipeptidyl	-10.7666
▁Nnr	-10.7666
rin	-10.7666
▁intracellular	-10.7667
glucosyl	-10.7667
translocating	-10.7667
▁precursor	-10.7667
2723)	-10.7667
▁DEXH	-10.7669
▁proteobacterial	-10.767
▁endonucleases	-10.7671
▁WHG	-10.7671
▁SPX	-10.7671
▁MCP	-10.7672
jo	-10.7672
▁FAM	-10.7673
▁subset	-10.7673
▁Propeptide	-10.7674
SRY	-10.7675
amylase	-10.7677
cobacter	-10.7682
▁PTB	-10.7682
▁TraG	-10.7682
SUMO	-10.7684
viol	-10.7685
LGF	-10.7694
▁Mod	-10.7695
lk	-10.7697
OSC	-10.7698
▁FliI	-10.7699
▁Pul	-10.7711
mid	-10.7714
OU	-10.7723
▁TAP	-10.7723
carbon	-10.7724
CS	-10.7738
▁tolerance	-10.7746
zinc	-10.7749
aspartate	-10.775
2+/	-10.7752
LIN	-10.7753
light	-10.7754
putative	-10.7759
motif	-10.776
tally	-10.7762
sensing	-10.7775
▁FeS	-10.7785
029	-10.7803
BRC	-10.7807
▁transferases	-10.7808
▁Cupredoxin	-10.7812
157	-10.7824
004	-10.7845
thio	-10.7846
TRC	-10.7854
▁guanosine	-10.7854
▁EPH	-10.787
0251	-10.7877
▁lectins	-10.7902
▁Cro	-10.7902
▁Rlm	-10.7915
lysin	-10.7917
ve	-10.7921
▁kD	-10.7929
osome	-10.7949
▁8-	-10.7972
▁ad	-10.7988
▁Nif	-10.7992
SV	-10.8004
▁IMP	-10.8036
▁Gp	-10.807
▁MATH	-10.8076
olin	-10.8082
bg	-10.8082
ns	-10.8098
Bin	-10.8108
ure	-10.8128
▁BR	-10.8138
▁Rv	-10.8145
LD	-10.817
▁Proteinase	-10.8172
TRI	-10.8172
channels	-10.8183
128	-10.8188
lar	-10.8198
nor	-10.8203
TEN	-10.8219
enti	-10.8235
▁DHQ	-10.8245
▁Nop	-10.8247
Per	-10.8266
DE	-10.8267
▁Rsm	-10.8288
▁Si	-10.83
▁others	-10.8305
▁Strepto	-10.8306
LE	-10.8319
▁Pyr	-10.8323
glucano	-10.8329
ld	-10.835
hikimate	-10.8357
▁Li	-10.8387
▁proto	-10.8403
opeptidase	-10.8406
ofil	-10.8407
illi	-10.8407
iacylglycerol	-10.8412
▁Nin	-10.8414
iB	-10.8415
▁OB	-10.8421
cyano	-10.8424
▁phospholipid	-10.8426
▁DHR	-10.8427
▁hyper	-10.8429
▁nitrogen	-10.843
rnithine	-10.843
lectron	-10.8431
dehydroquina	-10.8431
▁entero	-10.8433
▁Dehydroquina	-10.8433
Acylhydrolase	-10.8433
scription	-10.8433
soprenyl	-10.8433
▁AbiEi	-10.8433
▁AmtB	-10.8433
▁HtpX	-10.8433
▁Initiat	-10.8433
▁Recombination	-10.8433
▁Rieske	-10.8433
▁apparatus	-10.8433
▁deacylase	-10.8433
▁knuckle	-10.8433
▁neighbor	-10.8433
▁pylori	-10.8433
▁rimI	-10.8433
globulin	-10.8433
▁Carbamoyl	-10.8433
▁Sprouty	-10.8433
▁Uracil	-10.8433
03091	-10.8433
12678	-10.8433
▁Yhb	-10.8433
MYND	-10.8433
▁dnaA	-10.8433
Pqq	-10.8433
muC	-10.8433
tribut	-10.8433
▁ferric	-10.8433
▁Isocitrate	-10.8434
▁SMAD	-10.8434
▁cotransporter	-10.8434
rhamnosid	-10.8434
▁DAHP	-10.8434
▁Tetracyclin	-10.8434
deoxychorismate	-10.8434
AANH	-10.8434
▁Terpene	-10.8434
▁ELM	-10.8435
Utp	-10.8435
▁Ycc	-10.8435
▁Adapt	-10.8435
ribulose	-10.8435
▁dDENN	-10.8435
asparaginase	-10.8436
▁PFL	-10.8436
rule	-10.8436
Arl	-10.8436
LYR	-10.8436
CESA	-10.8436
rise	-10.8437
▁rne	-10.8438
Glc	-10.8438
▁antibiotic	-10.8438
FbpA	-10.8441
▁Osmosens	-10.8442
▁Synthase	-10.8443
polyprenyl	-10.8443
▁triphosphatase	-10.8443
3292	-10.8444
▁Tox	-10.8445
▁anaerobic	-10.8445
▁PINCH	-10.8446
▁Trb	-10.8446
(2)-	-10.8449
▁Int	-10.845
▁diphospho	-10.845
030	-10.8454
omonas	-10.8455
(34)	-10.8458
▁ele	-10.8463
▁filament	-10.8466
▁BPI	-10.8468
▁Ent	-10.8472
CBL	-10.8474
▁MASE	-10.8477
sterol	-10.8483
oate	-10.8491
FGF	-10.8496
CYC	-10.8516
▁Malt	-10.8528
▁CHAD	-10.853
▁Tn	-10.8543
▁Cu	-10.8551
CI	-10.8555
hydrogenase	-10.8556
▁Dehydrogenases	-10.857
▁DnaB	-10.8578
▁pyrophosphate	-10.858
▁isoform	-10.8582
homolog	-10.8582
cyclohydrolase	-10.8588
leucine	-10.859
ligase	-10.8593
mamidopyrimidine	-10.8594
UBA	-10.86
▁Cyc	-10.8604
GlnD	-10.8628
▁hydrogen	-10.8636
orha	-10.8677
81	-10.8686
Sox	-10.8688
▁STARD	-10.8699
▁malate	-10.8702
84	-10.872
bb	-10.8734
308	-10.8748
iron	-10.8764
▁propeller	-10.8775
sulfate	-10.8791
▁activators	-10.8836
pro	-10.8849
▁For	-10.8856
lating	-10.886
rm	-10.8874
lipoyl	-10.8876
xyacet	-10.8891
3-9	-10.8899
204	-10.89
br	-10.8902
hermolysin	-10.892
cis	-10.8927
▁spermidine	-10.894
▁RE	-10.8946
130	-10.8951
▁oxide	-10.8981
▁Cho	-10.8983
805	-10.8998
▁sulfi	-10.9008
acet	-10.9017
KA	-10.9051
▁Pep	-10.9056
▁Hem	-10.9062
▁activate	-10.9066
idB	-10.9076
adenylate	-10.908
▁SEC	-10.9092
NO	-10.9097
▁encod	-10.9102
har	-10.9105
QC	-10.9105
▁De	-10.9115
▁adenosyl	-10.912
166	-10.9165
82	-10.917
DN	-10.918
mous	-10.9198
ogenesis	-10.92
uronate	-10.9205
oco	-10.9225
rch	-10.9225
▁Mot	-10.9226
ocyte	-10.9231
▁plants	-10.9234
lipin	-10.9241
▁TRC	-10.9246
▁thiol	-10.9248
plas	-10.9254
epsin	-10.9258
alized	-10.9258
onserve	-10.9259
▁thioester	-10.9263
deamina	-10.9265
own	-10.9265
gie	-10.9266
▁Cullin	-10.9267
PACSIN	-10.9267
organelle	-10.9267
patch	-10.9267
requiring	-10.9267
sorbose	-10.9267
yrophosphorylase	-10.9267
zeste	-10.9267
▁Arginyl	-10.9267
▁Glutaredoxin	-10.9267
▁Repressor	-10.9267
▁YgfZ	-10.9267
▁bicupin	-10.9267
▁competence	-10.9267
▁mycofactocin	-10.9267
▁pigment	-10.9267
metazoa	-10.9267
▁Plexin	-10.9267
▁molybdopterin	-10.9267
▁SICA	-10.9267
▁fadE	-10.9267
circle	-10.9267
PCGF	-10.9267
ChuX	-10.9267
aralog	-10.9267
rhamnose	-10.9267
▁Ytx	-10.9267
▁Nuo	-10.9267
▁hemolysin	-10.9267
▁Numb	-10.9267
▁Yaa	-10.9267
▁development	-10.9267
▁Delta	-10.9267
▁EamA	-10.9267
obetain	-10.9267
▁oligomerization	-10.9267
▁starvation	-10.9267
dipic	-10.9267
thioadenosine	-10.9267
▁TyrR	-10.9267
▁Neuro	-10.9268
▁prenyl	-10.9268
▁insect	-10.9268
▁Prt	-10.9268
▁Cold	-10.9268
▁diiron	-10.9268
▁release	-10.9269
▁CarD	-10.9269
0182	-10.9269
▁convertase	-10.9269
▁parA	-10.927
MerR	-10.927
Tail	-10.927
▁Plasmodium	-10.927
▁SpoU	-10.9271
▁PilZ	-10.9271
SIK	-10.9271
ucrose	-10.9271
▁POT	-10.9271
MSSP	-10.9272
xoribonuclease	-10.9272
▁Pex	-10.9273
▁Pilus	-10.9274
▁OsmC	-10.9274
bisphosphatase	-10.9275
retropepsin	-10.9276
▁six	-10.9276
urein	-10.9277
polar	-10.9279
▁chloroplast	-10.9279
PAD	-10.928
▁extra	-10.9281
unit	-10.9281
ank	-10.9282
▁CorA	-10.9282
IRP	-10.9283
▁GDE	-10.9283
peroxide	-10.9285
Asn	-10.9285
▁Purine	-10.9286
4,5-	-10.9286
▁Lig	-10.9287
▁autotransporter	-10.9289
▁RPA	-10.929
▁succinyl	-10.9292
transhydrogenase	-10.9293
diol	-10.9294
bdg	-10.9294
mov	-10.9296
▁Tau	-10.9296
hydroxymethyl	-10.9299
▁DnaK	-10.9302
KBTBD	-10.9302
filin	-10.9303
▁Fla	-10.9309
ancer	-10.9309
208	-10.931
(6)	-10.9311
yridine	-10.9313
▁MlaD	-10.9313
UBL	-10.9314
iboflavin	-10.9315
▁chi	-10.9316
▁reduct	-10.9318
5025	-10.9319
▁Ysc	-10.932
▁Siroh	-10.9324
▁IID	-10.9325
tor	-10.9325
xosortase	-10.9328
▁Histidinol	-10.9337
ulo	-10.9339
TFIID	-10.9341
fe	-10.9343
sation	-10.9343
▁mu	-10.9346
LR	-10.9347
occus	-10.9351
Ami	-10.9365
ellulose	-10.9366
RBP	-10.9379
▁choline	-10.9379
▁Enzymes	-10.9382
aminoacyl	-10.9397
mutase	-10.9404
▁fi	-10.9409
ltra	-10.9412
▁KIFI	-10.9418
DMT	-10.9418
▁Mad	-10.9426
▁tryptophan	-10.9432
▁GS	-10.9434
mb	-10.9439
ization	-10.9443
▁SAP	-10.9446
▁SPO	-10.9453
capsid	-10.9468
▁HK	-10.947
Arg	-10.9471
damage	-10.9487
Kv	-10.9488
Hp	-10.9488
DHQ	-10.9488
nucleoside	-10.9488
basal	-10.9493
Ves	-10.9494
SEC	-10.9502
metabolite	-10.9502
Serine	-10.9504
methylene	-10.9507
homology	-10.9512
▁Wal	-10.9513
SPRY	-10.9515
▁WH	-10.9521
▁Yp	-10.9524
Spr	-10.953
▁ET	-10.9532
benz	-10.9554
▁mannosyl	-10.9556
156	-10.9567
NU	-10.9568
yb	-10.9569
Ka	-10.9594
▁mal	-10.9596
▁65	-10.9597
▁36	-10.9622
osomal	-10.9632
13_	-10.9636
▁Chlor	-10.9637
▁glutathione	-10.964
▁Tre	-10.9642
▁dioxygenases	-10.9659
▁coenzyme	-10.9669
Mut	-10.9692
phenyl	-10.97
can	-10.9713
▁micro	-10.9714
ACH	-10.9721
AMPK	-10.9731
oxidiz	-10.9736
▁Organi	-10.9753
ano	-10.9755
elso	-10.9763
▁Thr	-10.9774
▁immunity	-10.9791
▁regulate	-10.9796
iens	-10.9802
▁Mur	-10.9814
▁ER	-10.9817
forms	-10.9817
▁partner	-10.9823
Hydroxy	-10.9828
FR	-10.9836
169)	-10.9846
▁lacto	-10.9879
TC	-10.9884
▁Rpb	-10.9889
per	-10.9908
▁LM	-10.9929
80	-10.9943
144	-10.9944
form	-10.9967
ens	-10.9969
include	-11.0007
resent	-11.0016
▁lacton	-11.0032
▁RP	-11.004
▁Phn	-11.0074
▁oxid	-11.0076
essen	-11.0116
Hb	-11.0123
87	-11.014
▁Ure	-11.0142
monas	-11.0149
morphogene	-11.0151
ft	-11.0158
etropepsin	-11.0166
▁Yf	-11.0166
▁Rlu	-11.0167
▁cu	-11.0167
chloro	-11.0167
ermination	-11.0168
trA	-11.0168
bpA	-11.0169
YG	-11.0172
lactam	-11.0173
lympho	-11.0175
thioredoxin	-11.0176
tubulin	-11.0176
02864	-11.0176
02874	-11.0176
catechol	-11.0176
xylosidase	-11.0176
▁Anthranilate	-11.0176
▁BvgS	-11.0176
▁Exonuclease	-11.0176
▁Metazoa	-11.0176
▁Possibl	-11.0176
▁SbcC	-11.0176
▁Synechoc	-11.0176
▁Tryptophan	-11.0176
▁activities	-11.0176
▁antagonist	-11.0176
▁lysozyme	-11.0176
▁ArsR	-11.0176
▁Low	-11.0176
▁RsuA	-11.0176
SppA	-11.0176
▁Plug	-11.0176
▁Starch	-11.0176
▁Keto	-11.0176
heat	-11.0176
▁VirD	-11.0176
glucanases	-11.0176
▁pirin	-11.0176
glucomutase	-11.0176
Yhf	-11.0176
▁CspA	-11.0176
▁lambda	-11.0176
ENTH	-11.0176
▁Prophage	-11.0176
orax	-11.0176
▁Finger	-11.0176
▁lead	-11.0176
▁organisation	-11.0176
aminoimidazole	-11.0176
03918	-11.0176
TMEM	-11.0176
▁indole	-11.0176
dextrinase	-11.0177
▁exosome	-11.0177
EIIC	-11.0178
▁coiled	-11.0178
4191	-11.0178
▁complement	-11.0178
▁Photo	-11.0179
▁ferro	-11.0179
4_9	-11.0179
▁Bub	-11.018
aminoacylase	-11.018
UUR	-11.018
▁Medi	-11.0182
▁Long	-11.0182
ogenes	-11.0185
propanediol	-11.0186
sorbitol	-11.0187
TCF	-11.0188
-1,2-	-11.0188
▁PspC	-11.0189
PRDM	-11.0189
▁RAD	-11.019
▁Yji	-11.0195
▁DHHC	-11.0195
▁1,6-	-11.0196
red	-11.0196
▁ACAD	-11.0197
connect	-11.0197
ULE	-11.0199
▁ClassII	-11.0201
cGK	-11.0202
enhancer	-11.0207
Atp	-11.0208
▁Phospholipase	-11.021
▁mini	-11.0212
▁Go	-11.0213
HAT	-11.0215
var	-11.0221
solu	-11.0221
▁PRD	-11.0229
▁ret	-11.023
1355	-11.0231
ERK	-11.0231
▁PilB	-11.0232
▁Bam	-11.0235
▁exchanger	-11.0241
NSD	-11.0255
GF	-11.0258
▁Epox	-11.027
▁Reductase	-11.0282
▁KOW	-11.0282
▁MviN	-11.0282
▁all	-11.029
▁CCA	-11.0296
▁LPS	-11.0299
▁Pad	-11.0299
▁FtsH	-11.0302
UD	-11.0305
IIA	-11.0309
▁CW	-11.0319
ger	-11.033
▁lysine	-11.0334
4158	-11.0339
yz	-11.0341
▁residue	-11.0347
▁La	-11.0349
4734	-11.0352
▁Sulfi	-11.0354
▁PAP	-11.0362
tm	-11.0364
▁Sr	-11.0364
179	-11.038
▁Rar	-11.0384
DI	-11.0389
ota	-11.0423
-2,3-	-11.0425
ran	-11.0429
ComA	-11.0453
Hydrolase	-11.0468
Rpb	-11.0472
TIA	-11.0483
fB	-11.0484
63	-11.0484
ammonia	-11.0486
nitrite	-11.0486
▁cobalamin	-11.0498
▁globin	-11.0499
exonuclease	-11.0499
dihydro	-11.0499
Peptidase	-11.0502
Sec	-11.0503
lectin	-11.0507
transporter	-11.0511
resistance	-11.0515
▁HDAC	-11.0523
UDP	-11.0527
IIBC	-11.0529
dh	-11.0537
Pep	-11.0539
phosphonate	-11.0541
185	-11.0551
det	-11.0566
oid	-11.057
apC	-11.0574
Lp	-11.0577
NS	-11.0579
▁subtype	-11.058
▁fragil	-11.0588
somal	-11.06
▁Lact	-11.0604
GTPases	-11.0624
mal	-11.0625
SCR	-11.0627
PAS	-11.0638
▁purine	-11.0639
group	-11.0665
8_	-11.0666
Ser	-11.0676
hydroxybenzoate	-11.0705
▁fumarate	-11.0716
34/	-11.0735
aem	-11.0735
pI	-11.074
▁sal	-11.0759
▁RAG	-11.0774
752)	-11.0785
▁precorrin	-11.082
ller	-11.0838
PLA	-11.0845
08	-11.0855
▁Hydrolase	-11.0862
464	-11.0866
ANK	-11.0885
eria	-11.089
RK	-11.0935
▁capsid	-11.0938
RAMP	-11.0944
▁Ccm	-11.0946
ong	-11.0947
▁thermophilu	-11.0947
▁Gluca	-11.0951
rE	-11.0987
ating	-11.1001
▁Oxid	-11.1028
▁nex	-11.103
alkyl	-11.1033
pre	-11.1034
rab	-11.1041
▁Phosphotransfer	-11.1051
▁carbon	-11.1055
EX	-11.1063
omer	-11.107
▁Malto	-11.1081
ever	-11.1086
▁Tol	-11.1095
▁prot	-11.1102
opine	-11.1107
435	-11.1108
83	-11.1118
ATZ	-11.1125
rebr	-11.113
▁Pri	-11.113
rsenical	-11.114
nhancer	-11.1141
▁capsul	-11.1146
rgonaut	-11.115
osmo	-11.1151
▁Yab	-11.1151
chorismate	-11.1158
bl	-11.116
rephenate	-11.1164
▁Cyt	-11.1165
▁proteo	-11.1166
▁Sig	-11.1167
▁KCTD	-11.1167
▁port	-11.1167
▁nitri	-11.117
▁Ywq	-11.117
vWF	-11.1171
▁stabili	-11.1173
glycop	-11.1173
▁Yba	-11.1173
▁fibronec	-11.1175
hydroxyiso	-11.1176
Utiliz	-11.1176
▁retardation	-11.1176
queu	-11.1176
▁Flavodoxin	-11.1176
▁Isoprenoid	-11.1176
▁PDDEXK	-11.1176
▁PgaB	-11.1176
▁Vibrio	-11.1176
▁Virulence	-11.1176
▁Ybj	-11.1176
▁palmito	-11.1176
▁DMSO	-11.1176
▁Rhodanese	-11.1176
▁dyad	-11.1176
▁quorum	-11.1176
▁Patatin	-11.1176
▁Synapt	-11.1176
SdrC	-11.1176
asmic	-11.1176
▁luciferase	-11.1176
hepta	-11.1176
▁death	-11.1176
lantibiotic	-11.1176
▁Telomerase	-11.1176
▁revers	-11.1176
▁Polo	-11.1176
▁LolB	-11.1176
▁coactivator	-11.1176
▁dismutase	-11.1176
▁Sulph	-11.1176
▁FeoA	-11.1176
▁TusB	-11.1176
Spec	-11.1176
▁Homoserine	-11.1176
▁Lrp	-11.1176
▁RuvA	-11.1176
annas	-11.1176
▁step	-11.1176
ING	-11.1176
Upf	-11.1177
▁Aspartate	-11.1177
▁NlpD	-11.1177
DISM	-11.1177
conve	-11.1177
hydroxybutyrate	-11.1177
▁perip	-11.1177
obacterium	-11.1177
▁sialidases	-11.1178
697	-11.1178
▁echin	-11.1178
PYR	-11.1178
▁Medium	-11.1178
istant	-11.1179
elated	-11.1179
▁Yfi	-11.1179
propionate	-11.1179
rhizobi	-11.1179
▁clade	-11.1179
zip	-11.118
▁Ydh	-11.1181
▁YhaK	-11.1181
anticodon	-11.1182
▁ki	-11.1182
▁modulation	-11.1182
TRAF	-11.1183
Tyr	-11.1184
▁CorC	-11.1184
▁pneumo	-11.1185
xopolysaccharide	-11.1185
▁Add	-11.1185
▁Vas	-11.1186
synthesis	-11.1186
RyR	-11.1187
▁UTP	-11.1187
▁PhoU	-11.119
▁Kip	-11.119
▁TorS	-11.119
amph	-11.1191
▁Inv	-11.1192
▁Yci	-11.1192
▁nucleolin	-11.1195
0219	-11.1195
▁Ync	-11.1197
helin	-11.1198
▁GlgB	-11.1198
crA	-11.1198
▁PCC	-11.1199
▁Glyoxalase	-11.12
NGN	-11.12
PulE	-11.1203
ient	-11.1204
▁Yha	-11.1204
abp	-11.1207
1904	-11.1207
▁Ald	-11.1208
1,7-	-11.1209
tenin	-11.1211
heptose	-11.1212
▁def	-11.1215
1096	-11.1225
▁TrmB	-11.1229
▁Agr	-11.1229
▁CobW	-11.123
▁Formi	-11.1231
methane	-11.1237
GYP	-11.1238
Nterm	-11.1242
▁lin	-11.1246
▁Nup	-11.1248
▁ver	-11.125
488	-11.1251
arboxysome	-11.126
BL	-11.126
▁TolA	-11.1261
gb	-11.1271
▁phosphoprotein	-11.1272
FIP	-11.1272
▁Dis	-11.1275
▁ubiquitination	-11.1278
GspE	-11.128
Yjg	-11.1281
016	-11.1282
▁Nexins	-11.1285
▁Rev	-11.1285
300	-11.1286
▁PAN	-11.1292
▁Salmonella	-11.1294
▁possibl	-11.1294
ym	-11.1297
ferase	-11.1303
DIM	-11.1312
▁diff	-11.132
sentia	-11.1336
bLIM	-11.1344
110	-11.1358
▁brea	-11.136
▁alkylat	-11.1364
▁TMAO	-11.1372
encode	-11.1379
168	-11.1394
▁cyclo	-11.1396
▁uracil	-11.1403
redox	-11.1417
▁Seleno	-11.1421
iv	-11.1422
0041	-11.1428
▁Cox	-11.1441
sq	-11.1445
▁MARK	-11.1451
▁Ty	-11.1454
▁sulf	-11.1494
438	-11.15
iae	-11.1523
lm	-11.153
▁Esterase	-11.1531
▁NEDD	-11.1532
▁phosphorylases	-11.1539
arch	-11.1545
Glp	-11.1555
FAA	-11.1559
▁microc	-11.1559
▁Mon	-11.157
NusG	-11.1576
▁Yid	-11.1583
partner	-11.1585
spermidine	-11.1585
phosphorylat	-11.1589
▁UBP	-11.159
TBC	-11.1592
▁Ir	-11.1592
entose	-11.1596
twin	-11.1597
maltose	-11.16
body	-11.1605
hydroxylase	-11.1605
Arf	-11.1606
flavoprotein	-11.1611
phosphoribosyl	-11.1613
295	-11.1614
precorrin	-11.1615
repair	-11.1619
export	-11.1626
SNF	-11.1635
TRIM	-11.1639
1001	-11.1666
mrB	-11.1667
IRS	-11.1672
PAX	-11.1674
▁Mn	-11.1684
▁Mnh	-11.1696
transduc	-11.1696
▁nucle	-11.1701
lco	-11.1706
▁Glg	-11.1725
▁addi	-11.1754
APC	-11.1763
▁Pmr	-11.1769
▁out	-11.1773
080	-11.1781
▁glycosylases	-11.1784
175	-11.1806
▁Ribo	-11.1847
▁Iso	-11.1849
▁NusG	-11.186
▁TBC	-11.187
▁PAX	-11.1871
ADH	-11.1882
anti	-11.1886
336	-11.189
ssion	-11.1923
aceto	-11.1927
(1)	-11.1927
305	-11.1933
epi	-11.1935
NPL	-11.1953
undecapren	-11.1967
▁auxi	-11.1979
polymer	-11.1982
inase	-11.202
44_	-11.2051
AZ	-11.2067
262	-11.207
001	-11.2079
edox	-11.2093
Xyl	-11.2097
▁Str	-11.2117
177	-11.2133
mp	-11.2134
LF	-11.216
157)	-11.2162
▁Gat	-11.2164
ranched	-11.217
▁sn	-11.2178
▁Yv	-11.22
▁Chromo	-11.2204
▁Alk	-11.2215
▁penta	-11.2233
emia	-11.2234
▁thermo	-11.2235
kin	-11.224
▁Cap	-11.2243
097	-11.2251
ogeni	-11.2251
▁typ	-11.2258
Ntr	-11.2262
TK	-11.2264
▁Pkn	-11.2264
▁product	-11.2266
▁Que	-11.2273
94	-11.2275
oncanavalin	-11.2279
ida	-11.228
plastic	-11.228
▁Homeo	-11.2282
hgE	-11.2282
▁Hypo	-11.2284
releas	-11.2285
xanth	-11.2285
phenol	-11.2285
omerase	-11.2286
▁aspart	-11.2287
Adenosyl	-11.2287
▁Subst	-11.2287
raffi	-11.2287
▁Filamin	-11.2287
▁MazG	-11.2287
methoxy	-11.2287
▁Aspergill	-11.2287
▁mutarotase	-11.2287
DMRTA	-11.2287
ematode	-11.2287
lumazine	-11.2287
recycling	-11.2287
respirat	-11.2287
scorbate	-11.2287
selective	-11.2287
tyrosyl	-11.2287
▁Citrate	-11.2287
▁DeoR	-11.2287
▁Inositol	-11.2287
▁Pentapeptide	-11.2287
▁PepSY	-11.2287
▁Suppress	-11.2287
▁Transketolase	-11.2287
▁caspase	-11.2287
▁dynamics	-11.2287
▁histidinol	-11.2287
▁localization	-11.2287
▁medium	-11.2287
▁pheromone	-11.2287
▁possess	-11.2287
▁zeta	-11.2287
YefM	-11.2287
▁CrgA	-11.2287
▁Ferlin	-11.2287
▁Mannitol	-11.2287
▁YceG	-11.2287
03200	-11.2287
ClfB	-11.2287
glucoside	-11.2287
▁Yhh	-11.2287
▁LprI	-11.2287
▁Ilv	-11.2287
▁TruB	-11.2287
▁LamG	-11.2287
PETAL	-11.2287
▁Fkb	-11.2287
deriv	-11.2287
02153	-11.2287
▁AbrB	-11.2287
apain	-11.2287
▁KIAA	-11.2287
▁Yqe	-11.2287
bromo	-11.2287
▁methionyl	-11.2287
▁protiens	-11.2287
▁Cwl	-11.2287
▁Rubis	-11.2287
conita	-11.2287
▁Ydf	-11.2287
▁MiaB	-11.2287
HypB	-11.2287
▁Skp	-11.2287
▁Ycb	-11.2287
▁Trehalose	-11.2287
▁center	-11.2287
RagB	-11.2287
galacturonan	-11.2287
macro	-11.2287
▁CLASP	-11.2287
PPase	-11.2287
▁Ubiquinol	-11.2288
(2+)	-11.2288
modif	-11.2288
deazaguanine	-11.2288
▁CHAP	-11.2288
▁myco	-11.2288
▁Nucleoid	-11.2288
▁DASH	-11.2288
KDO	-11.2288
orange	-11.2288
▁OsmY	-11.2288
▁species	-11.2288
▁CCAAT	-11.2288
itol	-11.2288
qui	-11.2289
▁YgiQ	-11.2289
Ydb	-11.229
dehydroquinase	-11.229
▁Suf	-11.229
BipA	-11.229
▁exoribonuclease	-11.229
▁TsaE	-11.2291
▁Tet	-11.2291
▁Mnm	-11.2291
alonate	-11.2293
▁pore	-11.2293
▁Ybb	-11.2293
Transglycosylase	-11.2295
▁MCM	-11.2295
▁Ula	-11.2295
▁PulO	-11.2296
4372	-11.2296
▁Septum	-11.2297
▁Fhu	-11.2297
▁Malate	-11.2298
▁sex	-11.2298
carboxymethyl	-11.2298
acetylserine	-11.23
CAD	-11.2301
▁DedA	-11.2302
▁Csg	-11.2303
▁Isc	-11.2304
▁Yhe	-11.2304
▁Yra	-11.2308
5,15	-11.231
AIRE	-11.2312
▁Yde	-11.2312
▁TPM	-11.2313
▁aryl	-11.2313
penten	-11.2313
ubi	-11.2315
▁Capsul	-11.2317
▁disc	-11.2321
Maf	-11.2322
814)	-11.2322
▁TraM	-11.2323
NSE	-11.2324
ogenic	-11.2327
ribonuclease	-11.2328
mobiliz	-11.2331
▁mar	-11.2331
▁NAM	-11.2333
▁wa	-11.2333
▁molybdate	-11.2335
▁Fad	-11.2336
▁incorporation	-11.2337
▁CheB	-11.234
oxF	-11.2344
ocitrate	-11.2349
▁dis	-11.2354
▁Gag	-11.2355
UreG	-11.2356
yk	-11.236
bf	-11.2371
3393	-11.2377
▁CUB	-11.2377
rap	-11.2378
▁bc	-11.2401
▁CARP	-11.2414
ACL	-11.2419
▁cyclodeaminase	-11.242
▁COX	-11.2422
up	-11.2425
▁Fur	-11.2428
gest	-11.2439
ulf	-11.2445
Hup	-11.2447
▁Tor	-11.2447
microcin	-11.2451
▁ser	-11.2451
gluco	-11.2452
gram	-11.2454
4/5	-11.2454
▁capsule	-11.246
tris	-11.2513
CHR	-11.2535
1640	-11.2537
▁Cpa	-11.2546
kt	-11.2551
cap	-11.2568
▁Cot	-11.2582
CCH	-11.2585
478	-11.2586
mmonium	-11.2587
XK	-11.2588
▁neuro	-11.2589
cl	-11.2592
▁convert	-11.2593
hird	-11.2595
tional	-11.2603
▁NMD	-11.2608
ridium	-11.2616
sensor	-11.2621
taxin	-11.2622
glycerate	-11.2631
DBD	-11.2635
ige	-11.2661
▁ARID	-11.2687
3192	-11.2697
ili	-11.2698
▁methylthio	-11.2728
▁SpoV	-11.2731
GAPs	-11.2743
▁low	-11.2779
▁xylose	-11.2779
iderm	-11.2791
SHR	-11.2791
Tat	-11.2827
fumarate	-11.2831
psi	-11.2837
MATH	-11.2838
peroxidase	-11.2839
tumor	-11.284
modulator	-11.2841
out	-11.2843
trehalose	-11.2846
molybdenum	-11.2849
Rhs	-11.2852
SGNH	-11.2853
monooxygenase	-11.2856
glutamine	-11.2858
Factor	-11.2859
formation	-11.286
high	-11.2861
Vgr	-11.2861
Sigma	-11.2861
Alpha	-11.2862
cytochrome	-11.2863
substrate	-11.2863
amidase	-11.2863
secretion	-11.2863
protease	-11.2867
Kinase	-11.287
fatty	-11.2871
485	-11.2874
aromatic	-11.2876
Nop	-11.2878
▁52	-11.2881
aminopeptidase	-11.2886
monophosphate	-11.2887
▁Carboxyl	-11.2902
rh	-11.2906
WW	-11.291
▁polyphosphate	-11.2915
PPR	-11.2922
heterocycl	-11.2928
Rv	-11.2932
otropi	-11.2938
Pro	-11.2941
FCH	-11.2955
hydroxyphenyl	-11.2957
His	-11.2961
RAG	-11.2961
shikimate	-11.2965
asparagin	-11.2972
Phe	-11.299
0011	-11.3
tis	-11.3006
Caa	-11.3009
▁malto	-11.3011
185)	-11.3019
0308	-11.3031
phan	-11.3035
carr	-11.3056
▁Yec	-11.3064
muri	-11.3081
kD	-11.3089
benzo	-11.3104
actate	-11.3118
xtension	-11.3133
EK	-11.3149
▁hydroly	-11.3152
pus	-11.3165
pres	-11.3187
ifi	-11.3224
pyrimidin	-11.3227
omic	-11.3258
pet	-11.3261
conjuga	-11.3271
gation	-11.3301
ticle	-11.335
esterase	-11.3352
mobili	-11.3352
ribonucleotid	-11.3356
▁gl	-11.336
pterin	-11.3363
▁Nucleo	-11.3378
xide	-11.3401
1-3	-11.3428
▁Aryl	-11.3429
Typ	-11.3431
▁nec	-11.345
106	-11.3456
▁Pdx	-11.3456
azo	-11.3457
yridoxamine	-11.3457
GLUT	-11.3463
▁Target	-11.3463
Leu	-11.3486
▁chitin	-11.3491
002	-11.3503
▁initiat	-11.351
ill	-11.3512
obacter	-11.352
▁morpho	-11.3524
▁Yhg	-11.3524
homboid	-11.3525
▁glob	-11.3527
hemoprotein	-11.3528
▁transpos	-11.3531
▁Mdt	-11.3533
▁Archaea	-11.3534
opoisomerase	-11.3535
aminobutyr	-11.3536
nfluenza	-11.3537
target	-11.3537
▁Lysozyme	-11.3537
▁RGLG	-11.3537
▁Shewanella	-11.3537
▁attractin	-11.3537
▁entry	-11.3537
▁isoamylase	-11.3537
00368	-11.3537
08317	-11.3537
Biosyn	-11.3537
DCLK	-11.3537
ENDO	-11.3537
GalNAc	-11.3537
decarboxylating	-11.3537
desaturase	-11.3537
inogen	-11.3537
maturase	-11.3537
methylglutaryl	-11.3537
nicotinamide	-11.3537
oligos	-11.3537
uconolacton	-11.3537
▁Arrestin	-11.3537
▁Borrelia	-11.3537
▁EREBPs	-11.3537
▁Hepat	-11.3537
▁LPXTG	-11.3537
▁Laminin	-11.3537
▁Oxygen	-11.3537
▁collagen	-11.3537
▁flippase	-11.3537
▁isoleucyl	-11.3537
▁mutator	-11.3537
plastid	-11.3537
▁Protease	-11.3537
▁Stress	-11.3537
▁Voltage	-11.3537
▁gliding	-11.3537
chaete	-11.3537
lginate	-11.3537
▁EnvC	-11.3537
▁Fibr	-11.3537
▁META	-11.3537
▁Peroxisom	-11.3537
▁YitT	-11.3537
▁albomyces	-11.3537
▁telluri	-11.3537
▁ubiquinol	-11.3537
testis	-11.3537
▁shape	-11.3537
Couple	-11.3537
PgdA	-11.3537
▁ZapA	-11.3537
00322	-11.3537
▁Ygg	-11.3537
▁dsRNA	-11.3537
▁plasma	-11.3537
▁glycyl	-11.3537
▁Rnf	-11.3537
ultim	-11.3537
▁MoaA	-11.3537
▁sulfhydrylase	-11.3537
Yih	-11.3537
Npl	-11.3537
thiouridine	-11.3537
▁cleave	-11.3537
▁RIO	-11.3537
▁LolA	-11.3537
elano	-11.3537
▁CbiE	-11.3537
hydroperoxidase	-11.3537
HisCys	-11.3538
LSMT	-11.3538
▁alkal	-11.3538
▁dynamins	-11.3538
ARNT	-11.3538
Dock	-11.3538
▁Tct	-11.3538
▁SOS	-11.3538
CtaG	-11.3538
WRN	-11.3538
valine	-11.3539
galactosamine	-11.3539
hydroxyalkanoate	-11.3539
063	-11.3539
PGDH	-11.3539
KDM	-11.3539
▁Dsb	-11.3539
▁Pat	-11.354
peron	-11.354
HutX	-11.354
▁Peroxin	-11.354
▁Alkyl	-11.354
▁Salt	-11.3541
menaquinone	-11.3541
▁MinD	-11.3541
▁methylesterase	-11.3541
glycerophosphate	-11.3541
liver	-11.3542
▁Urease	-11.3542
▁nitrogenase	-11.3543
▁TsaD	-11.3544
lost	-11.3544
role	-11.3544
thiazol	-11.3545
tib	-11.3546
▁Brain	-11.3547
KCN	-11.3547
proteolytic	-11.3548
▁CPSF	-11.3549
▁RluF	-11.355
▁siali	-11.3551
▁prephenate	-11.3551
COPI	-11.3556
-1,4-	-11.3556
▁PilT	-11.3559
▁NK	-11.3559
ORF	-11.3562
▁hemoglobins	-11.3563
torS	-11.3563
15048	-11.3569
rosine	-11.3569
▁agent	-11.3571
▁HPT	-11.3574
▁PIG	-11.3576
▁put	-11.3578
NIK	-11.3581
▁TPP	-11.3584
▁epoxid	-11.3585
YqgF	-11.3587
▁WAS	-11.3587
ivers	-11.3592
▁Pilin	-11.3594
TNF	-11.3594
epM	-11.3595
▁Del	-11.3596
▁initiator	-11.3598
▁cop	-11.36
▁Aldehyde	-11.3607
▁FlgD	-11.3615
▁FliL	-11.3616
alph	-11.3622
0118	-11.3623
eight	-11.3625
▁PhoE	-11.3625
gaA	-11.3629
PLC	-11.363
3427	-11.3635
ohydrolase	-11.3637
▁Copine	-11.3637
Yla	-11.3643
▁globins	-11.3645
▁PhoH	-11.3646
▁FtsI	-11.3648
oheme	-11.3654
▁ACR	-11.3676
▁FTH	-11.3677
lucoamylase	-11.3677
the	-11.369
▁Aro	-11.3694
ba	-11.3699
itB	-11.3705
tetrahydropter	-11.371
pyridine	-11.3711
yg	-11.3717
ABL	-11.3727
▁rec	-11.3728
reduc	-11.3728
Sim	-11.3738
fa	-11.3741
WE	-11.3743
REP	-11.3748
▁TatA	-11.3757
2070	-11.3759
icol	-11.3766
Methenyl	-11.377
Tag	-11.3777
NIF	-11.3783
PRY	-11.3799
2222	-11.3808
eted	-11.3814
▁rela	-11.3815
yrophosphokinase	-11.3816
fac	-11.3841
roteobacterial	-11.3868
772)	-11.3877
ochlorophyll	-11.3887
CNC	-11.3897
mm	-11.3904
decaprenyl	-11.3911
prote	-11.3918
urve	-11.3929
PurR	-11.3949
ocyst	-11.396
repilin	-11.3961
EST	-11.3965
rogen	-11.3982
xo	-11.3986
167	-11.3997
▁Hex	-11.4027
tetrameric	-11.4035
539	-11.4042
389	-11.4045
myo	-11.4067
ophil	-11.4073
refoldin	-11.4081
010	-11.4095
▁Yk	-11.4102
choic	-11.4103
ALP	-11.4125
valent	-11.4149
▁thi	-11.4163
ngB	-11.4185
stimulate	-11.4203
▁Brix	-11.4205
97_	-11.4209
UG	-11.4217
▁PHR	-11.4233
ache	-11.4241
clea	-11.4248
associat	-11.4253
▁Tub	-11.4257
transposon	-11.4268
orf	-11.4269
SSD	-11.4274
076	-11.4275
sarcoma	-11.4275
NTPase	-11.4275
TetR	-11.4277
galactose	-11.4277
▁PRC	-11.4281
RNase	-11.4282
affinity	-11.4283
Prp	-11.4286
archaeal	-11.4287
PTS	-11.429
AHA	-11.4303
TT	-11.4312
▁Yed	-11.4332
Tre	-11.434
nitro	-11.4343
derma	-11.4349
141)	-11.435
oxid	-11.4366
FAD	-11.4374
KIFC	-11.4375
IMP	-11.4382
osin	-11.4419
purine	-11.4427
▁HII	-11.4448
▁3,5	-11.4469
rfK	-11.448
meric	-11.4485
SPO	-11.4485
▁Pyro	-11.4489
LBP	-11.4529
▁cob	-11.4544
▁Ataxi	-11.4551
▁Bra	-11.4559
glu	-11.4588
522	-11.4605
Com	-11.4609
dihydroorota	-11.4622
▁centr	-11.463
▁pyrophospho	-11.4653
▁Rep	-11.4658
IIB	-11.468
▁Methan	-11.4697
BU	-11.4706
glyc	-11.4724
roup	-11.4727
wi	-11.4736
legum	-11.4738
▁succin	-11.4753
met	-11.4756
okinase	-11.477
255	-11.4784
▁hydroxyla	-11.4808
NDP	-11.4819
romatin	-11.4821
▁Im	-11.4824
pot	-11.4845
▁Sul	-11.486
▁Imm	-11.4864
916	-11.4865
▁DMA	-11.4878
▁kinesin	-11.4887
flavo	-11.4887
▁spin	-11.4908
▁heptos	-11.4913
utotransporter	-11.4929
ensing	-11.4931
valer	-11.4931
CAP	-11.4932
idin	-11.4936
phosphofructo	-11.4937
utophagy	-11.4938
▁partition	-11.4942
▁Elongat	-11.4945
asciclin	-11.4945
▁citr	-11.495
antitox	-11.4955
ecognition	-11.4955
▁meta	-11.4955
▁adhesi	-11.4958
lucosidase	-11.4959
rkA	-11.4961
subtili	-11.4961
icrotubule	-11.4961
aracterized	-11.4961
▁fimbria	-11.4962
Sorb	-11.4962
Archae	-11.4963
▁Deoxyribo	-11.4963
▁rho	-11.4963
emperature	-11.4964
odulation	-11.4964
logy	-11.4965
symport	-11.4965
neurin	-11.4965
▁leucyl	-11.4965
equenc	-11.4965
▁Luminal	-11.4965
nicotinate	-11.4965
▁Ferritin	-11.4965
▁Lipocalin	-11.4965
▁Racemase	-11.4965
08581	-11.4965
BRIGHT	-11.4965
ClfA	-11.4965
GPCRs	-11.4965
HflC	-11.4965
Tubulin	-11.4965
allantoin	-11.4965
gulonate	-11.4965
hexosaminidase	-11.4965
isoprenoid	-11.4965
melibiose	-11.4965
proteolysis	-11.4965
pyruvyl	-11.4965
ribityl	-11.4965
scute	-11.4965
▁Apoptosis	-11.4965
▁Bromodomain	-11.4965
▁Gluconate	-11.4965
▁HflX	-11.4965
▁Hydrogenase	-11.4965
▁Kalirin	-11.4965
▁Kazal	-11.4965
▁Quino	-11.4965
▁TFold	-11.4965
▁Terminase	-11.4965
▁UvrD	-11.4965
▁anhydrase	-11.4965
▁deiminase	-11.4965
▁furiosus	-11.4965
▁leuk	-11.4965
▁mycofact	-11.4965
▁salvage	-11.4965
▁tagat	-11.4965
odulin	-11.4965
shell	-11.4965
▁Hfq	-11.4965
▁Penicillin	-11.4965
▁Sulfur	-11.4965
MLKL	-11.4965
YmcA	-11.4965
YrdC	-11.4965
▁Cytidyl	-11.4965
▁Death	-11.4965
▁Oligosaccharyl	-11.4965
▁Piwi	-11.4965
▁YceI	-11.4965
▁YfgC	-11.4965
▁Zeta	-11.4965
▁alternat	-11.4965
isoleucine	-11.4965
utilizing	-11.4965
▁Tellurite	-11.4965
▁Evf	-11.4965
▁Yaj	-11.4965
aaRS	-11.4965
▁Ydj	-11.4965
00341	-11.4965
▁Amylo	-11.4965
▁animal	-11.4965
▁OTU	-11.4965
Ubx	-11.4965
efficien	-11.4965
positive	-11.4965
OHCU	-11.4965
▁Ytf	-11.4966
▁Decarboxylase	-11.4966
▁STAS	-11.4966
▁starch	-11.4966
▁Yga	-11.4966
15041	-11.4966
ermentation	-11.4966
▁magnesium	-11.4966
▁Thymid	-11.4966
ANTAR	-11.4966
▁NtrY	-11.4966
▁telomer	-11.4966
▁IstB	-11.4966
▁Yya	-11.4966
angi	-11.4966
▁CbiG	-11.4966
▁ssDNA	-11.4966
lactis	-11.4966
kgA	-11.4966
FeoB	-11.4966
▁carboxykinase	-11.4966
▁nucleoporin	-11.4966
▁cellobiose	-11.4966
acetylmuramyl	-11.4966
stasis	-11.4966
retinol	-11.4966
▁scaffold	-11.4967
▁INducer	-11.4967
APPL	-11.4967
▁FRQ	-11.4967
▁Acid	-11.4967
▁Bsh	-11.4967
fucosidase	-11.4967
▁nitrile	-11.4967
▁Scm	-11.4967
▁Hsl	-11.4967
affic	-11.4967
▁Yhd	-11.4968
▁nif	-11.4968
▁Serpin	-11.4968
SURF	-11.4968
usual	-11.4968
ocyanin	-11.4968
▁BcsQ	-11.4969
▁Sina	-11.4969
asia	-11.4969
RBBP	-11.497
▁Aminoglycoside	-11.497
embr	-11.497
▁YbgI	-11.4971
▁EngA	-11.4971
transglutaminase	-11.4971
▁Wzy	-11.4972
▁Ecc	-11.4972
▁Wnt	-11.4972
▁Lipoprotein	-11.4972
▁Ygb	-11.4972
uroporphyrinogen	-11.4972
▁Psb	-11.4972
▁thiolase	-11.4973
GABA	-11.4973
▁Yfa	-11.4973
ampli	-11.4974
hoo	-11.4974
ains	-11.4975
▁MinC	-11.4975
▁autoinducer	-11.4975
▁lysophospholip	-11.4976
▁Anaphase	-11.4976
▁concanavalin	-11.4976
CEBP	-11.4977
▁acetylornithine	-11.4977
Taq	-11.4977
disaccharide	-11.4978
invasin	-11.4978
▁DctP	-11.4979
NiFe	-11.498
▁TsaC	-11.498
ACO	-11.4981
▁CTD	-11.4981
5651	-11.4982
▁Tim	-11.4982
tai	-11.4983
▁Yeg	-11.4983
▁Bcs	-11.4983
▁Yyc	-11.4985
▁NusA	-11.4987
▁Yph	-11.4987
▁cobyri	-11.4987
▁RPN	-11.4989
Rpc	-11.4993
RNP	-11.4994
▁Autophagy	-11.4995
sarcosine	-11.4995
RMD	-11.5
▁peroxisom	-11.5
▁ras	-11.5001
gent	-11.5001
▁HIT	-11.5003
uster	-11.5006
▁LGT	-11.5007
noid	-11.5008
BACH	-11.5008
▁eu	-11.5009
▁Big	-11.5013
▁phosphorylation	-11.5016
HPY	-11.5016
▁dikinase	-11.5017
▁YidC	-11.5018
▁Deg	-11.5023
▁Msc	-11.5024
methylated	-11.5024
TDT	-11.5025
▁TatD	-11.5025
state	-11.5027
▁SER	-11.5029
▁Folate	-11.5031
▁APP	-11.5034
ATG	-11.5038
▁GPI	-11.5047
TFIIH	-11.5057
▁Set	-11.5061
1495	-11.5062
▁DnaG	-11.5062
TypA	-11.5066
▁VIII	-11.5068
▁sept	-11.5077
▁AlkA	-11.5079
SOX	-11.5086
3+-	-11.5089
innam	-11.5089
▁Lipo	-11.509
LPC	-11.5095
▁PhoP	-11.5095
(5)	-11.5099
4397)	-11.5107
raction	-11.5113
0018	-11.5114
pel	-11.5126
1090	-11.5131
▁PMT	-11.5132
2156	-11.5135
▁Yvr	-11.5136
UbiB	-11.5142
▁EI	-11.5143
Pi	-11.5145
ition	-11.5146
▁HU	-11.5152
YkuD	-11.5155
▁Apo	-11.516
▁Spt	-11.5161
PEX	-11.5175
▁SUM	-11.518
KY	-11.5184
NTD	-11.5189
PRTase	-11.5191
0252	-11.5192
oides	-11.5194
DPG	-11.5196
transpeptidases	-11.5197
▁SBP	-11.5207
329)	-11.5213
▁CAF	-11.523
OK	-11.5259
amy	-11.5259
▁PHO	-11.5269
CSD	-11.5295
urine	-11.5303
▁Cut	-11.5303
rpt	-11.5306
0029	-11.5309
UCH	-11.5312
yano	-11.5353
obW	-11.5367
dine	-11.5434
POR	-11.5447
minopeptidase	-11.5452
5-6	-11.5457
0001	-11.5472
378	-11.5483
MAC	-11.5487
▁Bi	-11.5489
▁Yn	-11.5497
metallohydrolase	-11.5503
▁Coll	-11.5507
▁muc	-11.5508
emolysin	-11.5514
395	-11.5611
530	-11.5619
tei	-11.5696
Srf	-11.5763
oxygenase	-11.5786
399	-11.5787
globin	-11.5816
saccharide	-11.5837
flavin	-11.5839
ivalent	-11.585
UBXD	-11.5906
▁Metallo	-11.5913
xylose	-11.5918
low	-11.5926
succinate	-11.5928
ana	-11.5938
Ycf	-11.5943
▁PNP	-11.5945
siderophore	-11.5946
vacuolar	-11.5952
HflK	-11.5952
Omp	-11.5954
structural	-11.5954
porter	-11.5955
efflux	-11.5957
repressor	-11.5957
periplasmic	-11.5959
deacetylase	-11.5963
RPA	-11.5968
cobalt	-11.5969
fam	-11.5969
NADPH	-11.5978
489	-11.5979
synthetase	-11.5979
ridine	-11.598
adenylyl	-11.5986
tau	-11.5989
pyridoxal	-11.5997
retin	-11.6024
▁sy	-11.6026
339	-11.6041
hydrox	-11.6056
IgD	-11.6058
ormaldehyde	-11.607
lacton	-11.6082
mit	-11.6108
zincin	-11.6153
▁selenocystein	-11.6155
359	-11.6158
▁Para	-11.6165
eptin	-11.6195
HAS	-11.6206
VI	-11.6211
ade	-11.6227
▁Flagell	-11.6229
▁TFII	-11.6263
exo	-11.6285
ClpP	-11.6332
▁threonyl	-11.6354
▁Aero	-11.6361
098	-11.641
long	-11.6417
nsis	-11.643
terol	-11.6455
Eng	-11.6455
127)	-11.6459
▁Gsp	-11.6466
▁Yhc	-11.6526
▁vir	-11.6547
▁Cyd	-11.6557
▁Rib	-11.6557
ubunit	-11.6558
▁Erythro	-11.6558
▁glycosidase	-11.6559
▁DHH	-11.6568
▁Lyt	-11.6568
▁chromo	-11.6573
278	-11.6574
▁bacteri	-11.658
mylase	-11.6583
AXI	-11.6587
▁process	-11.661
orphogene	-11.6618
lucocorticoid	-11.6618
▁Ygi	-11.6619
▁Dct	-11.662
▁Yqf	-11.6622
▁Arsen	-11.6624
▁cyan	-11.6625
▁homo	-11.6625
butyrate	-11.663
▁dextr	-11.6631
ethylmalonyl	-11.6631
alcip	-11.6631
minant	-11.6631
▁Nicoti	-11.6632
▁Uroporphyrin	-11.6632
▁exci	-11.6632
ospermi	-11.6632
FmdD	-11.6632
octulosonate	-11.6632
umarylacetoaceta	-11.6632
▁Heavy	-11.6632
▁Subtilisin	-11.6632
▁bacilli	-11.6632
02876	-11.6632
BACURD	-11.6632
NOSIP	-11.6632
ersicolor	-11.6632
euraminidase	-11.6632
isoaspartate	-11.6632
mitotic	-11.6632
prokaryotes	-11.6632
proposed	-11.6632
rmadillo	-11.6632
stitut	-11.6632
trehalase	-11.6632
▁Aldolase	-11.6632
▁AzlC	-11.6632
▁CHORD	-11.6632
▁ESCO	-11.6632
▁FLYWCH	-11.6632
▁Firmicute	-11.6632
▁Potassium	-11.6632
▁Succinate	-11.6632
▁YqiK	-11.6632
▁assimilat	-11.6632
▁cytoskeletal	-11.6632
▁deformylase	-11.6632
▁depolymerase	-11.6632
▁jelly	-11.6632
▁machinery	-11.6632
▁manganese	-11.6632
▁network	-11.6632
▁phytase	-11.6632
▁retroelements	-11.6632
SIGN	-11.6632
▁nucleosidase	-11.6632
Specific	-11.6632
▁HypF	-11.6632
▁KdsC	-11.6632
▁RuvC	-11.6632
▁SHPRH	-11.6632
Yqj	-11.6632
▁YlqF	-11.6632
gluconokinase	-11.6632
▁galactitol	-11.6632
▁nucleobase	-11.6632
▁tape	-11.6632
▁YigB	-11.6632
packag	-11.6632
▁RelE	-11.6632
SdrD	-11.6632
▁OprB	-11.6632
▁Yej	-11.6632
▁Puu	-11.6632
▁three	-11.6632
▁FrsA	-11.6632
Conse	-11.6632
BrkB	-11.6632
▁Kdu	-11.6632
▁carcinoma	-11.6632
▁dsDNA	-11.6632
▁mevalonate	-11.6632
▁TRAM	-11.6632
meas	-11.6632
▁TTHA	-11.6632
▁RseP	-11.6632
lipha	-11.6632
▁Hypoxanthine	-11.6632
ymphocyte	-11.6633
▁MIZ	-11.6633
Rml	-11.6633
butanone	-11.6633
tural	-11.6633
▁RraA	-11.6633
ferrochelatase	-11.6633
▁Rpn	-11.6633
▁HigA	-11.6633
▁Halo	-11.6633
▁SLX	-11.6633
PGRP	-11.6633
▁mutan	-11.6633
▁Kdp	-11.6633
ExoIII	-11.6633
▁DsrE	-11.6633
▁WSC	-11.6633
▁methylmalonyl	-11.6633
enolpyruvyl	-11.6633
▁GIPC	-11.6633
▁TipA	-11.6633
▁arsen	-11.6633
▁Hyd	-11.6634
▁UNC	-11.6634
WPC	-11.6634
▁Macro	-11.6634
snRNP	-11.6634
▁Tex	-11.6634
▁catabolite	-11.6634
AGBL	-11.6634
▁Atg	-11.6634
▁Sulfatase	-11.6634
▁Glyc	-11.6635
▁Orf	-11.6635
▁Cycle	-11.6635
▁legume	-11.6635
homocitrate	-11.6635
▁deform	-11.6635
▁Nuclease	-11.6635
▁retinoi	-11.6636
allid	-11.6636
Snf	-11.6636
ivision	-11.6636
▁speci	-11.6637
▁tolA	-11.6637
▁Ubiquinone	-11.6637
▁new	-11.6637
▁YcaO	-11.6638
▁Tec	-11.6638
TNN	-11.6638
spondin	-11.6638
mannosamin	-11.6638
▁xyl	-11.6638
02224	-11.6638
▁Dido	-11.6639
hydrolyzing	-11.6639
▁NusB	-11.6639
luen	-11.664
▁lactonase	-11.664
dow	-11.664
rile	-11.664
▁Clc	-11.6642
cepti	-11.6643
▁HisKA	-11.6643
▁arylsulfatase	-11.6643
ANTH	-11.6644
dihydrouridine	-11.6644
methylcytosine	-11.6644
DNase	-11.6646
pyruvoyl	-11.6646
▁TAT	-11.6647
methylguanine	-11.6648
▁FlhB	-11.6649
icoid	-11.6649
▁colicin	-11.665
euralized	-11.665
▁Mini	-11.6651
psq	-11.6652
▁Myo	-11.6654
▁CcmE	-11.6655
NUB	-11.6657
hydroxythreonine	-11.6658
-2,4-	-11.666
▁FtsZ	-11.6663
▁MalT	-11.6665
AmiR	-11.6665
SNC	-11.6665
▁CxxC	-11.6667
fructokinase	-11.6667
▁nas	-11.667
CPW	-11.6673
dihydropter	-11.6673
▁Zon	-11.6673
▁Yca	-11.6675
but	-11.6677
▁DnaQ	-11.6678
▁Inactivat	-11.6678
▁osmoregulat	-11.6678
5048	-11.6681
▁Max	-11.6681
▁SLT	-11.6682
▁FlgF	-11.6683
ucleoporin	-11.6685
TTF	-11.6688
uses	-11.6688
▁uL	-11.669
▁Rut	-11.6693
▁Yfc	-11.6695
ARG	-11.6697
▁Eis	-11.6697
Atr	-11.6698
▁sha	-11.6698
ARM	-11.6699
anae	-11.67
▁Eco	-11.67
(+	-11.6703
▁bra	-11.6703
COQ	-11.6714
▁cyanobacteria	-11.6714
▁RRP	-11.6715
MRP	-11.6719
▁FlgH	-11.6719
▁kinesins	-11.6726
CCNB	-11.6729
▁Foc	-11.6729
▁Mup	-11.673
oni	-11.6732
Dsr	-11.6733
diketo	-11.6741
945	-11.6741
troph	-11.6747
▁internali	-11.6749
▁PdxA	-11.6752
▁col	-11.676
Hyb	-11.6763
330	-11.6763
YjbR	-11.6766
dendr	-11.6769
▁Xer	-11.6776
6,7	-11.6776
DPP	-11.6779
iver	-11.6779
▁GIN	-11.6786
087)	-11.6787
▁simial	-11.6789
▁Hpr	-11.6789
ospor	-11.6793
Caul	-11.6794
▁fer	-11.6796
▁2/2	-11.6799
▁Cbb	-11.6802
lex	-11.6805
taurin	-11.6809
▁Synthases	-11.6813
▁Methanoc	-11.6813
▁Lh	-11.6846
Kdo	-11.6848
5347	-11.6852
ilin	-11.6859
457	-11.6861
360	-11.6867
▁SerB	-11.6868
3506	-11.6874
adR	-11.6875
971	-11.6877
▁glyco	-11.6885
3459	-11.6897
2339	-11.6904
▁Lim	-11.6905
EMP	-11.6913
009	-11.6925
2552	-11.6931
▁CMP	-11.697
merisation	-11.6979
033	-11.6983
ylate	-11.6992
1519	-11.7011
▁IQ	-11.7013
FDH	-11.7013
HIV	-11.7033
357	-11.7052
Cue	-11.7058
ATE	-11.7073
lve	-11.7075
469	-11.7076
imp	-11.7083
▁bio	-11.7089
357)	-11.71
▁HAL	-11.7103
PIK	-11.7112
utQ	-11.7112
rigin	-11.7119
GCS	-11.7131
elin	-11.7135
883	-11.7149
imidazole	-11.7185
▁lysosom	-11.7186
ureidoglyc	-11.728
HIP	-11.7318
oquinol	-11.7333
▁Ku	-11.7335
280	-11.739
etallopeptidase	-11.7394
387	-11.7426
KB	-11.7461
070	-11.7479
active	-11.7485
289	-11.7501
2,3-	-11.7504
▁feli	-11.7562
▁stimulat	-11.7614
deoxyribos	-11.7619
PLD	-11.7662
LIM	-11.7669
hydroxyglutar	-11.7707
PEF	-11.7746
complex	-11.7783
RSp	-11.7783
cobalamin	-11.7839
ib	-11.784
gella	-11.7842
lact	-11.7853
▁Nucle	-11.787
iam	-11.7887
chaperone	-11.7899
Pv	-11.791
Esterase	-11.7923
NEDD	-11.7923
glycero	-11.7931
▁Colla	-11.7932
STARD	-11.7932
ARID	-11.7938
suppress	-11.7939
malate	-11.7942
spore	-11.7943
▁dihydrolipo	-11.7947
surface	-11.7947
glycoprotein	-11.7948
mannosyl	-11.7949
oxidase	-11.7949
carboxylase	-11.7952
peptidoglycan	-11.7956
two	-11.7957
decarboxylase	-11.7958
flagella	-11.7958
ubiquitin	-11.7959
wall	-11.796
double	-11.7961
Fts	-11.7965
COP	-11.7972
Nif	-11.7983
restriction	-11.7994
tropin	-11.8006
midazoleglycerol	-11.8021
ZAP	-11.8067
NADH	-11.8069
UBP	-11.807
tropi	-11.8092
989	-11.8096
thiosulf	-11.8099
chromosome	-11.8122
Myc	-11.8156
Exo	-11.8164
CREB	-11.8166
Aceto	-11.817
UV	-11.8179
913)	-11.8192
EFG	-11.8197
ecB	-11.8204
ermin	-11.8227
3/4	-11.8269
▁controll	-11.8275
DAZ	-11.8298
▁glycerophospho	-11.8316
400)	-11.8326
roid	-11.8336
▁str	-11.8355
▁Modul	-11.8358
▁Yku	-11.8369
▁TRAPP	-11.8384
▁RES	-11.8388
rib	-11.839
▁attach	-11.8395
iat	-11.8396
NMT	-11.8418
condens	-11.843
508	-11.8433
eptum	-11.8456
▁lic	-11.8461
corrin	-11.8463
4397	-11.8464
henylacetate	-11.8465
036	-11.8465
▁Yjb	-11.8477
osortase	-11.8477
rosi	-11.8479
Induci	-11.8485
ternal	-11.8491
onema	-11.8502
ish	-11.8539
▁derivative	-11.8558
omyce	-11.856
hosphopantethein	-11.8563
obil	-11.8564
inhibitor	-11.8571
388	-11.8583
▁chromat	-11.8584
cpA	-11.8585
duction	-11.8586
▁Antiterm	-11.8599
▁HECT	-11.8601
▁Osmo	-11.861
inamide	-11.8612
treptococc	-11.8614
▁cataly	-11.8616
eroxiredoxin	-11.862
▁germ	-11.862
▁Grp	-11.8621
gu	-11.8621
roteasome	-11.8621
▁Homolog	-11.8624
ontains	-11.8625
jeF	-11.8628
▁Chl	-11.8628
ARI	-11.8628
▁Thioester	-11.8628
hydroxyalkano	-11.8629
propion	-11.8629
lade	-11.863
▁Homo	-11.863
immun	-11.863
inami	-11.8631
struct	-11.8631
elease	-11.8632
▁hist	-11.8632
ambda	-11.8632
▁selen	-11.8632
isopentenyl	-11.8632
(3+)	-11.8632
derepressi	-11.8632
myristoyl	-11.8632
▁Kineto	-11.8632
▁Leucyl	-11.8632
▁ribokinase	-11.8632
▁silenc	-11.8632
hexulose	-11.8632
62_32_68_117_130	-11.8632
Cytoskeleton	-11.8632
acterioferritin	-11.8632
carboxamide	-11.8632
emagglutinin	-11.8632
glutaredoxin	-11.8632
hydantoin	-11.8632
inosose	-11.8632
monoxygenases	-11.8632
octanoyl	-11.8632
oxoprolinase	-11.8632
protocatechuate	-11.8632
sulfolacta	-11.8632
yclopropane	-11.8632
▁Coiled	-11.8632
▁FUSC	-11.8632
▁FkpA	-11.8632
▁Latrophilin	-11.8632
▁RICIN	-11.8632
▁Reticulum	-11.8632
▁RodZ	-11.8632
▁RuvX	-11.8632
▁YafN	-11.8632
▁cysteinyl	-11.8632
▁enolase	-11.8632
▁kleisin	-11.8632
▁muscul	-11.8632
▁mycoplasms	-11.8632
▁patatin	-11.8632
▁sheath	-11.8632
▁tyrosinase	-11.8632
NCAIR	-11.8632
YoeB	-11.8632
matrix	-11.8632
naphthalene	-11.8632
rhamnulose	-11.8632
▁Cryptococc	-11.8632
▁TmcA	-11.8632
▁Toprim	-11.8632
▁Wbu	-11.8632
▁annotat	-11.8632
▁lipocalin	-11.8632
▁pyran	-11.8632
▁quercetin	-11.8632
▁trimethylamine	-11.8632
AROM	-11.8632
ERGIC	-11.8632
carboxylic	-11.8632
crystallin	-11.8632
guanidino	-11.8632
▁Mannosyl	-11.8632
▁OpcA	-11.8632
▁Oxysterol	-11.8632
▁Seven	-11.8632
▁Transglut	-11.8632
▁clamp	-11.8632
▁syntaxin	-11.8632
CyaY	-11.8632
geranylgeranyl	-11.8632
EcoRII	-11.8632
▁RsgA	-11.8632
▁ErbB	-11.8632
▁WXG	-11.8632
▁MgtE	-11.8632
▁Mutated	-11.8632
▁Adhesi	-11.8632
▁Erv	-11.8632
▁hydrocarbon	-11.8632
▁LolE	-11.8632
▁SsrA	-11.8632
alamin	-11.8632
ribitol	-11.8632
▁NOGCT	-11.8632
▁Ecto	-11.8632
▁Nicotinamid	-11.8632
▁RelB	-11.8632
▁Ugp	-11.8632
▁Yai	-11.8632
fkB	-11.8632
pathogen	-11.8632
12704	-11.8632
DSRM	-11.8632
11107	-11.8632
DeoD	-11.8632
▁SNAP	-11.8632
GRAMDC	-11.8632
MoaD	-11.8632
▁NDPk	-11.8632
ASCL	-11.8632
▁Yuk	-11.8632
▁FIST	-11.8632
▁Speci	-11.8632
lucitol	-11.8632
▁LptC	-11.8632
▁Rht	-11.8632
OMO	-11.8632
▁TerC	-11.8632
▁intron	-11.8632
▁mycobacterial	-11.8632
▁bond	-11.8633
15370	-11.8633
altro	-11.8633
▁RUN	-11.8633
▁promoter	-11.8633
▁HlyD	-11.8633
hipA	-11.8633
▁Nfu	-11.8633
pacity	-11.8633
▁Kai	-11.8633
▁PRKCSH	-11.8633
▁PleD	-11.8633
Kinesi	-11.8633
driv	-11.8633
▁PWI	-11.8633
▁Ecf	-11.8633
Glt	-11.8633
TUS	-11.8633
▁Interferon	-11.8633
HDOD	-11.8633
ketoglutarate	-11.8633
▁Fyn	-11.8633
▁NlpE	-11.8633
▁Homocysteine	-11.8633
▁GltD	-11.8633
▁Mlt	-11.8633
chelatase	-11.8633
▁Alr	-11.8633
▁phycobili	-11.8633
ntermediate	-11.8634
▁tolB	-11.8634
▁flagellin	-11.8634
▁Innexin	-11.8634
▁VanZ	-11.8634
▁Disco	-11.8634
escen	-11.8634
▁temperature	-11.8634
03185	-11.8634
▁AIG	-11.8635
▁Txe	-11.8635
defect	-11.8635
lesion	-11.8635
▁Aminoacylase	-11.8635
▁host	-11.8635
lobu	-11.8635
▁Emr	-11.8635
▁Wz	-11.8635
▁teng	-11.8636
aminomutase	-11.8636
MetAP	-11.8636
▁DEA	-11.8636
▁INduc	-11.8636
▁Mrp	-11.8636
▁Transferase	-11.8636
▁Ybh	-11.8636
characterized	-11.8636
▁Mitotic	-11.8636
▁Centr	-11.8637
▁Ycd	-11.8637
▁YjeF	-11.8637
AMPKalpha	-11.8637
▁AIR	-11.8637
▁thym	-11.8637
pmB	-11.8637
▁Yib	-11.8637
▁GyrI	-11.8638
▁Paa	-11.8638
Fuc	-11.8638
▁EutP	-11.8638
▁NYN	-11.8639
aminobutyrate	-11.8639
▁SXA	-11.8639
1707)	-11.8639
benzoyl	-11.8639
▁Lsr	-11.864
ivity	-11.864
▁Meiotic	-11.864
vinyltransferase	-11.864
▁ARH	-11.8641
denylosuccina	-11.8641
03088	-11.8642
BRPF	-11.8642
▁Arylsulfotrans	-11.8642
▁HemX	-11.8642
▁MRN	-11.8642
trihydroxy	-11.8642
▁Wzt	-11.8643
▁Enteroc	-11.8643
▁DEX	-11.8643
▁Crp	-11.8643
▁TRIP	-11.8643
DsrF	-11.8644
▁peroxiredoxin	-11.8644
YDR	-11.8644
cyclodehydratase	-11.8644
4339)	-11.8644
▁Fucose	-11.8645
▁GrpE	-11.8645
bacterium	-11.8646
yve	-11.8648
AID	-11.8648
▁CstA	-11.8648
▁dinucleotide	-11.8648
POL	-11.8649
▁Glucocorticoid	-11.8649
RMA	-11.8649
2605	-11.8649
▁append	-11.865
1542)	-11.8652
▁Phosphoglyc	-11.8653
▁Rfa	-11.8654
ude	-11.8655
for	-11.8655
▁lig	-11.8656
▁lactococc	-11.8656
▁RibD	-11.8658
1338)	-11.8658
MBF	-11.8658
tale	-11.8659
dimeric	-11.8659
viva	-11.8659
Vma	-11.8661
▁FabG	-11.8661
▁GtrA	-11.8664
cali	-11.8664
▁CRP	-11.8665
FOXK	-11.8665
TEX	-11.8665
uren	-11.8666
acter	-11.8667
▁Tel	-11.8667
▁Yac	-11.8667
▁Psa	-11.8668
▁FliQ	-11.8669
▁pullulan	-11.867
▁Acet	-11.867
Whi	-11.867
▁RlmE	-11.8671
CML	-11.8672
oplast	-11.8673
_083	-11.8673
WalK	-11.8676
_056	-11.8677
▁Lant	-11.8678
▁XerC	-11.8678
▁Van	-11.8679
4401	-11.8679
▁BamD	-11.868
▁TrmL	-11.8681
sovaler	-11.8681
Yee	-11.8682
-93	-11.8683
▁Lip	-11.8685
▁Hos	-11.8687
NOT	-11.8687
▁CobN	-11.8688
▁RecX	-11.8689
GRK	-11.869
▁PilM	-11.869
DAC	-11.8691
▁BNR	-11.8691
dideoxy	-11.8691
▁PhnB	-11.8691
DCNL	-11.8692
▁longin	-11.8694
amate	-11.8697
7,8-	-11.8697
▁RPB	-11.8699
▁Hpn	-11.8699
▁ArnA	-11.87
▁phi	-11.8701
▁Secreted	-11.8701
NACA	-11.8703
▁Lac	-11.8703
▁FlhA	-11.8704
▁Inh	-11.8705
Ash	-11.8706
apurinic	-11.8707
ult	-11.8707
carbonyl	-11.8708
ocompa	-11.8713
elate	-11.8716
▁ParE	-11.8717
▁arsenical	-11.8719
Casp	-11.8719
▁Hint	-11.8721
▁Leuko	-11.8723
ophilus	-11.8723
▁MIT	-11.8726
Ycs	-11.8729
HEP	-11.8733
▁Conjugat	-11.8738
▁ThiF	-11.8745
▁CydC	-11.8745
▁neural	-11.8745
amm	-11.8749
▁ThiI	-11.8753
▁Moe	-11.8753
▁prev	-11.8754
arate	-11.8758
1501	-11.8758
WDR	-11.876
pyridoxamine	-11.8765
ommon	-11.8768
oglobins	-11.8769
omere	-11.8774
3108	-11.8775
▁Rit	-11.8776
hain	-11.8776
DHRS	-11.8778
4932	-11.878
▁GCN	-11.8781
2298	-11.8786
▁MBD	-11.8791
▁Rat	-11.8795
aleylacet	-11.8808
981)	-11.8815
▁Her	-11.8821
psB	-11.8827
fibro	-11.883
▁Glutam	-11.8834
ious	-11.8838
▁apic	-11.8845
0303	-11.8847
1190	-11.8856
▁Art	-11.8857
yrin	-11.8858
ERG	-11.8877
TFIIS	-11.8902
▁Ire	-11.8915
▁Tac	-11.8935
2384	-11.8939
0295	-11.8944
USP	-11.8947
welli	-11.898
rotidine	-11.9011
3543	-11.9012
nexin	-11.9012
3231	-11.9024
ECR	-11.9027
kot	-11.9029
Slt	-11.9036
GLA	-11.9058
hano	-11.9113
NDUFA	-11.9129
▁thermophil	-11.9134
_391	-11.9143
4190	-11.9155
ITP	-11.9159
▁pseudouridylat	-11.9244
▁Roc	-11.9253
TW	-11.9255
CopB	-11.9277
hyp	-11.935
▁Trypanosom	-11.9381
ETR	-11.9391
3470	-11.9415
cyclotransferase	-11.9442
mamm	-11.9456
hu	-11.9473
680	-11.9564
ihydroorotase	-11.9565
SelD	-11.9619
nospora	-11.9634
oic	-11.9646
glutarate	-11.9649
activator	-11.966
▁Chor	-11.9664
istin	-11.9727
1036	-11.9754
uber	-11.9763
genom	-11.9764
vel	-11.9764
780)	-11.977
riad	-11.9792
oform	-11.9798
bh	-11.9806
og	-11.9814
carbamoyl	-11.986
▁spo	-11.9871
ille	-11.9881
lgX	-11.9891
terminator	-12.0032
invert	-12.004
parts	-12.0047
348)	-12.0054
aminohydrolase	-12.0106
TatC	-12.0156
ureido	-12.0197
▁Trypanosoma	-12.0247
uv	-12.0267
channel	-12.04
phage	-12.0401
▁Psp	-12.0403
ocR	-12.0412
glycosylase	-12.0415
convert	-12.042
NMD	-12.0424
MARK	-12.0424
link	-12.0425
residue	-12.0428
hydrogen	-12.0432
guanosine	-12.0435
LON	-12.0438
biotin	-12.0438
START	-12.044
variant	-12.0441
Spore	-12.0444
Tandem	-12.0444
CrcB	-12.0446
Multi	-12.0452
integrat	-12.0452
guanylyl	-12.0452
short	-12.0453
Spc	-12.0455
Recombinase	-12.0455
PQQ	-12.0456
PDZ	-12.0456
Class	-12.0458
deaminase	-12.0459
control	-12.0482
BRCT	-12.0487
Tra	-12.0495
▁Proto	-12.0504
PIAS	-12.0601
093	-12.0607
olytic	-12.0654
▁Flh	-12.0681
ellin	-12.0711
karyo	-12.0713
ulose	-12.0713
963	-12.0736
▁amido	-12.0738
▁sap	-12.0746
▁Hemi	-12.0777
hrA	-12.0818
conjugat	-12.0927
RatA	-12.093
▁Sphingo	-12.093
karyotic	-12.0931
EPS	-12.0955
▁quino	-12.0968
resolv	-12.0974
▁Cyan	-12.0978
▁desulf	-12.0992
cave	-12.0996
bacter	-12.1002
antothenate	-12.1012
ribosylglyc	-12.1013
▁Ybg	-12.102
oplasm	-12.1025
▁Yqg	-12.1026
lathrin	-12.1061
▁DCN	-12.1067
onnect	-12.1068
ssembly	-12.1084
haperone	-12.1093
arrier	-12.1096
imidazol	-12.1096
▁Asparagin	-12.1096
olyprenyl	-12.1097
naerobic	-12.1098
▁phosphatid	-12.1106
▁invasi	-12.111
ropeller	-12.1111
codon	-12.1114
obalt	-12.1117
▁Exopoly	-12.1117
977	-12.1119
henylpropionate	-12.112
recursor	-12.1121
sylation	-12.1123
dimer	-12.1123
ibbon	-12.1123
enaquinone	-12.1123
▁aromat	-12.1124
omplement	-12.1124
hemoreceptor	-12.1124
leavage	-12.1124
Auto	-12.1126
sialidase	-12.1127
▁Phospha	-12.1128
▁mitochondria	-12.1128
range	-12.1129
hosphopantothen	-12.1129
▁Mycobacteri	-12.113
deazaguan	-12.113
▁Transport	-12.113
seleno	-12.113
ricorn	-12.1131
rafficking	-12.1131
lfata	-12.1132
memb	-12.1132
cyclohexen	-12.1132
420-0:	-12.1132
ification	-12.1132
▁Alloph	-12.1132
▁IcmL	-12.1132
Struct	-12.1132
▁Pyridoxine	-12.1132
▁ergot	-12.1132
Glucosamine	-12.1132
antagoniz	-12.1132
▁Filament	-12.1132
▁Glutathionyl	-12.1132
▁Synaptobrevin	-12.1132
ECOLI	-12.1132
aminoadipate	-12.1132
cadherin	-12.1132
coordinated	-12.1132
heptulo	-12.1132
occur	-12.1132
ofuranos	-12.1132
protectant	-12.1132
rgininosuccina	-12.1132
sphingomyelinase	-12.1132
terized	-12.1132
trypsin	-12.1132
ystroglycan	-12.1132
▁Acidobacterial	-12.1132
▁Agmatinase	-12.1132
▁Catalase	-12.1132
▁Dolichol	-12.1132
▁EfeUOB	-12.1132
▁Fimbrial	-12.1132
▁Glyceraldehyde	-12.1132
▁Importin	-12.1132
▁Nickel	-12.1132
▁Omega	-12.1132
▁Otopetrin	-12.1132
▁Plasma	-12.1132
▁PucR	-12.1132
▁RpfG	-12.1132
▁Rubredoxin	-12.1132
▁SSURE	-12.1132
▁Siderophore	-12.1132
▁Tudor	-12.1132
▁amylovora	-12.1132
▁cortex	-12.1132
▁dehydr	-12.1132
▁desulfhydrase	-12.1132
▁glutaminyl	-12.1132
▁hopanoid	-12.1132
▁hydroxyethyl	-12.1132
▁mitoch	-12.1132
▁participate	-12.1132
▁phycoerythr	-12.1132
▁predominant	-12.1132
▁proliferat	-12.1132
▁radiodurans	-12.1132
▁solvent	-12.1132
▁transformylase	-12.1132
hosphoketolase	-12.1132
reductoisomerase	-12.1132
sedoheptulo	-12.1132
vulin	-12.1132
ytokinesis	-12.1132
▁CrfC	-12.1132
▁EfeO	-12.1132
▁Hetero	-12.1132
▁LMWP	-12.1132
▁Microcystin	-12.1132
▁MukF	-12.1132
▁TTUDG	-12.1132
▁UpxY	-12.1132
▁WcaK	-12.1132
▁Xanthomonas	-12.1132
▁Yoq	-12.1132
▁abort	-12.1132
▁dUTP	-12.1132
▁lacI	-12.1132
▁nonfermenting	-12.1132
AICAR	-12.1132
Bruno	-12.1132
WtpA	-12.1132
gluconolactonase	-12.1132
oniferyl	-12.1132
▁HofQ	-12.1132
▁TMPIT	-12.1132
▁UshA	-12.1132
▁ZapD	-12.1132
▁kgd	-12.1132
▁YppG	-12.1132
▁AcrB	-12.1132
▁DotU	-12.1132
CouP	-12.1132
oxazole	-12.1132
▁LexA	-12.1132
▁NmrA	-12.1132
▁Transloc	-12.1132
pyranos	-12.1132
▁needle	-12.1132
UbiF	-12.1132
▁BRSK	-12.1132
▁curli	-12.1132
▁phasin	-12.1132
▁CtpA	-12.1132
▁TMUB	-12.1132
13800	-12.1132
▁Protoglobin	-12.1132
▁Stealth	-12.1132
▁Tctex	-12.1132
(3-4)	-12.1132
YfgL	-12.1132
▁Very	-12.1132
▁AotO	-12.1132
▁KilA	-12.1132
▁Mqn	-12.1132
▁fliH	-12.1132
▁DhaK	-12.1132
aza	-12.1132
▁Pyrrol	-12.1132
sulfurylase	-12.1132
03202	-12.1132
▁ELAC	-12.1132
▁IclR	-12.1132
▁Lpq	-12.1132
ScpB	-12.1132
▁Opu	-12.1132
▁MoaC	-12.1132
▁corre	-12.1132
azine	-12.1132
▁LptD	-12.1132
▁MsrA	-12.1132
omega	-12.1132
▁Curli	-12.1132
▁MntR	-12.1132
▁Ewing	-12.1132
▁Ylx	-12.1132
03379	-12.1132
evansucrase	-12.1132
▁ImpA	-12.1132
▁valyl	-12.1132
▁influenza	-12.1132
▁SurE	-12.1132
▁TOM	-12.1133
ATOH	-12.1133
YvcK	-12.1133
0052	-12.1133
▁Dimerization	-12.1133
▁MelB	-12.1133
▁TusD	-12.1133
13914	-12.1133
ponin	-12.1133
Sak	-12.1133
▁CbiT	-12.1133
▁Bud	-12.1133
▁Ybc	-12.1133
▁Transaldolase	-12.1133
glc	-12.1133
elvet	-12.1133
▁Sulfat	-12.1133
▁AtoC	-12.1133
▁DprA	-12.1133
DapE	-12.1133
hydroxymucon	-12.1133
▁KCNG	-12.1133
frame	-12.1133
09776	-12.1133
▁CCDC	-12.1133
▁depolymeri	-12.1133
▁Fanc	-12.1133
▁stem	-12.1134
olicin	-12.1134
▁RlpA	-12.1134
03208	-12.1134
▁hepa	-12.1134
▁fibronectin	-12.1134
4105)	-12.1134
▁enter	-12.1134
▁Vesic	-12.1134
▁Cofilin	-12.1134
▁RLI	-12.1134
RpoE	-12.1135
▁Actinobac	-12.1135
▁ZntB	-12.1135
▁Undecaprenyl	-12.1135
▁Flavi	-12.1135
MGAT	-12.1135
SapB	-12.1135
▁Haemolysin	-12.1135
olog	-12.1135
biphenyl	-12.1135
hionein	-12.1135
azoreductase	-12.1135
▁OPT	-12.1135
▁Wba	-12.1136
▁Fcf	-12.1136
▁PET	-12.1136
CpxP	-12.1136
henolic	-12.1137
15098	-12.1137
▁phosphoglyc	-12.1137
hydroxycyclohexa	-12.1137
▁Ssu	-12.1137
▁Rubr	-12.1137
▁Alb	-12.1137
▁Aldose	-12.1138
former	-12.1138
Dlt	-12.1138
Bmr	-12.1138
▁nucleoid	-12.1138
▁EutE	-12.1139
▁antidote	-12.1139
Memo	-12.1139
▁sperm	-12.1139
▁Ysx	-12.1139
▁Ribose	-12.1139
▁Qse	-12.1139
▁NorM	-12.1139
▁WhiA	-12.114
▁Aldo	-12.114
▁XVII	-12.114
enterobact	-12.114
GlpQ	-12.1141
▁Calci	-12.1141
illus	-12.1142
produc	-12.1142
0261	-12.1142
▁YdcZ	-12.1142
diphth	-12.1143
nger	-12.1144
▁Ybf	-12.1144
▁FDF	-12.1144
MDC	-12.1145
▁phosphono	-12.1145
13557	-12.1145
oct	-12.1145
IHF	-12.1145
▁KCNC	-12.1145
▁mod	-12.1145
▁Yei	-12.1145
3748)	-12.1146
▁Nuc	-12.1146
▁env	-12.1146
phenylpropionate	-12.1147
4440)	-12.1147
indol	-12.1147
▁YqfF	-12.1147
▁YbaK	-12.1148
ivirus	-12.1148
photoreceptor	-12.1148
▁YgiM	-12.1149
▁TorT	-12.1149
inducer	-12.1149
Mdm	-12.115
1189	-12.115
▁MdtG	-12.1151
▁ABM	-12.1151
▁DDX	-12.1152
antifung	-12.1152
eramide	-12.1152
▁Actinobacterial	-12.1153
ctosid	-12.1153
Rpp	-12.1154
▁Aminoacyl	-12.1155
▁replicati	-12.1156
▁Semi	-12.1156
▁Inter	-12.1156
mediates	-12.1157
DsrH	-12.1159
ORC	-12.1159
0037	-12.1159
hog	-12.116
4124)	-12.116
▁prepilin	-12.1162
▁Thy	-12.1163
CYT	-12.1163
▁YfaS	-12.1165
▁QueE	-12.1165
icilli	-12.1166
2062	-12.1166
▁CpaE	-12.1166
▁Cpd	-12.1167
anaerob	-12.1168
0258	-12.1168
▁Transpeptidase	-12.1168
▁Tetrahydro	-12.1168
loo	-12.1169
olone	-12.117
▁ERM	-12.1172
FARP	-12.1173
CYP	-12.1174
▁PseudoU	-12.1174
Pmp	-12.1175
OBG	-12.1175
OAS	-12.1176
lipoate	-12.1176
▁NhaA	-12.1177
▁TauE	-12.1177
CCNT	-12.1178
4092)	-12.1179
▁occlu	-12.118
ung	-12.1181
SUFU	-12.1181
▁CopG	-12.1182
▁RsmE	-12.1182
ereb	-12.1183
▁Gld	-12.1185
050	-12.1187
▁partic	-12.1189
▁Alkali	-12.1194
▁RlmH	-12.1195
Yfh	-12.1197
Methylthioribose	-12.1198
▁cru	-12.1198
▁TRM	-12.1198
CEA	-12.1201
GPS	-12.1203
5026	-12.1203
1071	-12.1203
▁Lss	-12.1204
▁BMP	-12.1205
▁SLA	-12.121
Oxa	-12.1212
1126	-12.1213
YlbF	-12.1214
leb	-12.1215
NifU	-12.1215
AMM	-12.1227
chitinase	-12.1232
hAT	-12.1236
▁Hut	-12.1238
XPG	-12.1241
ScpA	-12.1244
▁Arn	-12.1246
rudi	-12.1251
CcmK	-12.1255
diaminop	-12.1258
cetylneuraminate	-12.1267
Formyl	-12.1288
3209	-12.13
YhcN	-12.13
▁Male	-12.1307
omplex	-12.131
SigG	-12.1314
Phf	-12.1319
secretin	-12.1327
ethanol	-12.1354
4784	-12.1414
RsmI	-12.142
1349	-12.1426
▁thymidylyl	-12.1433
▁porph	-12.1434
ThiW	-12.1456
▁chromati	-12.1468
▁synapt	-12.1471
2207	-12.1476
2135	-12.1486
3403	-12.1498
dehy	-12.1507
500)	-12.1527
fra	-12.1533
4143	-12.1564
2867	-12.158
3298	-12.1599
1500	-12.1602
1287	-12.161
▁GRAS	-12.1627
xchange	-12.1638
Trep	-12.1647
hondro	-12.165
milio	-12.1684
▁legumin	-12.1692
▁Ess	-12.1713
3399	-12.1754
mium	-12.1802
▁Enterobacteria	-12.1812
trig	-12.1818
996)	-12.1856
1676	-12.187
uxin	-12.1918
cetoacetate	-12.1934
RecB	-12.2048
▁teich	-12.2073
788)	-12.2151
NAC	-12.2162
gmatine	-12.2173
coat	-12.2217
iz	-12.2231
LuxP	-12.2299
alloph	-12.2305
uper	-12.233
galacturon	-12.2418
ephal	-12.244
henylalanine	-12.249
▁cou	-12.2492
yanophycinase	-12.2539
0108	-12.2583
KAP	-12.2685
nhG	-12.273
oad	-12.2824
RsbR	-12.2879
523)	-12.2887
▁Chloro	-12.2941
thioribose	-12.3052
019	-12.3127
▁plat	-12.3172
rfa	-12.3179
cystathion	-12.3212
hlorophyll	-12.3493
syn	-12.3507
elenocysteine	-12.3528
tryptophan	-12.3746
TMAO	-12.3762
Sulfi	-12.3768
pyrophosphate	-12.3768
isoform	-12.377
Oligo	-12.3775
Toll	-12.3777
Gamma	-12.3779
pseudouridine	-12.3779
Golgi	-12.3782
Cysteine	-12.3782
cytidyl	-12.3782
degradation	-12.3784
SNARE	-12.3784
photo	-12.3785
Ydc	-12.3785
adapt	-12.3786
families	-12.3786
phosphoesterase	-12.3787
glycosyl	-12.3789
aldolase	-12.379
PPE	-12.3791
ribosome	-12.3791
gyrase	-12.3792
0224	-12.3792
endonuclease	-12.3794
Receptor	-12.3794
SANT	-12.3795
chelat	-12.3796
transcription	-12.3796
change	-12.3798
cycle	-12.3802
Src	-12.3808
▁Orot	-12.3879
Tases	-12.3904
▁ni	-12.3908
plic	-12.3935
rimos	-12.3939
hibit	-12.3949
adia	-12.4009
▁oligomeri	-12.4041
orphyr	-12.406
▁thymidyl	-12.4061
▁modulat	-12.4234
inositide	-12.4236
▁Ypj	-12.4242
compa	-12.4264
ylneuraminate	-12.4284
▁chole	-12.4289
rohibitin	-12.4319
antiterminat	-12.4328
purinic	-12.4332
biotic	-12.4344
▁Ylb	-12.4352
riente	-12.4361
mphiphysin	-12.4365
lavorubredoxin	-12.4368
▁peroxi	-12.438
▁Chromat	-12.4385
IRE	-12.4386
nucleotid	-12.4388
▁hemoglobin	-12.4389
▁intermediate	-12.4392
exin	-12.4393
sulp	-12.4397
arcosine	-12.4398
xxC	-12.4404
▁Tsa	-12.4407
hrombo	-12.4419
TAR	-12.4423
▁Osm	-12.4425
yruvoyl	-12.4426
ontrol	-12.4426
▁archae	-12.4427
sucr	-12.4428
▁methionin	-12.4431
▁thiamin	-12.4432
▁Thiamin	-12.4432
Succinyl	-12.4432
sphingo	-12.4436
ctinobacterial	-12.4437
naphase	-12.4438
iaminopimel	-12.4442
ynein	-12.4442
difier	-12.4446
▁chlorop	-12.4452
acillus	-12.4454
hizobi	-12.4455
▁Sarco	-12.4455
aerobic	-12.4456
umarate	-12.4458
▁Gyr	-12.4458
▁Bacill	-12.446
▁cataboli	-12.446
▁attenuat	-12.446
imilar	-12.4461
reidoglyc	-12.4462
butyr	-12.4462
▁Polymer	-12.4462
cetylneuramin	-12.4462
▁Staphylococc	-12.4462
▁Aspart	-12.4462
▁gyr	-12.4462
glycer	-12.4463
▁Phosphatid	-12.4463
ginine	-12.4463
Galactos	-12.4463
ffector	-12.4463
uconate	-12.4463
terferon	-12.4463
▁exp	-12.4464
evelopment	-12.4464
maltodextrin	-12.4464
glycan	-12.4464
▁Trehal	-12.4464
lambd	-12.4465
ficien	-12.4465
▁baci	-12.4465
butano	-12.4465
restr	-12.4465
▁Shik	-12.4465
trnasferase	-12.4465
xalocrotonate	-12.4465
▁MazF	-12.4465
▁pyridoxine	-12.4465
02875	-12.4465
FBXW	-12.4465
PRORP	-12.4465
Rhamnogalacturon	-12.4465
biliverdin	-12.4465
emaphorin	-12.4465
emodeling	-12.4465
eptaprenyl	-12.4465
etinoblastoma	-12.4465
eukaryota	-12.4465
insulinase	-12.4465
llantoicase	-12.4465
rhodopsin	-12.4465
rozoite	-12.4465
rubred	-12.4465
▁Amastin	-12.4465
▁Aurora	-12.4465
▁Bactofilin	-12.4465
▁Chelatase	-12.4465
▁Cytoskeletal	-12.4465
▁EEXX	-12.4465
▁Efflux	-12.4465
▁Fimbrillin	-12.4465
▁Geranylgeranyl	-12.4465
▁Hemoglobin	-12.4465
▁INhibitors	-12.4465
▁LIMPETin	-12.4465
▁MBOAT	-12.4465
▁McrBC	-12.4465
▁Melibiase	-12.4465
▁Oxidoreductase	-12.4465
▁Palmitoyl	-12.4465
▁Rhodops	-12.4465
▁RnlA	-12.4465
▁Rubrerythrin	-12.4465
▁SpoIIIAH	-12.4465
▁Syntaxin	-12.4465
▁Thymosin	-12.4465
▁Transferr	-12.4465
▁Trimethylamine	-12.4465
▁Troponin	-12.4465
▁YbeY	-12.4465
▁accum	-12.4465
▁allantoinases	-12.4465
▁artemis	-12.4465
▁cadmium	-12.4465
▁completion	-12.4465
▁fumigatus	-12.4465
▁glyoxylate	-12.4465
▁lavendulae	-12.4465
▁nfrB	-12.4465
▁pancrea	-12.4465
▁pellucida	-12.4465
▁rubredoxin	-12.4465
▁succinoglycan	-12.4465
▁uroporphyrin	-12.4465
AtSKIP	-12.4465
DkgB	-12.4465
mltA	-12.4465
yclohexadien	-12.4465
▁Hydrophob	-12.4465
▁MlrC	-12.4465
▁RbsD	-12.4465
▁estrogen	-12.4465
▁meningoseptic	-12.4465
▁oxalate	-12.4465
▁rhodanese	-12.4465
CFIm	-12.4465
Oryza	-12.4465
YPEST	-12.4465
elaxase	-12.4465
▁Barrel	-12.4465
▁BatD	-12.4465
▁CDGSH	-12.4465
▁DehI	-12.4465
▁DmpG	-12.4465
▁KpsS	-12.4465
▁Malonyl	-12.4465
▁Nitrilase	-12.4465
▁diacylglyceryl	-12.4465
09692	-12.4465
fuculo	-12.4465
palmitoleoyl	-12.4465
ryptic	-12.4465
▁AtuA	-12.4465
▁BLOC	-12.4465
▁MlrA	-12.4465
▁MqsA	-12.4465
▁Stapho	-12.4465
▁apoptosis	-12.4465
▁livid	-12.4465
▁transacylase	-12.4465
DYNL	-12.4465
farnesyl	-12.4465
octulosonic	-12.4465
▁DksA	-12.4465
▁RsiW	-12.4465
▁Yoz	-12.4465
▁pelota	-12.4465
EhxA	-12.4465
allergen	-12.4465
cross	-12.4465
sulfonioprop	-12.4465
▁ZapB	-12.4465
▁glyceraldehyde	-12.4465
▁seque	-12.4465
▁CbtA	-12.4465
▁exclu	-12.4465
▁ovalbumin	-12.4465
periplas	-12.4465
▁Glyoxy	-12.4465
10788	-12.4465
erpene	-12.4465
phyto	-12.4465
▁AmpG	-12.4465
▁Wav	-12.4465
▁Yii	-12.4465
▁Ytj	-12.4465
▁ancient	-12.4465
aminoprop	-12.4465
▁CdaR	-12.4465
▁NrdR	-12.4465
▁AGFG	-12.4465
▁meio	-12.4465
oglobu	-12.4465
01346	-12.4465
▁Retino	-12.4465
▁CpcD	-12.4466
▁laminarinase	-12.4466
▁mening	-12.4466
